{"name": "Sample 1000 Vocab BPE Model", "vocabulary": ["ter", "bet", "ig", ",\u201d", "z", "ith", "ab", "crew", "say", "ro", "board", "ick", "ud", "poss", "will", "\u0153", "ship", "T", "your", "ah", "ack", "ly,", "perhap", "od", "Moby", "le,", "bro", "vis", "looked", "so", "e.", "M", "cl", "s,", "et", "himself", "cas", "then", "sle", "nat", "whal", "fr", "saw", "many", "found", "being", "age,", "one,", "sw", "set", "high", "times", "face", "ad", "En", "th", "com", "read", "table", "command", "use", "chief", "consid", "feel", "Ste", "ally", "its", "ach", "ft", "with", "pe", "gr", "urn", "wh", "each", "things", "ye,", "natur", "Z", "ct", "er.", "half", "K", "but", "He", "ree", "him,", "it.", "ict", "ou", "lat", "And", "No", "viathan", "God", "ix", "side", "The", "p", "way", "ves", "eyes", "It", "fer", "about", "sm", "now", "\u03b7", "ular", "Queequ", "hold", "sat", "(_", "sperm", "cond", "wi", "kn", "ser", "su", "how", "art", "ha", "\u00e8", "hard", "sc", "\u03c2", "med", "che", "light", "\u03c4", "ord", "wat", "beg", "ear", "ual", "a", "her", "\u0152", "very", "e", "perm", "ning", "v", "good", "cr", "val", "that,", "lord", "(", "tri", "ci", "both", "wind", "here", "ross", "lo", "time", "world", "ong", "before", "seem", "hand", "clo", "this", "for", "ific", "wr", "ck", "well", "ubb", "oo", "ers", "um", "little", "almost", "tw", "ow,", "run", "ull", "ool", "\u201cA", "ways", ")", "mat", "sk", "L", "ur", "cent", "Queequeg,", "mon", "those", "act", "that", "ling", "ry", "se", "age", "ste", "than", "pass", "sol", "je", "ore", "wor", "whole", "they", "ar", "ca", "Starbuck", "ship,", "ri", "could", "ss", ".", "ating", "cted", "cur", "col", "eness", "d", "te", "At", "life", "ward", "b", "young", "are", "ist", "n", "any", "ance", "come", "cre", "make", "best", "lay", "ang", "ving", "mom", "mast", "Stubb", "irst", "eng", "\u2014_", "spr", "HA", "Nant", "k", "oun", "t", "Sperm", "going", "What", "ol", "s;", "ies", "up", "ho", "arr", "ature", "Peleg", "anc", "en,", "\u2019t", "Ahab", "ild", "mind", "B", "ind", "\u00e9", "or", "something", "sight", "nor", "litt", "om", "full", "arm", "without", "x", "C", "est", "deck", "known", "_)", "have", "\u05d5", "mar", "by", "whe", "sh", "while", "soon", "him", "thing", "ll", "white", "Bild", "me.", "ering", "mean", "cause", "ide", "sea,", "[", "ra", "every", "!\u201d", "Ahab,", "fore", "1", "over", "ill", "there", "ite", "pro", "upon", "small", "hal", "W", "As", "jo", "nd", "ered", "along", "\u2014", "iv", "ery", "ty", "ign", "name", "circ", "id", "gh", "ction", "\u201c\u2018", "-", "in", "il", "follow", "cle", "E", "TER", "put", "Queequeg", "Pequ", "?", "were", "ful", "ne", "ber", "look", "s!", "seen", "ther", "Wh", "q", "think", "th,", "row", "him.", "leg", "two", "ings", "tre", "hab", "den", "all", "TE", "ject", "ark", "ither", "Que", "G", "irc", "s.", "Q", "stood", "ard", "heart", "as", "sy", "#", "rop", "toge", "9", "wild", "such", "cean", "How", "shall", "only", "de", "em", "ie", "voy", "Bildad", "them", "thy", "De", "sl", "stri", "might", "I", "str", "ever", "ween", "had", "ous", "gre", "ay", "she", "ort", "still", "from", "ump", "eye", "des", "to", "point", "ine", "prof", "li", "4", "these", "Dick", "port", "long", "ch", "did", "don", "ub", "turn", "ten", "bow", "ilt", "him;", "hun", "whales", "fam", "ow", "matter", "sea", "cri", "Whale", "bod", "ac", "ing,", "2", "In", "_.", "ir", "harpo", "one", "another", "fin", "cried", "ask", "comple", "even", "ough", "Pequod", "\u00a3", "if", "man", "sup", "cer", "st", "inde", "peculi", "order", "iness", "and", "into", "stand", "whi", "Starb", "sur", "o", "sin", "l", "three", "ary", "ched", "cor", "let", "boat", "like", "ated", "yet", "gl", "sure", "don\u2019t", "ace", "White", "Captain", "gent", "would", "when", "der", "ers,", "oud", "ed", "again", "ping", "llow", "tell", "ant", "ble", "cont", "aring", "ire", "pi", "bl", "qu", "dist", "myself", "ive", "en", "no", "av", "ts", "fe", "spe", "an", "must", "ess,", "seas", "room", "comp", "all,", "CHAPTER", "Whal", "H", "land", "\u03bf", "aken", "que", "m", "sort", "St", "er,", "pl", "We", "ish", "via", "also", "their", "last", "whale-", "first", "strange", "ood", "sent", "ed,", "af", "*", "equ", "ient", "vi", "off", "ness", "take", "won", "pecu", "cal", "should", "get", "_", "w", "once", "can", "V", "ke", "after", "together", "soul", "much", "S", "ment", "am", "which", "it", "ure", "el", "far", "pos", "does", "ations", "has", "whale,", "akes", "They", "ast", "ex", "ink", "me,", "i", "ed.", "appe", "ag", "ip", "ced", "spect", "\u2018", "bed", "ted", "igh", "more", "tom", "ave", "squ", "cu", "ped", "sing", "made", "ucket", "sub", "ions", "ple", "ru", "now,", "aw", "lar", "bo", "ren", "j", "new", "ic", "dis", "be", "I\u2019", "]", "P", "ances", "water", "I.", "ate", "form", "air", "con", "co", "nothing", "sav", "against", "sign", "ale", "tra", "ice", "ben", "g", "not", "CHAP", "ion", "through", "pur", "icular", "r", "reason", "ible", "dre", "pr", "king", "Mr", "ious", "down", "try", "low", "le", "That", "ung", "fo", "un", "ook", "there,", "mad", "inter", "the", "O", "ash", "super", "ath", "among", "So", "dead", "at", "ather", "ve", "led", "rest", "fl", "out", "vent", "f", "es", "us", "head", "ug", "ail", "large", "hel", "ose", "call", "fear", "int", "me", "ise", "3", "hap", "under", "ed;", "ey", "say,", "never", "away", "app", "of", "ily", "abin", "tain", "he", "aptain", "There", "Jon", "open", "ge", "men", "however", "plain", "self", "man,", "ching", "though", "you", "ster", "been", "Fl", "ght", "\u201cI", "h", "Th", "ver", "ake", "see", "agg", "som", "cra", "thou", "?\u201d", "went", "$", "y.", "\u2019", "\u00e6", "ul", "red", "es.", "wards", "hu", "mis", "till", "sel", "reg", "po", "night", "raw", "peculiar", "ould", "same", "captain", "gen", "uck", "ak", "dr", "it;", "ors", ";", "able", "ars", "just", "es,", "itt", "ly", "Y", "towards", "Ch", "Flask", "whale", "A", "what", "coun", "fri", "pre", "tou", "black", "N", "s", "mo", "uch", "ven", "sou", "men,", "other", "ep", "seemed", "whaling", "ut", "bre", "7", "ue", "gener", "comm", ",", "called", "we", "most", "ared", "ap", "et,", "al", "press", "day", "min", "y,", "it,", "es;", "go", "I,", "hor", "sid", "four", ".\u201d", "round", "end", "ief", "back", "For", "ld", "is", "ent", "ound", "tr", "then,", "Mo", "Jonah", "sleep", "mer", "vo", "ing.", "between", "br", "where", "ot", "ation", "ical", "ian", "on,", "and,", "ange", "know", "im", "F", "ob", "ew", "\u03f0", "D", "car", "na", "present", "ing", "ain", "op", "came", "draw", "ising", "said", "5", "part", "less", "CHA", "thought", "certain", "cabin", "sum", "inst", "main", "great", "may", "my", "y", "orn", "right", "Nantucket", "t,", "find", "dark", "thr", "ome", "!", "ust", "roll", "tim", "ition", "U", "was", "sail", "harpoone", "per", "ial", "eg", "ved", "or,", "ove", "cap", "ingly", "u", "cast", "ished", "son", "Se", "accoun", "stre", "er", "arb", "ank", ":", "fa", "sa", "pt", "fish", "mark", "X", "dou", "lie", "who", "heard", "iz", "\u201c", "att", "e,", "ere", "ff", "inn", "\u201d", "near", "ory", "ye", "ess", "ken", "8", "az", "ib", "ens", "give", "ce", "But", "\u05d7", "R", "is,", "some", "old", "ph", "ence", "word", "moment", "Pe", "oung", "place", "J", "own", "pose", "sun", "hat", "ied", "re", "his", "ass", "sp", "too", "6", "enc", "do", "vil", "This", "ity", "ight", "har", "sil", "lt", "au", "our", "c", "ason", "aking", "0", "ocean", "ting", "\u2019s", "-head", "on"], "merge_rules": [["t", "h"], ["i", "n"], ["th", "e"], ["a", "n"], ["e", "r"], ["a", "t"], ["r", "e"], ["o", "n"], ["o", "u"], ["e", "d"], ["i", "s"], ["e", "n"], ["in", "g"], ["a", "l"], ["an", "d"], ["o", "f"], ["s", "t"], ["o", "r"], ["a", "r"], ["t", "o"], ["e", "s"], ["a", "s"], ["i", "t"], ["w", "h"], ["s", "e"], ["h", "e"], ["l", "e"], ["o", "m"], ["o", "w"], ["l", "y"], ["c", "h"], ["b", "e"], ["i", "l"], ["a", "d"], ["th", "at"], ["i", "m"], ["g", "h"], ["h", "is"], ["u", "t"], ["al", "l"], ["v", "er"], ["n", "o"], ["c", "e"], ["i", "d"], ["s", ","], ["l", "d"], ["v", "e"], ["s", "h"], ["w", "i"], ["en", "t"], ["l", "i"], ["c", "k"], ["a", "y"], ["a", "b"], ["wi", "th"], ["f", "or"], ["u", "n"], ["m", "e"], ["i", "r"], ["a", "in"], ["w", "as"], ["er", "e"], ["e", "t"], ["gh", "t"], ["a", "p"], ["l", "l"], ["r", "o"], ["s", "u"], ["m", "o"], ["a", "g"], ["r", "i"], ["\u2019", "s"], ["e", ","], ["i", "on"], ["t", "er"], ["k", "e"], ["o", "o"], ["d", "e"], ["wh", "al"], ["h", "im"], ["s", "o"], ["i", "c"], ["q", "u"], ["ou", "t"], ["no", "t"], ["s", "a"], ["on", "e"], ["ou", "n"], ["a", "m"], ["u", "r"], ["u", "p"], ["b", "y"], ["the", "r"], ["th", "is"], ["p", "o"], ["a", "st"], ["om", "e"], ["b", "ut"], ["w", "e"], ["p", "er"], ["f", "r"], ["es", "s"], ["y", "ou"], ["il", "l"], ["c", "t"], ["m", "an"], ["b", "o"], ["p", "e"], ["h", "a"], ["u", "l"], ["c", "on"], ["fr", "om"], ["ou", "s"], ["n", "e"], ["ar", "d"], ["e", "m"], ["ow", "n"], ["ou", "ld"], ["i", "p"], ["an", "t"], ["f", "e"], ["a", "re"], ["r", "a"], ["the", "re"], ["W", "h"], ["wh", "i"], ["T", "he"], ["ar", "t"], ["u", "s"], ["es", ","], ["s", "ome"], ["n", "ow"], ["i", "f"], ["c", "om"], ["h", "ad"], ["m", "y"], ["i", "ght"], ["on", "g"], ["y", "e"], ["o", "re"], ["th", "ou"], ["sh", "ip"], ["t", "ain"], ["ha", "ve"], ["oun", "d"], ["is", "h"], ["l", "o"], ["p", "re"], ["o", "ld"], ["e", "ver"], ["th", "ing"], ["B", "ut"], ["p", "l"], ["se", "l"], ["in", "d"], ["w", "ere"], ["s", "."], ["whal", "e"], ["a", "k"], ["a", "c"], ["ed", ","], ["t", "e"], ["d", "er"], ["ou", "r"], ["w", "ay"], ["wh", "o"], ["li", "ke"], ["u", "e"], ["whi", "ch"], ["d", "o"], ["or", "t"], ["b", "l"], ["g", "e"], ["o", "ver"], ["the", "n"], ["the", "y"], ["the", "ir"], ["e", "x"], ["u", "m"], ["wh", "at"], ["wh", "en"], ["T", "h"], ["is", "t"], ["up", "on"], ["w", "or"], ["u", "st"], ["o", "ther"], ["e", "qu"], ["en", "d"], ["ab", "le"], ["g", "o"], ["s", "p"], ["e", "l"], ["mo", "re"], ["v", "en"], ["oo", "d"], ["i", "g"], ["u", "re"], ["t", "r"], ["mo", "st"], ["oo", "k"], ["f", "ore"], ["the", "m"], ["a", "ck"], ["t", "im"], ["sel", "f"], ["g", "re"], ["er", "s"], ["an", "y"], ["ap", "tain"], ["at", "e"], ["it", "t"], ["in", "to"], [".", "\u201d"], ["it", "e"], ["w", "ould"], ["u", "ck"], ["o", "d"], ["at", "ion"], ["al", "ly"], ["y", ","], ["i", "ve"], ["n", "d"], ["H", "A"], ["se", "em"], ["T", "E"], ["st", "r"], ["th", "an"], ["S", "t"], ["a", "f"], ["h", "ab"], ["p", "ro"], ["l", "and"], ["s", "s"], ["ing", ","], ["m", "en"], ["TE", "R"], ["h", "er"], ["s", "c"], ["e", "p"], ["se", "a"], ["he", "ad"], ["C", "HA"], ["CHA", "P"], ["CHAP", "TER"], ["c", "o"], ["ou", "gh"], ["be", "en"], ["d", "own"], ["an", "ce"], ["b", "le"], ["A", "hab"], ["e", "g"], ["sa", "id"], ["a", "ke"], ["c", "l"], ["a", "v"], ["i", "ous"], ["s", ";"], ["id", "e"], ["in", "t"], ["g", "r"], ["Q", "ue"], ["o", "p"], ["su", "ch"], ["c", "an"], ["of", "f"], ["i", "v"], ["the", "se"], ["al", "e"], ["A", "nd"], ["ab", "out"], ["f", "a"], ["w", "ill"], ["ar", "k"], ["c", "re"], ["Que", "equ"], ["Queequ", "eg"], ["it", "y"], ["l", "ong"], ["H", "e"], ["sa", "il"], ["h", "ow"], ["e", "st"], ["ag", "ain"], ["s", "ay"], ["o", "se"], ["h", "and"], ["p", "r"], ["w", "ard"], ["h", "ar"], ["m", "at"], ["on", "ly"], ["in", "k"], ["c", "a"], ["ag", "e"], ["il", "d"], ["thou", "gh"], ["ur", "n"], ["p", "art"], ["i", "re"], ["re", "e"], ["l", "ess"], ["l", "ook"], ["it", "s"], ["f", "ul"], ["i", "es"], ["ver", "y"], ["w", "at"], ["\u2019", "t"], ["v", "o"], ["th", "ose"], ["l", "itt"], ["i", "ck"], ["or", "n"], ["u", "d"], ["litt", "le"], ["in", "e"], ["C", "aptain"], ["se", "e"], ["as", "s"], ["th", "r"], ["s", "pe"], ["f", "l"], ["t", "w"], ["er", ","], ["g", "l"], ["you", "r"], ["gre", "at"], ["I", "t"], ["d", "id"], ["a", "ch"], ["bo", "at"], ["y", "et"], ["at", "ed"], ["t", "ed"], ["an", "c"], ["wh", "ere"], ["h", "as"], ["d", "ay"], ["n", "ess"], ["b", "r"], ["I", "n"], ["m", "on"], ["i", "e"], ["u", "ch"], ["h", "ere"], ["le", "g"], ["it", ","], ["be", "fore"], ["an", "g"], ["h", "o"], ["af", "ter"], ["seem", "ed"], ["u", "b"], ["st", "ill"], ["en", "ce"], ["li", "ght"], ["l", "ast"], ["c", "ould"], ["ne", "ver"], ["p", "t"], ["es", "."], ["com", "p"], ["u", "ll"], ["i", "an"], ["tim", "e"], ["har", "po"], ["him", "self"], ["m", "ad"], ["ever", "y"], ["thou", "ght"], ["to", "o"], ["as", "h"], ["Wh", "ale"], ["m", "ust"], ["t", "urn"], ["c", "oun"], ["m", "ight"], ["or", "d"], ["ir", "st"], ["we", "ll"], ["s", "w"], ["c", "r"], ["ed", "."], ["m", "ent"], ["r", "ound"], ["f", "ish"], ["ig", "n"], ["m", "uch"], ["tw", "o"], ["?", "\u201d"], ["m", "er"], ["d", "is"], ["s", "ort"], [",", "\u201d"], ["b", "er"], ["is", "e"], ["re", "d"], ["k", "now"], ["per", "m"], ["a", "ce"], ["n", "ight"], ["st", "and"], ["m", "ay"], ["a", "w"], ["v", "ing"], ["c", "er"], ["e", "ven"], ["wh", "ite"], ["be", "ing"], ["him", ","], ["g", "ood"], ["F", "or"], ["_", "."], ["ul", "ar"], ["th", "ree"], ["s", "er"], ["t", ","], ["ri", "ght"], ["!", "\u201d"], ["t", "ing"], ["a", "th"], ["o", "b"], ["b", "ack"], ["ll", "ow"], ["v", "i"], ["th", "ink"], ["ar", "m"], ["whi", "le"], ["d", "es"], ["c", "ri"], ["ap", "p"], ["a", "h"], ["re", "ad"], ["c", "u"], ["wor", "ld"], ["f", "irst"], ["h", "un"], ["or", "y"], ["as", "k"], ["v", "es"], ["s", "id"], ["i", "gh"], ["ar", "b"], ["thr", "ough"], ["me", ","], ["v", "ed"], ["ar", "s"], ["l", "ow"], ["c", "all"], ["s", "ent"], ["m", "ast"], ["t", "y"], ["d", "en"], ["sa", "me"], ["un", "der"], ["c", "ome"], ["a", "ir"], ["s", "he"], ["n", "ing"], ["sh", "ould"], ["k", "n"], ["es", "s,"], ["i", "al"], ["ar", "y"], ["uck", "et"], ["p", "h"], ["man", "y"], ["ly", ","], ["k", "ing"], ["i", "ble"], ["f", "er"], ["be", "t"], ["de", "ck"], ["ion", "s"], ["s", "m"], ["e", "ar"], ["st", "e"], ["wat", "er"], ["n", "at"], ["l", "ar"], ["mad", "e"], ["then", ","], ["ub", "b"], ["o", "t"], ["Th", "ere"], ["i", "z"], ["s", "le"], ["al", "most"], ["N", "ant"], ["n", "a"], ["\u2014", "_"], ["am", "ong"], ["s", "ide"], ["c", "lo"], ["harpo", "one"], ["Nant", "ucket"], ["m", "ar"], ["se", "en"], ["ak", "ing"], ["s", "ou"], ["p", "ed"], ["te", "ll"], ["it", "."], ["f", "t"], ["j", "o"], ["he", "art"], ["with", "out"], ["p", "ass"], ["y", "e,"], ["whal", "e,"], ["f", "ound"], ["a", "way"], ["bo", "ard"], ["st", "er"], ["G", "od"], ["t", "en"], ["in", "ter"], ["p", "ort"], ["d", "on"], ["f", "in"], ["su", "r"], ["vo", "y"], ["l", "ed"], ["c", "aptain"], ["le", "t"], ["Wh", "at"], ["at", "t"], ["i", "ce"], ["u", "se"], ["ch", "ed"], ["ca", "me"], ["b", "ro"], ["an", "ge"], ["er", "s,"], ["B", "ild"], ["Bild", "ad"], ["c", "he"], ["St", "ubb"], ["l", "ing"], ["to", "m"], ["i", "b"], ["d", "ist"], ["P", "e"], ["th", ","], ["g", "en"], ["S", "o"], ["at", "ing"], ["w", "ind"], ["I", ","], ["f", "f"], ["wor", "d"], ["or", "s"], ["man", ","], ["f", "ar"], ["se", "t"], ["St", "arb"], ["Starb", "uck"], ["whal", "es"], ["en", "s"], ["p", "ur"], ["w", "on"], ["ic", "al"], ["r", "y"], ["c", "as"], ["again", "st"], ["cre", "w"], ["b", "ow"], ["on", ","], ["Pe", "leg"], ["P", "equ"], ["Pequ", "od"], ["m", "ed"], ["e", "y"], ["ward", "s"], ["f", "o"], ["J", "on"], ["ra", "w"], ["i", "ly"], ["su", "b"], ["me", "an"], ["um", "p"], ["whal", "ing"], ["j", "e"], ["b", "re"], ["ing", "s"], ["sm", "all"], ["a", "z"], ["bo", "d"], ["i", "ed"], ["con", "t"], ["b", "ed"], ["in", "st"], ["pre", "sent"], ["com", "m"], ["kn", "own"], ["m", "ind"], ["a", "ct"], ["some", "thing"], ["M", "o"], ["Jon", "ah"], ["ch", "ing"], ["d", "r"], ["en", "g"], ["c", "ed"], ["re", "g"], ["h", "old"], ["h", "ap"], ["er", "ing"], ["c", "ar"], ["j", "ust"], ["re", "n"], ["\u201c", "\u2018"], ["p", "ut"], ["er", "."], ["ic", "t"], ["F", "l"], ["t", "ake"], ["se", "as"], ["m", "ain"], ["v", "ent"], ["(", "_"], ["him", "."], ["men", ","], ["or", ","], ["a", "ve"], ["cer", "tain"], ["d", "re"], ["e", "ach"], ["h", "al"], ["ne", "w"], ["g", "et"], ["v", "al"], ["ro", "ll"], ["i", "x"], ["li", "fe"], ["fa", "ce"], ["su", "p"], ["t", "re"], ["l", "t"], ["s", "un"], ["no", "thing"], ["t", "ill"], ["c", "i"], ["sou", "l"], ["o", "l"], ["it", "ion"], ["ow", ","], ["that", ","], ["u", "g"], ["Fl", "ask"], ["if", "ic"], ["in", "de"], ["p", "le"], ["N", "o"], ["c", "ra"], ["w", "ild"], ["pl", "ace"], ["an", "k"], ["m", "ake"], ["there", ","], ["on", "ce"], ["po", "se"], ["er", "ed"], ["je", "ct"], ["st", "ri"], ["ing", "."], ["h", "ard"], ["fe", "el"], ["op", "en"], ["sle", "ep"], ["ir", "c"], ["n", "or"], ["be", "g"], ["ar", "r"], ["ab", "in"], ["whale", "-"], ["l", "ay"], ["ce", "an"], ["at", "ure"], ["m", "om"], ["mom", "ent"], ["h", "igh"], ["so", "on"], ["es", ";"], ["y", "."], ["na", "me"], ["gen", "er"], ["e", "ye"], ["f", "ull"], ["to", "wards"], ["s", "perm"], ["A", "t"], ["d", "raw"], ["c", "ap"], ["po", "ss"], ["hal", "f"], ["c", "irc"], ["s", "il"], ["don", "\u2019t"], ["we", "en"], ["oun", "g"], ["C", "h"], ["a", "il"], ["ar", "ing"], ["a", "u"], ["t", "ou"], ["v", "is"], ["sa", "w"], ["ca", "use"], ["he", "ard"], ["bet", "ween"], ["m", "ark"], ["Queequeg", ","], ["are", "d"], ["s", "!"], ["is", ","], ["r", "un"], ["o", "ve"], ["or", "der"], ["mat", "ter"], ["t", "able"], ["I", "."], ["ro", "om"], ["who", "le"], ["e", "."], ["ro", "p"], ["A", "s"], ["lar", "ge"], ["i", "ther"], ["thing", "s"], ["str", "ange"], ["I", "\u2019"], ["c", "abin"], ["ing", "ly"], ["W", "e"], ["h", "or"], ["ct", "ed"], ["s", "in"], ["w", "r"], ["po", "s"], ["and", ","], ["per", "hap"], ["k", "en"], ["g", "ent"], ["bl", "ack"], ["al", "ong"], ["S", "perm"], ["i", "th"], ["he", "l"], ["way", "s"], ["vi", "a"], ["ne", "ar"], ["ro", "ss"], ["po", "int"], ["-", "head"], ["t", "s"], ["p", "ing"], ["th", "y"], ["tim", "es"], ["u", "al"], ["T", "his"], ["call", "ed"], ["s", "ign"], ["s", "on"], ["via", "than"], ["f", "ri"], ["er", "y"], ["o", "cean"], ["a", "ther"], ["S", "te"], ["pe", "cu"], ["pecu", "li"], ["peculi", "ar"], ["c", "or"], ["in", "ess"], ["en", ","], ["so", "l"], ["su", "per"], ["oo", "l"], ["S", "e"], ["i", "ent"], ["f", "our"], ["for", "m"], ["c", "ur"], ["say", ","], ["m", "in"], ["con", "sid"], ["e", "w"], ["all", ","], ["et", ","], ["ag", "e,"], ["st", "ood"], ["look", "ed"], ["ag", "g"], ["t", "ra"], ["s", "k"], ["\u201c", "I"], ["pl", "ain"], ["ship", ","], ["spe", "ct"], ["as", "on"], ["w", "ent"], ["cri", "ed"], ["c", "ast"], ["to", "ge"], ["toge", "ther"], ["wh", "e"], ["re", "st"], ["r", "u"], ["h", "u"], ["co", "l"], ["my", "self"], ["_", ")"], ["sa", "v"], ["me", "."], ["do", "es"], ["an", "other"], ["d", "ark"], ["Mo", "by"], ["D", "ick"], ["ie", "f"], ["p", "i"], ["al", "so"], ["c", "al"], ["sp", "r"], ["Th", "at"], ["de", "ad"], ["ac", "coun"], ["go", "ing"], ["s", "l"], ["y", "oung"], ["bo", "th"], ["nat", "ur"], ["en", "ess"], ["m", "is"], ["ish", "ed"], ["st", "re"], ["sh", "all"], ["sea", ","], ["ak", "en"], ["The", "y"], ["d", "ou"], ["ct", "ion"], ["il", "t"], ["ou", "d"], ["l", "at"], ["ic", "ular"], ["s", "ight"], ["l", "ord"], ["en", "c"], ["re", "ason"], ["v", "il"], ["s", "om"], ["Wh", "al"], ["qu", "e"], ["con", "d"], ["t", "ri"], ["be", "st"], ["un", "g"], ["b", "en"], ["M", "r"], ["s", "ing"], ["anc", "es"], ["in", "n"], ["comp", "le"], ["comm", "and"], ["g", "ive"], ["r", "ow"], ["pr", "of"], ["c", "le"], ["on", "e,"], ["\u201c", "A"], ["s", "at"], ["H", "ow"], ["su", "re"], ["h", "at"], ["Wh", "ite"], ["f", "am"], ["Ahab", ","], ["E", "n"], ["D", "e"], ["su", "m"], ["s", "y"], ["ey", "es"], ["him", ";"], ["le", ","], ["li", "e"], ["pre", "ss"], ["ak", "es"], ["fo", "llow"], ["now", ","], ["s", "qu"], ["it", ";"], ["ed", ";"], ["tr", "y"], ["c", "ent"], ["ch", "ief"], ["ation", "s"], ["ap", "pe"], ["f", "ind"], ["how", "ever"], ["is", "ing"], ["fe", "ar"]], "vocab_list": ["!", "!\u201d", "#", "$", "(", "(_", ")", "*", ",", ",\u201d", "-", "-head", ".", ".\u201d", "0", "1", "2", "3", "4", "5", "6", "7", "8", "9", ":", ";", "?", "?\u201d", "A", "Ahab", "Ahab,", "And", "As", "At", "B", "Bild", "Bildad", "But", "C", "CHA", "CHAP", "CHAPTER", "Captain", "Ch", "D", "De", "Dick", "E", "En", "F", "Fl", "Flask", "For", "G", "God", "H", "HA", "He", "How", "I", "I,", "I.", "In", "It", "I\u2019", "J", "Jon", "Jonah", "K", "L", "M", "Mo", "Moby", "Mr", "N", "Nant", "Nantucket", "No", "O", "P", "Pe", "Peleg", "Pequ", "Pequod", "Q", "Que", "Queequ", "Queequeg", "Queequeg,", "R", "S", "Se", "So", "Sperm", "St", "Starb", "Starbuck", "Ste", "Stubb", "T", "TE", "TER", "Th", "That", "The", "There", "They", "This", "U", "V", "W", "We", "Wh", "Whal", "Whale", "What", "White", "X", "Y", "Z", "[", "]", "_", "_)", "_.", "a", "ab", "abin", "able", "about", "ac", "accoun", "ace", "ach", "ack", "act", "ad", "af", "after", "ag", "again", "against", "age", "age,", "agg", "ah", "ail", "ain", "air", "ak", "ake", "aken", "akes", "aking", "al", "ale", "all", "all,", "ally", "almost", "along", "also", "am", "among", "an", "anc", "ance", "ances", "and", "and,", "ang", "ange", "ank", "another", "ant", "any", "ap", "app", "appe", "aptain", "ar", "arb", "ard", "are", "ared", "aring", "ark", "arm", "arr", "ars", "art", "ary", "as", "ash", "ask", "ason", "ass", "ast", "at", "ate", "ated", "ath", "ather", "ating", "ation", "ations", "att", "ature", "au", "av", "ave", "aw", "away", "ay", "az", "b", "back", "be", "bed", "been", "before", "beg", "being", "ben", "ber", "best", "bet", "between", "bl", "black", "ble", "bo", "board", "boat", "bod", "both", "bow", "br", "bre", "bro", "but", "by", "c", "ca", "cabin", "cal", "call", "called", "came", "can", "cap", "captain", "car", "cas", "cast", "cause", "ce", "cean", "ced", "cent", "cer", "certain", "ch", "che", "ched", "chief", "ching", "ci", "circ", "ck", "cl", "cle", "clo", "co", "col", "com", "come", "comm", "command", "comp", "comple", "con", "cond", "consid", "cont", "cor", "could", "coun", "cr", "cra", "cre", "crew", "cri", "cried", "ct", "cted", "ction", "cu", "cur", "d", "dark", "day", "de", "dead", "deck", "den", "der", "des", "did", "dis", "dist", "do", "does", "don", "don\u2019t", "dou", "down", "dr", "draw", "dre", "e", "e,", "e.", "each", "ear", "ed", "ed,", "ed.", "ed;", "eg", "el", "em", "en", "en,", "enc", "ence", "end", "eness", "eng", "ens", "ent", "ep", "equ", "er", "er,", "er.", "ere", "ered", "ering", "ers", "ers,", "ery", "es", "es,", "es.", "es;", "ess", "ess,", "est", "et", "et,", "even", "ever", "every", "ew", "ex", "ey", "eye", "eyes", "f", "fa", "face", "fam", "far", "fe", "fear", "feel", "fer", "ff", "fin", "find", "first", "fish", "fl", "fo", "follow", "for", "fore", "form", "found", "four", "fr", "fri", "from", "ft", "ful", "full", "g", "ge", "gen", "gener", "gent", "get", "gh", "ght", "give", "gl", "go", "going", "good", "gr", "gre", "great", "h", "ha", "hab", "had", "hal", "half", "hand", "hap", "har", "hard", "harpo", "harpoone", "has", "hat", "have", "he", "head", "heard", "heart", "hel", "her", "here", "high", "him", "him,", "him.", "him;", "himself", "his", "ho", "hold", "hor", "how", "however", "hu", "hun", "i", "ial", "ian", "ib", "ible", "ic", "ical", "ice", "ick", "ict", "icular", "id", "ide", "ie", "ied", "ief", "ient", "ies", "if", "ific", "ig", "igh", "ight", "ign", "il", "ild", "ill", "ilt", "ily", "im", "in", "ind", "inde", "ine", "iness", "ing", "ing,", "ing.", "ingly", "ings", "ink", "inn", "inst", "int", "inter", "into", "ion", "ions", "ious", "ip", "ir", "irc", "ire", "irst", "is", "is,", "ise", "ish", "ished", "ising", "ist", "it", "it,", "it.", "it;", "ite", "ith", "ither", "ition", "its", "itt", "ity", "iv", "ive", "ix", "iz", "j", "je", "ject", "jo", "just", "k", "ke", "ken", "king", "kn", "know", "known", "l", "land", "lar", "large", "last", "lat", "lay", "ld", "le", "le,", "led", "leg", "less", "let", "li", "lie", "life", "light", "like", "ling", "litt", "little", "ll", "llow", "lo", "long", "look", "looked", "lord", "low", "lt", "ly", "ly,", "m", "mad", "made", "main", "make", "man", "man,", "many", "mar", "mark", "mast", "mat", "matter", "may", "me", "me,", "me.", "mean", "med", "men", "men,", "ment", "mer", "might", "min", "mind", "mis", "mo", "mom", "moment", "mon", "more", "most", "much", "must", "my", "myself", "n", "na", "name", "nat", "natur", "nd", "ne", "near", "ness", "never", "new", "night", "ning", "no", "nor", "not", "nothing", "now", "now,", "o", "ob", "ocean", "od", "of", "off", "ol", "old", "om", "ome", "on", "on,", "once", "one", "one,", "ong", "only", "oo", "ood", "ook", "ool", "op", "open", "or", "or,", "ord", "order", "ore", "orn", "ors", "ort", "ory", "ose", "ot", "other", "ou", "oud", "ough", "ould", "oun", "ound", "oung", "our", "ous", "out", "ove", "over", "ow", "ow,", "own", "p", "part", "pass", "pe", "pecu", "peculi", "peculiar", "ped", "per", "perhap", "perm", "ph", "pi", "ping", "pl", "place", "plain", "ple", "po", "point", "port", "pos", "pose", "poss", "pr", "pre", "present", "press", "pro", "prof", "pt", "pur", "put", "q", "qu", "que", "r", "ra", "raw", "re", "read", "reason", "red", "ree", "reg", "ren", "rest", "ri", "right", "ro", "roll", "room", "rop", "ross", "round", "row", "ru", "run", "ry", "s", "s!", "s,", "s.", "s;", "sa", "said", "sail", "same", "sat", "sav", "saw", "say", "say,", "sc", "se", "sea", "sea,", "seas", "see", "seem", "seemed", "seen", "sel", "self", "sent", "ser", "set", "sh", "shall", "she", "ship", "ship,", "should", "sid", "side", "sight", "sign", "sil", "sin", "sing", "sk", "sl", "sle", "sleep", "sm", "small", "so", "sol", "som", "some", "something", "son", "soon", "sort", "sou", "soul", "sp", "spe", "spect", "sperm", "spr", "squ", "ss", "st", "stand", "ste", "ster", "still", "stood", "str", "strange", "stre", "stri", "su", "sub", "such", "sum", "sun", "sup", "super", "sur", "sure", "sw", "sy", "t", "t,", "table", "tain", "take", "te", "ted", "tell", "ten", "ter", "th", "th,", "than", "that", "that,", "the", "their", "them", "then", "then,", "ther", "there", "there,", "these", "they", "thing", "things", "think", "this", "those", "thou", "though", "thought", "thr", "three", "through", "thy", "till", "tim", "time", "times", "ting", "to", "toge", "together", "tom", "too", "tou", "towards", "tr", "tra", "tre", "tri", "try", "ts", "turn", "tw", "two", "ty", "u", "ual", "ub", "ubb", "uch", "uck", "ucket", "ud", "ue", "ug", "ul", "ular", "ull", "um", "ump", "un", "under", "ung", "up", "upon", "ur", "ure", "urn", "us", "use", "ust", "ut", "v", "val", "ve", "ved", "ven", "vent", "ver", "very", "ves", "vi", "via", "viathan", "vil", "ving", "vis", "vo", "voy", "w", "ward", "wards", "was", "wat", "water", "way", "ways", "we", "ween", "well", "went", "were", "wh", "whal", "whale", "whale,", "whale-", "whales", "whaling", "what", "whe", "when", "where", "whi", "which", "while", "white", "who", "whole", "wi", "wild", "will", "wind", "with", "without", "won", "wor", "word", "world", "would", "wr", "x", "y", "y,", "y.", "ye", "ye,", "yet", "you", "young", "your", "z", "\u00a3", "\u00e6", "\u00e8", "\u00e9", "\u0152", "\u0153", "\u03b7", "\u03bf", "\u03c2", "\u03c4", "\u03f0", "\u05d5", "\u05d7", "\u2014", "\u2014_", "\u2018", "\u2019", "\u2019s", "\u2019t", "\u201c", "\u201cA", "\u201cI", "\u201c\u2018", "\u201d"], "token_to_id": {"!": 0, "!\u201d": 1, "#": 2, "$": 3, "(": 4, "(_": 5, ")": 6, "*": 7, ",": 8, ",\u201d": 9, "-": 10, "-head": 11, ".": 12, ".\u201d": 13, "0": 14, "1": 15, "2": 16, "3": 17, "4": 18, "5": 19, "6": 20, "7": 21, "8": 22, "9": 23, ":": 24, ";": 25, "?": 26, "?\u201d": 27, "A": 28, "Ahab": 29, "Ahab,": 30, "And": 31, "As": 32, "At": 33, "B": 34, "Bild": 35, "Bildad": 36, "But": 37, "C": 38, "CHA": 39, "CHAP": 40, "CHAPTER": 41, "Captain": 42, "Ch": 43, "D": 44, "De": 45, "Dick": 46, "E": 47, "En": 48, "F": 49, "Fl": 50, "Flask": 51, "For": 52, "G": 53, "God": 54, "H": 55, "HA": 56, "He": 57, "How": 58, "I": 59, "I,": 60, "I.": 61, "In": 62, "It": 63, "I\u2019": 64, "J": 65, "Jon": 66, "Jonah": 67, "K": 68, "L": 69, "M": 70, "Mo": 71, "Moby": 72, "Mr": 73, "N": 74, "Nant": 75, "Nantucket": 76, "No": 77, "O": 78, "P": 79, "Pe": 80, "Peleg": 81, "Pequ": 82, "Pequod": 83, "Q": 84, "Que": 85, "Queequ": 86, "Queequeg": 87, "Queequeg,": 88, "R": 89, "S": 90, "Se": 91, "So": 92, "Sperm": 93, "St": 94, "Starb": 95, "Starbuck": 96, "Ste": 97, "Stubb": 98, "T": 99, "TE": 100, "TER": 101, "Th": 102, "That": 103, "The": 104, "There": 105, "They": 106, "This": 107, "U": 108, "V": 109, "W": 110, "We": 111, "Wh": 112, "Whal": 113, "Whale": 114, "What": 115, "White": 116, "X": 117, "Y": 118, "Z": 119, "[": 120, "]": 121, "_": 122, "_)": 123, "_.": 124, "a": 125, "ab": 126, "abin": 127, "able": 128, "about": 129, "ac": 130, "accoun": 131, "ace": 132, "ach": 133, "ack": 134, "act": 135, "ad": 136, "af": 137, "after": 138, "ag": 139, "again": 140, "against": 141, "age": 142, "age,": 143, "agg": 144, "ah": 145, "ail": 146, "ain": 147, "air": 148, "ak": 149, "ake": 150, "aken": 151, "akes": 152, "aking": 153, "al": 154, "ale": 155, "all": 156, "all,": 157, "ally": 158, "almost": 159, "along": 160, "also": 161, "am": 162, "among": 163, "an": 164, "anc": 165, "ance": 166, "ances": 167, "and": 168, "and,": 169, "ang": 170, "ange": 171, "ank": 172, "another": 173, "ant": 174, "any": 175, "ap": 176, "app": 177, "appe": 178, "aptain": 179, "ar": 180, "arb": 181, "ard": 182, "are": 183, "ared": 184, "aring": 185, "ark": 186, "arm": 187, "arr": 188, "ars": 189, "art": 190, "ary": 191, "as": 192, "ash": 193, "ask": 194, "ason": 195, "ass": 196, "ast": 197, "at": 198, "ate": 199, "ated": 200, "ath": 201, "ather": 202, "ating": 203, "ation": 204, "ations": 205, "att": 206, "ature": 207, "au": 208, "av": 209, "ave": 210, "aw": 211, "away": 212, "ay": 213, "az": 214, "b": 215, "back": 216, "be": 217, "bed": 218, "been": 219, "before": 220, "beg": 221, "being": 222, "ben": 223, "ber": 224, "best": 225, "bet": 226, "between": 227, "bl": 228, "black": 229, "ble": 230, "bo": 231, "board": 232, "boat": 233, "bod": 234, "both": 235, "bow": 236, "br": 237, "bre": 238, "bro": 239, "but": 240, "by": 241, "c": 242, "ca": 243, "cabin": 244, "cal": 245, "call": 246, "called": 247, "came": 248, "can": 249, "cap": 250, "captain": 251, "car": 252, "cas": 253, "cast": 254, "cause": 255, "ce": 256, "cean": 257, "ced": 258, "cent": 259, "cer": 260, "certain": 261, "ch": 262, "che": 263, "ched": 264, "chief": 265, "ching": 266, "ci": 267, "circ": 268, "ck": 269, "cl": 270, "cle": 271, "clo": 272, "co": 273, "col": 274, "com": 275, "come": 276, "comm": 277, "command": 278, "comp": 279, "comple": 280, "con": 281, "cond": 282, "consid": 283, "cont": 284, "cor": 285, "could": 286, "coun": 287, "cr": 288, "cra": 289, "cre": 290, "crew": 291, "cri": 292, "cried": 293, "ct": 294, "cted": 295, "ction": 296, "cu": 297, "cur": 298, "d": 299, "dark": 300, "day": 301, "de": 302, "dead": 303, "deck": 304, "den": 305, "der": 306, "des": 307, "did": 308, "dis": 309, "dist": 310, "do": 311, "does": 312, "don": 313, "don\u2019t": 314, "dou": 315, "down": 316, "dr": 317, "draw": 318, "dre": 319, "e": 320, "e,": 321, "e.": 322, "each": 323, "ear": 324, "ed": 325, "ed,": 326, "ed.": 327, "ed;": 328, "eg": 329, "el": 330, "em": 331, "en": 332, "en,": 333, "enc": 334, "ence": 335, "end": 336, "eness": 337, "eng": 338, "ens": 339, "ent": 340, "ep": 341, "equ": 342, "er": 343, "er,": 344, "er.": 345, "ere": 346, "ered": 347, "ering": 348, "ers": 349, "ers,": 350, "ery": 351, "es": 352, "es,": 353, "es.": 354, "es;": 355, "ess": 356, "ess,": 357, "est": 358, "et": 359, "et,": 360, "even": 361, "ever": 362, "every": 363, "ew": 364, "ex": 365, "ey": 366, "eye": 367, "eyes": 368, "f": 369, "fa": 370, "face": 371, "fam": 372, "far": 373, "fe": 374, "fear": 375, "feel": 376, "fer": 377, "ff": 378, "fin": 379, "find": 380, "first": 381, "fish": 382, "fl": 383, "fo": 384, "follow": 385, "for": 386, "fore": 387, "form": 388, "found": 389, "four": 390, "fr": 391, "fri": 392, "from": 393, "ft": 394, "ful": 395, "full": 396, "g": 397, "ge": 398, "gen": 399, "gener": 400, "gent": 401, "get": 402, "gh": 403, "ght": 404, "give": 405, "gl": 406, "go": 407, "going": 408, "good": 409, "gr": 410, "gre": 411, "great": 412, "h": 413, "ha": 414, "hab": 415, "had": 416, "hal": 417, "half": 418, "hand": 419, "hap": 420, "har": 421, "hard": 422, "harpo": 423, "harpoone": 424, "has": 425, "hat": 426, "have": 427, "he": 428, "head": 429, "heard": 430, "heart": 431, "hel": 432, "her": 433, "here": 434, "high": 435, "him": 436, "him,": 437, "him.": 438, "him;": 439, "himself": 440, "his": 441, "ho": 442, "hold": 443, "hor": 444, "how": 445, "however": 446, "hu": 447, "hun": 448, "i": 449, "ial": 450, "ian": 451, "ib": 452, "ible": 453, "ic": 454, "ical": 455, "ice": 456, "ick": 457, "ict": 458, "icular": 459, "id": 460, "ide": 461, "ie": 462, "ied": 463, "ief": 464, "ient": 465, "ies": 466, "if": 467, "ific": 468, "ig": 469, "igh": 470, "ight": 471, "ign": 472, "il": 473, "ild": 474, "ill": 475, "ilt": 476, "ily": 477, "im": 478, "in": 479, "ind": 480, "inde": 481, "ine": 482, "iness": 483, "ing": 484, "ing,": 485, "ing.": 486, "ingly": 487, "ings": 488, "ink": 489, "inn": 490, "inst": 491, "int": 492, "inter": 493, "into": 494, "ion": 495, "ions": 496, "ious": 497, "ip": 498, "ir": 499, "irc": 500, "ire": 501, "irst": 502, "is": 503, "is,": 504, "ise": 505, "ish": 506, "ished": 507, "ising": 508, "ist": 509, "it": 510, "it,": 511, "it.": 512, "it;": 513, "ite": 514, "ith": 515, "ither": 516, "ition": 517, "its": 518, "itt": 519, "ity": 520, "iv": 521, "ive": 522, "ix": 523, "iz": 524, "j": 525, "je": 526, "ject": 527, "jo": 528, "just": 529, "k": 530, "ke": 531, "ken": 532, "king": 533, "kn": 534, "know": 535, "known": 536, "l": 537, "land": 538, "lar": 539, "large": 540, "last": 541, "lat": 542, "lay": 543, "ld": 544, "le": 545, "le,": 546, "led": 547, "leg": 548, "less": 549, "let": 550, "li": 551, "lie": 552, "life": 553, "light": 554, "like": 555, "ling": 556, "litt": 557, "little": 558, "ll": 559, "llow": 560, "lo": 561, "long": 562, "look": 563, "looked": 564, "lord": 565, "low": 566, "lt": 567, "ly": 568, "ly,": 569, "m": 570, "mad": 571, "made": 572, "main": 573, "make": 574, "man": 575, "man,": 576, "many": 577, "mar": 578, "mark": 579, "mast": 580, "mat": 581, "matter": 582, "may": 583, "me": 584, "me,": 585, "me.": 586, "mean": 587, "med": 588, "men": 589, "men,": 590, "ment": 591, "mer": 592, "might": 593, "min": 594, "mind": 595, "mis": 596, "mo": 597, "mom": 598, "moment": 599, "mon": 600, "more": 601, "most": 602, "much": 603, "must": 604, "my": 605, "myself": 606, "n": 607, "na": 608, "name": 609, "nat": 610, "natur": 611, "nd": 612, "ne": 613, "near": 614, "ness": 615, "never": 616, "new": 617, "night": 618, "ning": 619, "no": 620, "nor": 621, "not": 622, "nothing": 623, "now": 624, "now,": 625, "o": 626, "ob": 627, "ocean": 628, "od": 629, "of": 630, "off": 631, "ol": 632, "old": 633, "om": 634, "ome": 635, "on": 636, "on,": 637, "once": 638, "one": 639, "one,": 640, "ong": 641, "only": 642, "oo": 643, "ood": 644, "ook": 645, "ool": 646, "op": 647, "open": 648, "or": 649, "or,": 650, "ord": 651, "order": 652, "ore": 653, "orn": 654, "ors": 655, "ort": 656, "ory": 657, "ose": 658, "ot": 659, "other": 660, "ou": 661, "oud": 662, "ough": 663, "ould": 664, "oun": 665, "ound": 666, "oung": 667, "our": 668, "ous": 669, "out": 670, "ove": 671, "over": 672, "ow": 673, "ow,": 674, "own": 675, "p": 676, "part": 677, "pass": 678, "pe": 679, "pecu": 680, "peculi": 681, "peculiar": 682, "ped": 683, "per": 684, "perhap": 685, "perm": 686, "ph": 687, "pi": 688, "ping": 689, "pl": 690, "place": 691, "plain": 692, "ple": 693, "po": 694, "point": 695, "port": 696, "pos": 697, "pose": 698, "poss": 699, "pr": 700, "pre": 701, "present": 702, "press": 703, "pro": 704, "prof": 705, "pt": 706, "pur": 707, "put": 708, "q": 709, "qu": 710, "que": 711, "r": 712, "ra": 713, "raw": 714, "re": 715, "read": 716, "reason": 717, "red": 718, "ree": 719, "reg": 720, "ren": 721, "rest": 722, "ri": 723, "right": 724, "ro": 725, "roll": 726, "room": 727, "rop": 728, "ross": 729, "round": 730, "row": 731, "ru": 732, "run": 733, "ry": 734, "s": 735, "s!": 736, "s,": 737, "s.": 738, "s;": 739, "sa": 740, "said": 741, "sail": 742, "same": 743, "sat": 744, "sav": 745, "saw": 746, "say": 747, "say,": 748, "sc": 749, "se": 750, "sea": 751, "sea,": 752, "seas": 753, "see": 754, "seem": 755, "seemed": 756, "seen": 757, "sel": 758, "self": 759, "sent": 760, "ser": 761, "set": 762, "sh": 763, "shall": 764, "she": 765, "ship": 766, "ship,": 767, "should": 768, "sid": 769, "side": 770, "sight": 771, "sign": 772, "sil": 773, "sin": 774, "sing": 775, "sk": 776, "sl": 777, "sle": 778, "sleep": 779, "sm": 780, "small": 781, "so": 782, "sol": 783, "som": 784, "some": 785, "something": 786, "son": 787, "soon": 788, "sort": 789, "sou": 790, "soul": 791, "sp": 792, "spe": 793, "spect": 794, "sperm": 795, "spr": 796, "squ": 797, "ss": 798, "st": 799, "stand": 800, "ste": 801, "ster": 802, "still": 803, "stood": 804, "str": 805, "strange": 806, "stre": 807, "stri": 808, "su": 809, "sub": 810, "such": 811, "sum": 812, "sun": 813, "sup": 814, "super": 815, "sur": 816, "sure": 817, "sw": 818, "sy": 819, "t": 820, "t,": 821, "table": 822, "tain": 823, "take": 824, "te": 825, "ted": 826, "tell": 827, "ten": 828, "ter": 829, "th": 830, "th,": 831, "than": 832, "that": 833, "that,": 834, "the": 835, "their": 836, "them": 837, "then": 838, "then,": 839, "ther": 840, "there": 841, "there,": 842, "these": 843, "they": 844, "thing": 845, "things": 846, "think": 847, "this": 848, "those": 849, "thou": 850, "though": 851, "thought": 852, "thr": 853, "three": 854, "through": 855, "thy": 856, "till": 857, "tim": 858, "time": 859, "times": 860, "ting": 861, "to": 862, "toge": 863, "together": 864, "tom": 865, "too": 866, "tou": 867, "towards": 868, "tr": 869, "tra": 870, "tre": 871, "tri": 872, "try": 873, "ts": 874, "turn": 875, "tw": 876, "two": 877, "ty": 878, "u": 879, "ual": 880, "ub": 881, "ubb": 882, "uch": 883, "uck": 884, "ucket": 885, "ud": 886, "ue": 887, "ug": 888, "ul": 889, "ular": 890, "ull": 891, "um": 892, "ump": 893, "un": 894, "under": 895, "ung": 896, "up": 897, "upon": 898, "ur": 899, "ure": 900, "urn": 901, "us": 902, "use": 903, "ust": 904, "ut": 905, "v": 906, "val": 907, "ve": 908, "ved": 909, "ven": 910, "vent": 911, "ver": 912, "very": 913, "ves": 914, "vi": 915, "via": 916, "viathan": 917, "vil": 918, "ving": 919, "vis": 920, "vo": 921, "voy": 922, "w": 923, "ward": 924, "wards": 925, "was": 926, "wat": 927, "water": 928, "way": 929, "ways": 930, "we": 931, "ween": 932, "well": 933, "went": 934, "were": 935, "wh": 936, "whal": 937, "whale": 938, "whale,": 939, "whale-": 940, "whales": 941, "whaling": 942, "what": 943, "whe": 944, "when": 945, "where": 946, "whi": 947, "which": 948, "while": 949, "white": 950, "who": 951, "whole": 952, "wi": 953, "wild": 954, "will": 955, "wind": 956, "with": 957, "without": 958, "won": 959, "wor": 960, "word": 961, "world": 962, "would": 963, "wr": 964, "x": 965, "y": 966, "y,": 967, "y.": 968, "ye": 969, "ye,": 970, "yet": 971, "you": 972, "young": 973, "your": 974, "z": 975, "\u00a3": 976, "\u00e6": 977, "\u00e8": 978, "\u00e9": 979, "\u0152": 980, "\u0153": 981, "\u03b7": 982, "\u03bf": 983, "\u03c2": 984, "\u03c4": 985, "\u03f0": 986, "\u05d5": 987, "\u05d7": 988, "\u2014": 989, "\u2014_": 990, "\u2018": 991, "\u2019": 992, "\u2019s": 993, "\u2019t": 994, "\u201c": 995, "\u201cA": 996, "\u201cI": 997, "\u201c\u2018": 998, "\u201d": 999}}