{"name": "Sample 500 Vocab BPE Model", "vocabulary": ["thing", "there", "qu", "TE", "me", "the", "se", "ther", "ation", "her", "(", "night", "two", ",\u201d", "sw", "W", "sel", "ll", "red", "ant", "ay", "ong", "not", ".\u201d", "spe", "$", "anc", "c", "about", "Captain", "\u0153", "then", "\u03b7", "ld", ".", "say", "do", "Z", "il", "never", "to", "ber", "ex", "ud", "ree", "\u00e6", "is", "ch", "ite", "ind", "nd", "day", "ild", "sail", "ick", "at", "ful", "er", "ing,", ";", "Queequeg", "R", "C", "\u2019t", "lo", "_", "]", "mat", "ist", "ian", "o", "ang", "z", "ance", "it", "a", "ess", "ous", "can", "age", "ie", "?\u201d", "too", "M", "?", "still", ",", "ere", "were", "E", "f", "A", "\u2019", "fr", "no", "ter", "any", "ate", "af", "head", "He", "ha", "its", "ound", "un", "way", "little", "li", "eg", "ss", "es,", "only", "-", "st", "every", "sc", "\u00e9", "u", "HA", "coun", "The", "said", "d", "ra", "mad", "before", "6", "less", "But", "of", "was", "s;", "ness", "ke", "el", "bo", "more", "g", "B", "bl", "ish", "over", "thr", "re", "know", "0", "ow", "ion", "8", "tim", "ment", "ca", "he", "fish", "7", "pl", "s,", "ve", "ri", "round", "hand", "Y", "s.", "light", "#", "fe", "or", "h", "ass", "their", "and", "upon", "again", "S", "hab", "men", "as", "our", "oun", "some", "ght", "co", "od", "ull", "V", "ic", "am", "seem", "ash", "ou", "su", "\u2014", "ale", "gh", "\u03f0", "after", "well", "ce", "if", "off", "leg", "go", "ed.", "great", "old", "gr", "ap", "fa", "most", "litt", "ord", "ome", "all", "Que", "ak", "they", "\u00e8", "CHA", "ship", "art", "had", "cre", "Wh", "op", "down", "your", "k", "us", "an", "con", "see", "It", "gl", "fore", "Th", "le", "that", "Ahab", "from", "may", "ort", "x", "cr", "stand", "such", "ub", "3", "when", "om", "r", "now", "Queequ", "yet", "q", "ac", "look", "est", "thought", "ag", "gre", "O", "ide", "urn", "orn", "what", "own", "by", "t", "e", "es.", "pr", "man", "other", "ise", "very", "Whale", "ose", "sort", "1", "ated", "i", "\u2018", "\u05d7", "himself", "av", "v", "ted", "ure", "turn", "T", "so", "ers", "cl", "y", "pre", "\u2019s", "end", "last", "m", "ust", "um", "how", "ent", "tr", "much", "I", "where", "l", "\u201c", "did", "b", "long", "ould", "th", "uch", "In", "his", "ally", "ive", "ine", "N", "we", "boat", "e,", "ad", "them", "wor", "ne", "\u03bf", "but", "L", "ig", "[", "perm", "ain", "wh", "ul", "And", "mon", "though", "who", "str", "St", "thou", "ly", "ard", "ever", "ck", "one", "ake", "it,", "might", "ack", "dis", "uck", "part", "ity", "equ", "et", "tain", "4", "s", "been", "ep", "\u00a3", "ue", "J", "ies", "ip", "tw", "sp", "er,", "!", "5", "up", "sh", "ire", "U", "\u0152", "ut", "my", "ed,", "ye", "fl", "2", "ence", "self", "which", "those", "for", "ct", "whal", "out", "F", "ur", "ge", "X", "es", "pe", "ore", "com", "seemed", "wi", "ho", "aptain", "in", "ver", "TER", "w", ":", "im", "this", "j", "itt", "G", "\u03c2", "with", "ven", "here", "ight", "Q", "you", "ood", "te", "mer", "harpo", "will", "H", "would", "wat", "ign", "per", "*", "able", ")", "ach", "whi", "into", "ing", "ar", "pt", "ro", "ab", "time", "em", "mo", "CHAP", "en", "ious", "int", "have", "could", "sa", "ast", "n", "ill", "must", "y,", "der", "be", "sea", "on", "comp", "than", "iv", "vo", "ark", "like", "ink", "9", "whale", "id", "po", "land", "br", "ough", "ble", "\u03c4", "are", "har", "p", "ward", "these", "ace", "\u05d5", "D", "ed", "al", "ir", "CHAPTER", "irst", "\u201d", "him", "oo", "has", "P", "de", "ook", "K", "pro"], "merge_rules": [["t", "h"], ["i", "n"], ["th", "e"], ["a", "n"], ["e", "r"], ["a", "t"], ["r", "e"], ["o", "n"], ["o", "u"], ["e", "d"], ["i", "s"], ["e", "n"], ["in", "g"], ["a", "l"], ["an", "d"], ["o", "f"], ["s", "t"], ["o", "r"], ["a", "r"], ["t", "o"], ["e", "s"], ["a", "s"], ["i", "t"], ["w", "h"], ["s", "e"], ["h", "e"], ["l", "e"], ["o", "m"], ["o", "w"], ["l", "y"], ["c", "h"], ["b", "e"], ["i", "l"], ["a", "d"], ["th", "at"], ["i", "m"], ["g", "h"], ["h", "is"], ["u", "t"], ["al", "l"], ["v", "er"], ["n", "o"], ["c", "e"], ["i", "d"], ["s", ","], ["l", "d"], ["v", "e"], ["s", "h"], ["w", "i"], ["en", "t"], ["l", "i"], ["c", "k"], ["a", "y"], ["a", "b"], ["wi", "th"], ["f", "or"], ["u", "n"], ["m", "e"], ["i", "r"], ["a", "in"], ["w", "as"], ["er", "e"], ["e", "t"], ["gh", "t"], ["a", "p"], ["l", "l"], ["r", "o"], ["s", "u"], ["m", "o"], ["a", "g"], ["r", "i"], ["\u2019", "s"], ["e", ","], ["i", "on"], ["t", "er"], ["k", "e"], ["o", "o"], ["d", "e"], ["wh", "al"], ["h", "im"], ["s", "o"], ["i", "c"], ["q", "u"], ["ou", "t"], ["no", "t"], ["s", "a"], ["on", "e"], ["ou", "n"], ["a", "m"], ["u", "r"], ["u", "p"], ["b", "y"], ["the", "r"], ["th", "is"], ["p", "o"], ["a", "st"], ["om", "e"], ["b", "ut"], ["w", "e"], ["p", "er"], ["f", "r"], ["es", "s"], ["y", "ou"], ["il", "l"], ["c", "t"], ["m", "an"], ["b", "o"], ["p", "e"], ["h", "a"], ["u", "l"], ["c", "on"], ["fr", "om"], ["ou", "s"], ["n", "e"], ["ar", "d"], ["e", "m"], ["ow", "n"], ["ou", "ld"], ["i", "p"], ["an", "t"], ["f", "e"], ["a", "re"], ["r", "a"], ["the", "re"], ["W", "h"], ["wh", "i"], ["T", "he"], ["ar", "t"], ["u", "s"], ["es", ","], ["s", "ome"], ["n", "ow"], ["i", "f"], ["c", "om"], ["h", "ad"], ["m", "y"], ["i", "ght"], ["on", "g"], ["y", "e"], ["o", "re"], ["th", "ou"], ["sh", "ip"], ["t", "ain"], ["ha", "ve"], ["oun", "d"], ["is", "h"], ["l", "o"], ["p", "re"], ["o", "ld"], ["e", "ver"], ["th", "ing"], ["B", "ut"], ["p", "l"], ["se", "l"], ["in", "d"], ["w", "ere"], ["s", "."], ["whal", "e"], ["a", "k"], ["a", "c"], ["ed", ","], ["t", "e"], ["d", "er"], ["ou", "r"], ["w", "ay"], ["wh", "o"], ["li", "ke"], ["u", "e"], ["whi", "ch"], ["d", "o"], ["or", "t"], ["b", "l"], ["g", "e"], ["o", "ver"], ["the", "n"], ["the", "y"], ["the", "ir"], ["e", "x"], ["u", "m"], ["wh", "at"], ["wh", "en"], ["T", "h"], ["is", "t"], ["up", "on"], ["w", "or"], ["u", "st"], ["o", "ther"], ["e", "qu"], ["en", "d"], ["ab", "le"], ["g", "o"], ["s", "p"], ["e", "l"], ["mo", "re"], ["v", "en"], ["oo", "d"], ["i", "g"], ["u", "re"], ["t", "r"], ["mo", "st"], ["oo", "k"], ["f", "ore"], ["the", "m"], ["a", "ck"], ["t", "im"], ["sel", "f"], ["g", "re"], ["er", "s"], ["an", "y"], ["ap", "tain"], ["at", "e"], ["it", "t"], ["in", "to"], [".", "\u201d"], ["it", "e"], ["w", "ould"], ["u", "ck"], ["o", "d"], ["at", "ion"], ["al", "ly"], ["y", ","], ["i", "ve"], ["n", "d"], ["H", "A"], ["se", "em"], ["T", "E"], ["st", "r"], ["th", "an"], ["S", "t"], ["a", "f"], ["h", "ab"], ["p", "ro"], ["l", "and"], ["s", "s"], ["ing", ","], ["m", "en"], ["TE", "R"], ["h", "er"], ["s", "c"], ["e", "p"], ["se", "a"], ["he", "ad"], ["C", "HA"], ["CHA", "P"], ["CHAP", "TER"], ["c", "o"], ["ou", "gh"], ["be", "en"], ["d", "own"], ["an", "ce"], ["b", "le"], ["A", "hab"], ["e", "g"], ["sa", "id"], ["a", "ke"], ["c", "l"], ["a", "v"], ["i", "ous"], ["s", ";"], ["id", "e"], ["in", "t"], ["g", "r"], ["Q", "ue"], ["o", "p"], ["su", "ch"], ["c", "an"], ["of", "f"], ["i", "v"], ["the", "se"], ["al", "e"], ["A", "nd"], ["ab", "out"], ["f", "a"], ["w", "ill"], ["ar", "k"], ["c", "re"], ["Que", "equ"], ["Queequ", "eg"], ["it", "y"], ["l", "ong"], ["H", "e"], ["sa", "il"], ["h", "ow"], ["e", "st"], ["ag", "ain"], ["s", "ay"], ["o", "se"], ["h", "and"], ["p", "r"], ["w", "ard"], ["h", "ar"], ["m", "at"], ["on", "ly"], ["in", "k"], ["c", "a"], ["ag", "e"], ["il", "d"], ["thou", "gh"], ["ur", "n"], ["p", "art"], ["i", "re"], ["re", "e"], ["l", "ess"], ["l", "ook"], ["it", "s"], ["f", "ul"], ["i", "es"], ["ver", "y"], ["w", "at"], ["\u2019", "t"], ["v", "o"], ["th", "ose"], ["l", "itt"], ["i", "ck"], ["or", "n"], ["u", "d"], ["litt", "le"], ["in", "e"], ["C", "aptain"], ["se", "e"], ["as", "s"], ["th", "r"], ["s", "pe"], ["f", "l"], ["t", "w"], ["er", ","], ["g", "l"], ["you", "r"], ["gre", "at"], ["I", "t"], ["d", "id"], ["a", "ch"], ["bo", "at"], ["y", "et"], ["at", "ed"], ["t", "ed"], ["an", "c"], ["wh", "ere"], ["h", "as"], ["d", "ay"], ["n", "ess"], ["b", "r"], ["I", "n"], ["m", "on"], ["i", "e"], ["u", "ch"], ["h", "ere"], ["le", "g"], ["it", ","], ["be", "fore"], ["an", "g"], ["h", "o"], ["af", "ter"], ["seem", "ed"], ["u", "b"], ["st", "ill"], ["en", "ce"], ["li", "ght"], ["l", "ast"], ["c", "ould"], ["ne", "ver"], ["p", "t"], ["es", "."], ["com", "p"], ["u", "ll"], ["i", "an"], ["tim", "e"], ["har", "po"], ["him", "self"], ["m", "ad"], ["ever", "y"], ["thou", "ght"], ["to", "o"], ["as", "h"], ["Wh", "ale"], ["m", "ust"], ["t", "urn"], ["c", "oun"], ["m", "ight"], ["or", "d"], ["ir", "st"], ["we", "ll"], ["s", "w"], ["c", "r"], ["ed", "."], ["m", "ent"], ["r", "ound"], ["f", "ish"], ["ig", "n"], ["m", "uch"], ["tw", "o"], ["?", "\u201d"], ["m", "er"], ["d", "is"], ["s", "ort"], [",", "\u201d"], ["b", "er"], ["is", "e"], ["re", "d"], ["k", "now"], ["per", "m"], ["a", "ce"], ["n", "ight"], ["st", "and"], ["m", "ay"]], "vocab_list": ["!", "#", "$", "(", ")", "*", ",", ",\u201d", "-", ".", ".\u201d", "0", "1", "2", "3", "4", "5", "6", "7", "8", "9", ":", ";", "?", "?\u201d", "A", "Ahab", "And", "B", "But", "C", "CHA", "CHAP", "CHAPTER", "Captain", "D", "E", "F", "G", "H", "HA", "He", "I", "In", "It", "J", "K", "L", "M", "N", "O", "P", "Q", "Que", "Queequ", "Queequeg", "R", "S", "St", "T", "TE", "TER", "Th", "The", "U", "V", "W", "Wh", "Whale", "X", "Y", "Z", "[", "]", "_", "a", "ab", "able", "about", "ac", "ace", "ach", "ack", "ad", "af", "after", "ag", "again", "age", "ain", "ak", "ake", "al", "ale", "all", "ally", "am", "an", "anc", "ance", "and", "ang", "ant", "any", "ap", "aptain", "ar", "ard", "are", "ark", "art", "as", "ash", "ass", "ast", "at", "ate", "ated", "ation", "av", "ay", "b", "be", "been", "before", "ber", "bl", "ble", "bo", "boat", "br", "but", "by", "c", "ca", "can", "ce", "ch", "ck", "cl", "co", "com", "comp", "con", "could", "coun", "cr", "cre", "ct", "d", "day", "de", "der", "did", "dis", "do", "down", "e", "e,", "ed", "ed,", "ed.", "eg", "el", "em", "en", "ence", "end", "ent", "ep", "equ", "er", "er,", "ere", "ers", "es", "es,", "es.", "ess", "est", "et", "ever", "every", "ex", "f", "fa", "fe", "fish", "fl", "for", "fore", "fr", "from", "ful", "g", "ge", "gh", "ght", "gl", "go", "gr", "gre", "great", "h", "ha", "hab", "had", "hand", "har", "harpo", "has", "have", "he", "head", "her", "here", "him", "himself", "his", "ho", "how", "i", "ian", "ic", "ick", "id", "ide", "ie", "ies", "if", "ig", "ight", "ign", "il", "ild", "ill", "im", "in", "ind", "ine", "ing", "ing,", "ink", "int", "into", "ion", "ious", "ip", "ir", "ire", "irst", "is", "ise", "ish", "ist", "it", "it,", "ite", "its", "itt", "ity", "iv", "ive", "j", "k", "ke", "know", "l", "land", "last", "ld", "le", "leg", "less", "li", "light", "like", "litt", "little", "ll", "lo", "long", "look", "ly", "m", "mad", "man", "mat", "may", "me", "men", "ment", "mer", "might", "mo", "mon", "more", "most", "much", "must", "my", "n", "nd", "ne", "ness", "never", "night", "no", "not", "now", "o", "od", "of", "off", "old", "om", "ome", "on", "one", "ong", "only", "oo", "ood", "ook", "op", "or", "ord", "ore", "orn", "ort", "ose", "other", "ou", "ough", "ould", "oun", "ound", "our", "ous", "out", "over", "ow", "own", "p", "part", "pe", "per", "perm", "pl", "po", "pr", "pre", "pro", "pt", "q", "qu", "r", "ra", "re", "red", "ree", "ri", "ro", "round", "s", "s,", "s.", "s;", "sa", "said", "sail", "say", "sc", "se", "sea", "see", "seem", "seemed", "sel", "self", "sh", "ship", "so", "some", "sort", "sp", "spe", "ss", "st", "stand", "still", "str", "su", "such", "sw", "t", "tain", "te", "ted", "ter", "th", "than", "that", "the", "their", "them", "then", "ther", "there", "these", "they", "thing", "this", "those", "thou", "though", "thought", "thr", "tim", "time", "to", "too", "tr", "turn", "tw", "two", "u", "ub", "uch", "uck", "ud", "ue", "ul", "ull", "um", "un", "up", "upon", "ur", "ure", "urn", "us", "ust", "ut", "v", "ve", "ven", "ver", "very", "vo", "w", "ward", "was", "wat", "way", "we", "well", "were", "wh", "whal", "whale", "what", "when", "where", "whi", "which", "who", "wi", "will", "with", "wor", "would", "x", "y", "y,", "ye", "yet", "you", "your", "z", "\u00a3", "\u00e6", "\u00e8", "\u00e9", "\u0152", "\u0153", "\u03b7", "\u03bf", "\u03c2", "\u03c4", "\u03f0", "\u05d5", "\u05d7", "\u2014", "\u2018", "\u2019", "\u2019s", "\u2019t", "\u201c", "\u201d"], "token_to_id": {"!": 0, "#": 1, "$": 2, "(": 3, ")": 4, "*": 5, ",": 6, ",\u201d": 7, "-": 8, ".": 9, ".\u201d": 10, "0": 11, "1": 12, "2": 13, "3": 14, "4": 15, "5": 16, "6": 17, "7": 18, "8": 19, "9": 20, ":": 21, ";": 22, "?": 23, "?\u201d": 24, "A": 25, "Ahab": 26, "And": 27, "B": 28, "But": 29, "C": 30, "CHA": 31, "CHAP": 32, "CHAPTER": 33, "Captain": 34, "D": 35, "E": 36, "F": 37, "G": 38, "H": 39, "HA": 40, "He": 41, "I": 42, "In": 43, "It": 44, "J": 45, "K": 46, "L": 47, "M": 48, "N": 49, "O": 50, "P": 51, "Q": 52, "Que": 53, "Queequ": 54, "Queequeg": 55, "R": 56, "S": 57, "St": 58, "T": 59, "TE": 60, "TER": 61, "Th": 62, "The": 63, "U": 64, "V": 65, "W": 66, "Wh": 67, "Whale": 68, "X": 69, "Y": 70, "Z": 71, "[": 72, "]": 73, "_": 74, "a": 75, "ab": 76, "able": 77, "about": 78, "ac": 79, "ace": 80, "ach": 81, "ack": 82, "ad": 83, "af": 84, "after": 85, "ag": 86, "again": 87, "age": 88, "ain": 89, "ak": 90, "ake": 91, "al": 92, "ale": 93, "all": 94, "ally": 95, "am": 96, "an": 97, "anc": 98, "ance": 99, "and": 100, "ang": 101, "ant": 102, "any": 103, "ap": 104, "aptain": 105, "ar": 106, "ard": 107, "are": 108, "ark": 109, "art": 110, "as": 111, "ash": 112, "ass": 113, "ast": 114, "at": 115, "ate": 116, "ated": 117, "ation": 118, "av": 119, "ay": 120, "b": 121, "be": 122, "been": 123, "before": 124, "ber": 125, "bl": 126, "ble": 127, "bo": 128, "boat": 129, "br": 130, "but": 131, "by": 132, "c": 133, "ca": 134, "can": 135, "ce": 136, "ch": 137, "ck": 138, "cl": 139, "co": 140, "com": 141, "comp": 142, "con": 143, "could": 144, "coun": 145, "cr": 146, "cre": 147, "ct": 148, "d": 149, "day": 150, "de": 151, "der": 152, "did": 153, "dis": 154, "do": 155, "down": 156, "e": 157, "e,": 158, "ed": 159, "ed,": 160, "ed.": 161, "eg": 162, "el": 163, "em": 164, "en": 165, "ence": 166, "end": 167, "ent": 168, "ep": 169, "equ": 170, "er": 171, "er,": 172, "ere": 173, "ers": 174, "es": 175, "es,": 176, "es.": 177, "ess": 178, "est": 179, "et": 180, "ever": 181, "every": 182, "ex": 183, "f": 184, "fa": 185, "fe": 186, "fish": 187, "fl": 188, "for": 189, "fore": 190, "fr": 191, "from": 192, "ful": 193, "g": 194, "ge": 195, "gh": 196, "ght": 197, "gl": 198, "go": 199, "gr": 200, "gre": 201, "great": 202, "h": 203, "ha": 204, "hab": 205, "had": 206, "hand": 207, "har": 208, "harpo": 209, "has": 210, "have": 211, "he": 212, "head": 213, "her": 214, "here": 215, "him": 216, "himself": 217, "his": 218, "ho": 219, "how": 220, "i": 221, "ian": 222, "ic": 223, "ick": 224, "id": 225, "ide": 226, "ie": 227, "ies": 228, "if": 229, "ig": 230, "ight": 231, "ign": 232, "il": 233, "ild": 234, "ill": 235, "im": 236, "in": 237, "ind": 238, "ine": 239, "ing": 240, "ing,": 241, "ink": 242, "int": 243, "into": 244, "ion": 245, "ious": 246, "ip": 247, "ir": 248, "ire": 249, "irst": 250, "is": 251, "ise": 252, "ish": 253, "ist": 254, "it": 255, "it,": 256, "ite": 257, "its": 258, "itt": 259, "ity": 260, "iv": 261, "ive": 262, "j": 263, "k": 264, "ke": 265, "know": 266, "l": 267, "land": 268, "last": 269, "ld": 270, "le": 271, "leg": 272, "less": 273, "li": 274, "light": 275, "like": 276, "litt": 277, "little": 278, "ll": 279, "lo": 280, "long": 281, "look": 282, "ly": 283, "m": 284, "mad": 285, "man": 286, "mat": 287, "may": 288, "me": 289, "men": 290, "ment": 291, "mer": 292, "might": 293, "mo": 294, "mon": 295, "more": 296, "most": 297, "much": 298, "must": 299, "my": 300, "n": 301, "nd": 302, "ne": 303, "ness": 304, "never": 305, "night": 306, "no": 307, "not": 308, "now": 309, "o": 310, "od": 311, "of": 312, "off": 313, "old": 314, "om": 315, "ome": 316, "on": 317, "one": 318, "ong": 319, "only": 320, "oo": 321, "ood": 322, "ook": 323, "op": 324, "or": 325, "ord": 326, "ore": 327, "orn": 328, "ort": 329, "ose": 330, "other": 331, "ou": 332, "ough": 333, "ould": 334, "oun": 335, "ound": 336, "our": 337, "ous": 338, "out": 339, "over": 340, "ow": 341, "own": 342, "p": 343, "part": 344, "pe": 345, "per": 346, "perm": 347, "pl": 348, "po": 349, "pr": 350, "pre": 351, "pro": 352, "pt": 353, "q": 354, "qu": 355, "r": 356, "ra": 357, "re": 358, "red": 359, "ree": 360, "ri": 361, "ro": 362, "round": 363, "s": 364, "s,": 365, "s.": 366, "s;": 367, "sa": 368, "said": 369, "sail": 370, "say": 371, "sc": 372, "se": 373, "sea": 374, "see": 375, "seem": 376, "seemed": 377, "sel": 378, "self": 379, "sh": 380, "ship": 381, "so": 382, "some": 383, "sort": 384, "sp": 385, "spe": 386, "ss": 387, "st": 388, "stand": 389, "still": 390, "str": 391, "su": 392, "such": 393, "sw": 394, "t": 395, "tain": 396, "te": 397, "ted": 398, "ter": 399, "th": 400, "than": 401, "that": 402, "the": 403, "their": 404, "them": 405, "then": 406, "ther": 407, "there": 408, "these": 409, "they": 410, "thing": 411, "this": 412, "those": 413, "thou": 414, "though": 415, "thought": 416, "thr": 417, "tim": 418, "time": 419, "to": 420, "too": 421, "tr": 422, "turn": 423, "tw": 424, "two": 425, "u": 426, "ub": 427, "uch": 428, "uck": 429, "ud": 430, "ue": 431, "ul": 432, "ull": 433, "um": 434, "un": 435, "up": 436, "upon": 437, "ur": 438, "ure": 439, "urn": 440, "us": 441, "ust": 442, "ut": 443, "v": 444, "ve": 445, "ven": 446, "ver": 447, "very": 448, "vo": 449, "w": 450, "ward": 451, "was": 452, "wat": 453, "way": 454, "we": 455, "well": 456, "were": 457, "wh": 458, "whal": 459, "whale": 460, "what": 461, "when": 462, "where": 463, "whi": 464, "which": 465, "who": 466, "wi": 467, "will": 468, "with": 469, "wor": 470, "would": 471, "x": 472, "y": 473, "y,": 474, "ye": 475, "yet": 476, "you": 477, "your": 478, "z": 479, "\u00a3": 480, "\u00e6": 481, "\u00e8": 482, "\u00e9": 483, "\u0152": 484, "\u0153": 485, "\u03b7": 486, "\u03bf": 487, "\u03c2": 488, "\u03c4": 489, "\u03f0": 490, "\u05d5": 491, "\u05d7": 492, "\u2014": 493, "\u2018": 494, "\u2019": 495, "\u2019s": 496, "\u2019t": 497, "\u201c": 498, "\u201d": 499}}