{"name": "5000 Vocab Size BPE Model", "vocabulary": ["everything", "Bild", "sunset", "ca", "fancy", "number", "descri", "head,", "landlord", "ving", "light,", "Dut", "ted", ".\u2014", "mid", "behold", "land;", "deadly", "indif", "ship\u2019s", "\u201cNo,", "trouble", "er.", "silver", ".", "enty", "por", "pe", "sailors,", "exas", "nut", "cop", "Commod", "idence", "Z", "ates,", "exact", "fierce", "pur", "ible", "el.", "stave", "reve", "demanded", "\u201cAnd", "short", "love", "much", "urch", "Pac", "address", "ery,", "fare", "Nar", "aboard", "wicked", "seen.", "steel", "breed", "dumb", "d\u2019ye", "iful", "son", "jet", "ures", "cean", "ices", "conscience", "sl", "answered,", "C", "scho", "intent", "prevail", "H", "arp", "talk", "Whale\u2019s", "after", "thence", "harbor", "dive", "ween", "below.", "foot", "ets,", "h", "vessel", "ot", "thank", "glory", "preach", "pursu", "ascri", "\u05d7", "confident", "ay,", "outward", "inct", "ixed", "iew", "ak", "ess,", "usive", "old-f", "n", "knowledge", "cut", "lifted", "play", "standing", "chance", "considerable", "ings", "g", "stood", "ney", "familiar", "furn", "withstand", "proud", "10", "infallibly", "ne", "cask", "fight", "Freder", "majest", "tambour", "fun", "boats,", "Pe", "sett", "custom", "mouth", "bound", "given", "draught", "wild", "indirectly", "ended", "Yo", "Who", "Like", "boy", "ft", "Not", "if,", "purpose,", "tra", "sa", "reck", "ual", "um", "once", "fath", "longer", "scre", "Peleg.", "knowing", "pictures", "fell", "length,", "oose", "\u2019ll", "member", "it", "Seb", "lur", "suming", "enough.", "un", "Ramad", "bold", "John", "knew", "eter", "path", "consc", "crow\u2019s-nest", "velo", "import", "suspect", "dden", "independ", "inser", "chest", "iously", "Lake", "pulling", "\u2019t", "at,", "emin", "j", "gentle", "fat", "ref", "kne", "enor", "._", "change", "irgin", "Tr", "Captain,", "crack", "(_", "pagan", "Dick.", "itself,", "cond", "cour", "n\u2019t", "ain,", "besid", "\u2014the", "port", "hail", "ree", "Fore", "square", "swim", "prepared", "go", "dy", "island", "answer", "bet", "included", "boo", "afr", "illed", "9", "not;", "hosp", "drink", "lies", "pack", "preced", "27", "pr", "end", "blackness", "fleet", "hered", "capt", "waves,", "ure", "person", "compan", "ord", "ix", "keen", "ly:", "naught", "indire", "lively", "tee", "Gay", "ises", "rian", "perm", "naturally", "mark", "acco", "indu", "resu", "For", "kin", "sides", "l", "month", "wed", "mod", "seren", "agg", "rushed", "al,", "ib", "Eurocly", "Hu", "ill", "design", "Sw", "hig", "abo", "ically", "time", "taining", "bulk", "unning", "solitary", "os", "ially", "spec", "sails", "peri", "attack", "Ship", "pen", "2", "\u201cCaptain", "ent.", "suff", "vious", "occas", "hell", "anch", "quarter", "The", "ts,", "conqu", "red,", "anged", "sought", "come", "itudes,", "barbar", "conce", "mouth,", "charm", "crews", "touching", "vibr", "doubtless,", "igr", "frozen", "dart", "aye,", "death.", "S.", "still", "tried", "shr", "ant,", "seven", "position", "colle", "ified", "Virgin", "interest", "lightning", "uring", "ies;", "tus", "angle", "course", "\u2014but", "battle", "spir", "log", "hid", "wal", "Nor", "ye", "terri", "spoken", "malic", "tru", "cap", "Pacific", "y!", "Now,", "bulwark", "Ahab\u2019s", "men,", "anx", "peace", "1.", "catching", "brow", "god", "reason", "let\u2019s", "na", "dum", "ceive", "pain", "ming", "associ", "oney", "put", "Ha!", "here.", "pump", "door,", "itting", "Lo", "burn", "hair", "icture", "call", "harpooneer", "chart", "reel", "clim", "beach", "usual", "lived", "chief", "ch", "rope,", "main-mast", "spire", "ang", "What\u2019s", "ser", "disast", "bringing", "quit", "poet", "slip", "all-", "keeping", "princ", "sc", "eff", "darted", "inquir", "flank", "answ", "age,", "Te", "fetch", "England", "me", "pos", "ye,", "calcul", "brief", "stock", "subject", "noise", "cot", "saying,", "\u201cT", "uff", "ator", "rush", "\u2014that\u2019s", "rose", "Let", "wark", "subst", "walk", "fac", "meant", "sights", "piled", "ience", "feels", "stick", "Grand", "wigw", "earthly", "confess", "command", "igh", "interl", "ye.", "stream", "am,", "deal", "acy", "vigil", "aged", "pret", "mom", "asser", "meet", "fut", "Bildad,\u201d", "spot", "cked", "help", "seen", "bree", "iron", "reli", "steady", "\u201cYes,", "cri", "boats", "affair", "perilous", "lofty", "paid", "gliding", "ident", "mot", "resid", "es;", "vit", "stout", "ather", "anning", "thrown", "ian", "class", "final", "height", "Atlantic,", "ored", "kes", "winds", "ute", "wav", "ife", "ings.", "so.", "wrapped", "stair", "ic", "ary,", "gras", "ri", "secret", "sy", "Cook", "cord", "yards", "cabin,", "ashore,", "sink", "se,", "drive", "intolerable", "gul", "voice,", "ions,", "whale-", "nearest", "alone", "moving", "pick", "bri", "ulous", "wil", "Al", "ward.", "conver", "ucket", "\u2014he", "Col", "usu", "Whale.", "AG", "Christ", "vent", "none", "olog", "clam", "whale", "not", "ul", "star", "unknown", "Flask", "iny", "skeleton", "offic", "ros", "Q", "ten", "works", "bale", "prairie", "bows,", "prophe", "ing,", "Chap", "uck", "fi", "ial,", "ond", "prehens", "fin", "angu", "nav", "Cab", "ing", "croo", "wig", "seamen,", "native", "hands,", "nature", "lock", "Hy", "eventually", "asked", "Cu", "ens", "Holy", "ple", "HA", "lt", "rig", "terr", "mult", "ants", "now;", "distingu", "(_Octav", "strip", "amid", "\u2014a", "cause", "weap", "ran", "me.", "ield", "_.\u201d", "cheek", "\u2019s,", "Tars", "water", "icient", "Pull,", "race", "served", "\u03c2", "cash", "express", "life,", "dread", "ham", "Gold", "I\u2019ve", "announ", "dom", "gale", "skelet", "determin", "whaling-", "et,", "prom", "swam", "\u201cLand", "tomahaw", "y,\u201d", "\u201cIf", "led", "We", "fer", "profess", "look-", "meaning", "grew", "attend", "Flask,", "pointing", "aced", "v", "resting", "pl", "things", "sor", "\u00e9", "ve", "draw", "squall", "snowy", "hideous", "late", "indis", "finally", "biscu", "uc", "(_Foli", "monstr", "But", "seek", "completely", "act", "shir", "strain", "Ed", "embark", "ency", "may", "side", "la", "e;", "began", "ain\u2019t", "heads", "blaz", "will,", "long.", "home,", "iousness", "fect", "hous", "wondrous", "ssed", "tomahawk", "way", "base", "goes", "knows", "ign", "own", "Fed", "win", "ious,", "usions", "snow", "ing;", "iveness", "long,", "\u2019re", "salt", "term", "strange", "broad", "noble", "working", "immen", "stir", "tes", "hom", "Wh", "indeed", "friend", "inch", "sunrise", "unite", "God.", "pulp", "water,", "unt", "circ", "Stubb\u2019s", "rap", "ious", "di", "own.", "great", "possess", "stands", "exce", "lower", "ET", "fail", "contin", "t,", "ge,", "days", "stranger", "She", "With", "say,", "why", "acet", "ians", "memor", "Quohog", "grown", "rage", "considering", "bel", "_", "liest", "island,", "ative", "ers", "food", "use", "\u201cBut", "terrible", "II.", "dropped", "King-Post", "however,", "idel", "expan", "speaking", "circumst", "ial", "ances", "vis", "voc", "ili", "ood", "impressions", "simple", "scuttle", "espe", "ioned", "ance,", "mor", "begins", "acious", "that,", "arri", "ities,", "shock", "obser", "flu", "candle", "street", "\u2014", "vast", "conve", "thou", "nd", "superior", "at-", "asc", "Sun", "ies.", "brown", "ooper", "if", "ied", "frost", "worse", "windward", "Tashtego", "Greenland", "pled", "shel", "Fedallah", "they", "left", "ancing", "Bedford", "curious", "character", "oes", "Egypt", "seaman", "shot", "ake,", "unch", "hold", "shall", "See", "point", "affr", "sweet", "stic", "exactly", "12", "cons", "already", "soever", "Par", "aked", "inferior", "ates", "whale\u2019s", "pilot", "t", "ably", "our", "ks", "flag", "over.", "revenge", "man!", "thing.", "ic,", "tor", "ready", "ort", "ise,", "Mer", "remark", "Sub", "\u201cThere", "retched", "thus", "Stre", "hind", "own,", "invested", "morning", "Qu", "gives", "MO", "top-", "cy", "Husse", "aptain", "stri", "aston", "portentous", "overboard", "bed,", "Elij", "\u03f0", "vel", "ago", "care", "knot", "ily,", "However,", "ny", "qual", "soul", "Emper", "ows", "dead", "iet", "xt", "needs", "c", "voice", "cruis", "-b", "mild", "else", "joke", "imper", "ded", "attle", "obe", "ter", "\u00e8", "ure,", "There\u2019s", "pains", "hurry", "princip", "Why,", "comple", "Steel", "sir", "zen", "ship,", "perhap", "ships,", "a\u2019s", "these", "\u201c", "ost", "craft", "years", "maj", "taking", "book", "give", "sea-", "comprehens", "born", "spermaceti", "pity", "uten", "resolved", "important", "what", "outer", "shap", "probably", "period", "Good", "something", "cover", "est,", "Duodec", "\u2014\u201c", "ends", "floor,", "famous", "malice", "Commodore", "calls", "marked", "rough", "subl", "whence", "body", "queer", "body,", "shudder", "within", "matter", "land", "super", "They", "down;", "deep,", "gigantic", "infernal", "ins", "hunters", "carries", "say", "cho", "B", "At", "whaler", "voyages", "outland", "fore", "sle", "cad", "terror", "lying", "ers.", "relie", "ende", "arn", "hollow", "Hark", "ient", "sid", "-f", "run", "clouds", "hour", "quent", "As", "dire", "keep", "America", "om", "motion", "fort", "so,", "for", "whale-ship", "jack", "entr", "flow", "ly.", "hidden", "thir", "lic", "fright", "marvellous", "hop", "fowl", "strength,", "acon", "Sle", "evening", "conscious", "Inn", "angs", "wife", "ab", "behind", "boys,", "landlord,", "N", "whale.", "Ere", "ug", "low", "And", "aves", "able.", "descript", "ched", "hailed", "pri", "whaleman", "gaz", "ac", "tempestuous", "under", "hear", "ought", "Sp", "ors", "ating", "individual", "bab", "ast", "careful", "centre", "thirty", "soul.", "whis", "ion,", "s,", "ower", "thinks", "regarded", "Be", "blank", "medi", "mariners", "importance", "ignorant", "oars", "pet", "_).\u2014", "swore", "thereby", "em", "turned", "same", "in,", "nor", "plum", "roared", "iling", "pres", "delic", "interval", "doubt,", "blind", "bir", "cts", "me,", "ously", "swung", "short,", "IC", "oured", "glo", "ax", "forehead", "first", "le,", "ies,", "want", "continual", "pub", "captured", "Ste", "mankind", "ce,", "see", "necess", "quant", "Night", "steadfast", "brea", "harpoons", "night", "el", "upper", "er", "pro", "vi", "al", "Tarshis", "braw", "however", "bub", "requires", "Pip", "home.", "ung", "cer", "went", "In", "rising", "ents", "ts", "step", "meal", "cially", "ine.", "record", "then,", "whar", "illi", "Nantucket", "?_", "V.", "papers", "To", "window", "rust", "nevertheless,", "o\u2019clo", "stret", "mast,", "he.", "6.", "By", "wound", "sw", "hund", "ire", "leap", "ob", "hap", "ig", "arth", "ilar", "ceed", "ric", "late,", "ty", "seamen", "ur", "tambourine", "What", "ceremon", "izing", "exc", "business,", "much,", "hand,", "bulwarks,", "M", "accord", "red", "flung", "girl", "$", "snow-white", "_.)", "whispered", "read", "room.", "Sea", "moder", "carri", "creature", "South", "whom", "This", "bless", "cl", "peculi", "him;", "uncommon", "dist", "many", "don", "eight", "Ho", "fair", "perhaps", "nose", "earth", "sign", "\u201cL", "six", "drag", "hammer", "scient", "rock", "wall", "kept", "comfortable", "ats", "consid", "cannot", "morning,", "ye!", "heathen", "Tarshish", "front", "natur", "because", "chiefly", "fing", "tail", "spread", "officer", "nation", "Un", "fier", "Laz", "man;", "-B", "es.", "Euroc", "cod", "name", "black", "drop", "pul", "willing", "swinging", "manner", "that;", "thern", "intens", "oint", "firm", "distinct", "sem", "Dough-B", "publ", "she", "hunt", "savage", "eel", "cabin", "big", "command.", "Sal", "ton", "blew", "sou", "this,", "ordinate", "Dick;", "ish", "ane", "grass", "monst", "Mapp", "wheel", "Why", "aud", "Ele", "Spouter-", "profound", "lip", "will", "sens", "sole", "183", "gun", "land,", "lesson", "eh", "madness", "nerv", "Dough-Boy", "crooked", "just", "aspect,", "shad", "bea", "morn", "escaped", "imagin", "thought", "wharf", "tempest", "whalers", "Tashtego,", "lice", "whole,", "her", "absent", "repeated", "spell", "fold", "saw", "wide", "your", "I.", "palm", "really", "ending", "History", "gloom", "gentlemen,", "sec", "shipmates", "mur", "dest", "hood", "superstit", "ility", "err", "Head", "busin", "agon", "remotest", "killed", "birth", "Glo", "priv", "haw", "wind", "harb", "var", "slightest", "think", "of", "board", "Le", "sway", "other\u2019s", "ading", "ask", "house", "ining", "ft,", "assault", "ike", "stead", "seems,", "took", "ick", "certain", "circumstances,", "blood", "cing", "green", "Stubb,", "Ind", "soci", "view", "bow,", "7.", "monoman", "insult", "blubber", "ourselves", "a-", "like,", "recall", "turning", "bl", "ben", "fo", "occup", "eat", "necessary", "decl", "muffled", "pra", "he", "q", "Arch", "stem", "lan", "inning", "ud", "mut", "bon", "Lon", "tained", "ght", "ue", "Dagg", "MA", "pose", "landlad", "hardly", "below,", "o", "storm", "ice", "hearts", "not,", "Well", "closed", "fishery,", "followed", "ucked", "crown", "relig", "wear", "I,", "fre", "Thou", "est", "men;", "Yes,", "der,", "attended", "od", "BOO", "sand", "\u201cwhat", "ship", "furnished", "origin", "line", "posing", "somewhat", "reign", "mis", "virt", "door", "ering", "attering", "small", "noticed", "summer", "especially", "author", "several", "thinking", "loung", "moored", "ing-", "well,", "Af", "damp", "ack", "glancing", "ull", "bedfellow", "chip", "watch", "space", "ia", "obedience", "met", "Every", "wonders", "on", "spare", "s.\u201d", "ali", "whe", "Que", "social", "learned", "ash", "God", "ment", "hill", "sort", "ank", "Dutch", "mast-heads", "rather", "ion;", "better", "day,", "bot", "It\u2019s", "lph", "rents", "You", "ignor", "et", "ense", "aid", "seen;", "felt", "unk", "civ", "chat", "tr", "years,", "civilized", "man,", "Whale;", "shiver", "hence", "Ahab", "said,", "whalemen", "harpoon,", "became", "settled", "cannib", "handful", "aven", "rel", "swimming", "forl", "Ye", "otherwise", "afraid", "ws", "nations", "peep", "calculated", "o_)", "soft", "boat.", "mostly", "bre", "shroud", "dec", "discern", "whit", "lly", "stairs", "of.", "ime", "makes", "commen", "saying", "supposed", "isto", "desc", "stopping", "like", "done", "mixed", "again,", "trans", "symptom", "air;", "name,", "face", "Pequod,", "vic", "limb", "seas", "phantom", "ily", "midst", "Right", "holy", "tore", "ren", "kill", "carried", "berg", "Engl", "influ", "himself,", "running", "tall", "time.", ",000", "splinter", "Very", "a!", "quietly", "heaven", "imag", "places", "infall", "ying", "come;", "destroy", "colour,", "main", "tend", "captain\u2019s", "tic", "mass", "onom", "holding", "eag", "ia,", "coat,", ".\u2019", "window,", "pyr", "-", "dome", "bed;", "depart", "ured", "dust", "aband", "opin", "west", "had", "wice", "dri", "next", "er;", "London", "ed.", "rum", "ult", "pt", "et.", "Queequeg\u2019s", "heeded", "tain", "bench", "turn", "hope", "see,", "te", "circle", "Ah!", "pest", "and", "uls", "element", "When", "heavy", "hit", "S", "popularly", "Zeal", "during", "invisible", "rop", "takes", "crew;", "ined", "be;", "ly", "P", "fulness", "bare", "h,", "quently", "CHA", "congreg", "sure", "boundless", "snow-", "whiteness,", "ful,", "Bl", "himself.", "rib", "not.", "ction,", "ath", "Whe", "aside", "created", "ever,", "heaved", "their", "pu", "fles", "imin", "Lord", "pretty", "v\u2019", "sevent", "itself", "philosoph", "earnest", "flour", "Coff", "burst", "boat,", "gest", "eyeing", "rushing", "\u2014you", "perpendicular", "eternal", "length", "ek", "agger", "set", "ub", "somehow,", "orpo", "teeth", "employed", "extra", "part", "reg", "ust", "marin", "sailed", "Nay,", "quire", "kill-e", "way,", "joined", "finite", "example", "mann", "cal", "down", "ordin", "raw", "least", "vicin", "no,", "prair", "Hussey", "cking", "regularly", "chan", "sty", "tion", "artic", "sitting", "9.", "o,", "ice-", "chow", "whale;", "Still", "wr", "enced", "ason", "moment", "clean", "house.", "safe", "hat", "on,", "If", "bul", "opinion", "sea;", "room", "hab", "desper", "-mast", "\u2014not", "ior", "eness,", "ass,", "ade", "torment", "min", "whalem", "signific", "And,", "glance", "app", "grap", "lances", "appall", "br", "tast", "oar", "found", "lord", "best", "fling", "large", "remain", "conclud", "ele", "ief", "ugust", "previous", "seld", "dog", "minded", "curios", "itable", "selves,", "Leviathan,", "move", "whether", "ime,", "Lakeman,", "out;", "St", "huge", "lung", "ilo", "charac", "OR", "various", "Duodecim", "While", "Steelk", "cru", "honest", "likewise", "less", "earnestly", "full", "ck.", "ion", "rigg", "fully", "dre", "that?", "EL", "magn", "cabin.", "\u201cOn", "amb", "miserable", "bidden", "ent", "smo", "ceiv", "medit", "solemn", "originally", "sword", "young", "polite", "Christian", "erable", "reach", "parts", "jump", "desol", "largest", "watch,", "ound", "En", "am", "atic", "tropic", "impossible", "id", "utmost", "cont", "offered", "ities", "compet", "selves", "furi", "That", "ward", "ness,", "TE", "day.", "summon", "itted", "pect", "threw", "ard", "won", "ma", "warrant", "also", "Captain", "cred", "ly,", "centur", "grim", "ively", "bro", "ired", "ity.", "Tashte", "net", "anchor", "mount", "more,", "added", "ential", "nigh", "con", "ex", "ck", "immediately", "King-", "the", "asting", "ave", "uo", "stranded", "An", "One", "ame", "brother", "murder", "lost", "ctly", "need", "stit", "fam", "ers;", "entirely", "agan", "pre", "cre", "int", "ed,", "ool", "tolog", "antic", "seeking", "place,", "182", "living", "atur", "spite", "symbo", "myself,", "crossing", "endeav", "\u201cNo", "held", "remains", "Kill", "coming", "appear", "CK", "difference", "mous", "now", "temp", "00", "breaking", "lives", "Job", "fe", "ling", "Whaling", "fur", "therefore", "On", "glass", "ste", "ently", "Whales", "_that_", "Ar", "ent,", "allowed", "ue,", "ate", "when,", "ated,", "continu", "Lazar", "crazy", "Bildad,", "Bel", "ality", "rolled", "oned", "master", "quest", "precisely", "aco", "ye.\u201d", "table", "whale.\u201d", "lone", "?\u201d", "Well,", "eyes", "_,", "imp", "\u2014I", "are", "sea,", "board,", "of,", "blow", "refer", "that_", "item", "tle,", "fish", "than", "iff", "room;", "carry", "pedd", "ed;", "li", "Mapple", "you", "sailor", "These", "retre", "stro", "compar", "Ahab,", "itt", "loy", "cried", "ter,", "ull,", "value", "sav", "negro", "bod", "almost", "che", "Sperm", "enc", "plung", "while,", "altogether", "o_),", "bu", "ased", "Scores", "K", "supper", "terrors", "stiff", "Ram", "northern", "us,", "ate,", "mad", "Sh", "iness", "orpoise", "ended,", "yarn", "beyon", "ian,", "ber", "commonly", "silence", "pyramid", "everybody", "itions", "lin", "one,", "method", "ened", "bump", "man", "tern", "friends,", "tran", "similar", "prospect", "four", "clothe", "proved", "mountain", "cases,", "this", "Re", "vap", "lean", "Queequeg,", "relieved", "gazing", "ister", "uses", "strike", "pulpit", "IL", "Think", "bles", "A.D._", "Ano", "even", "ately", "waves", "tear", "hand", "lled", "ers,", "rupt", "wi", "send", "First", "owners", "compl", "gra", "rim", "distance", "or", "wel", "white", "wrong", "vile", "jacket,", "So", "Is", "univer", "aking", "claim", "arms", "quar", "sp", "rumors", "owing", "all.", "im", "irg", "ites", "Moby", "icular", "ner", "ven", "ler", "But,", "astern", "Polar", "ences", "has", "ork", "regular", "Cross", "coward", "ISH", "(_A", "aches", "one;", "Aye,", "famili", "surviv", "ye?", "destroyed", "untarily", "fishery", "Ch", "landed", "demon", "us;", "except", "word", "dear", "wash", "enormous", "er,", "mo", "singing", "blessed", "hole,", "sur", "calm", "leaping", "onest", "cano", "steward", "itary", "hinted", "iding", "field", "ked", "uated", "pall", "ance", "herds", "look-out", "snat", "eng", "fifty", "chim", "fl", "he,", "pay", "thed", "wor", "ster", "ale,", "too", "ized", "sen", "feeling", "hospit", "part,", "ha", "kick", "reput", "shadows", "Mrs.", "AL", "itud", "Prop", "were", "clear", "io", "enough,", "-head", "directly", "rid", "sorts", "coat", "Inn.", "mort", "nearly", "done,", "Such", "ears", "quickly", "trying", "-Fish", "wit", "Never", "them.", "seventy-", "brim", "corre", "influences", "bright", "commun", "further", "everlast", "planks,", "ball", "Ph", "arm,", "crow", "cle", "claimed", "able", "flo", "e!", "str", "Per", "each", "cher", "pursuit", "require", "discover", "broken", "ange", "pract", "berth", "m", "curiosity", "pisto", "resem", "aving", "get", "ism", "ra", "Her", "eyes,", "les.", "ings,", "-st", "smith", "binn", "abin", "any", "pa", "before", "ited", "abund", "cup", "e", "bur", "aring", "cold", "death", "histor", "us", "\u201cQueequeg", "subtle", "itude", "\u2018", "nett", "dil", "IS", "at", "deemed", "mate.", "\u2014though", "gall", "erect", "Upon", "milk", "struck", "mother", "counter", "vivid", "instance", "lif", "books", "pher", "Gr", "he\u2019s", "s\u2014", "re", "thor", "word,", "For,", "Whether", "scor", "Here", "Americ", "pi", "anded", "fathom", "dry", "seeming", "18", "oft", "duty", "floor", "brow,", "Lazarus", "litt", "task", "occasion", "stern,", "ition,", "ase", "affe", "hung", "air", "BY", "\u05d5", "ition", "armed", "stoo", "an", "mat", "ph", "iver", "preser", "here;", "Des", "past", "quick", "placing", "ually", "was", "th", "hum", "tum", "souls", "ag", "land.", "world,", "Will", "Ex", "drawn", "ude", "moment,", "Mr", "receiv", "singular", "ores", "ney,", "looks", "away", "Book", "Meets", "success", "yea,", "project", "Horn", "bread", "restri", "also,", "pleasant", "wom", "there\u2014", "-of", "Pacific,", "former", "weight", "mist", "bat", "y.", "Bible", "-like", "ary", "do,", "effect", "does", "Going", "cann", "drown", "monster", "occurred", "uous", "ensu", "th,", "Pot", "Soon", "shouted", "covered", "two", "ear", "wake", "apprehens", "generally", "flood", "shoals", "may,", "hoo", "vapor", "eager", "gent", "3.", "King", "spear", "ap", "it!", "ould", "swallowed", "French", "press", "good-", "can\u2019t", "all", "vell", "start", "rup", "kicked", "_.", "days,", "dressed", "De", "oud", "captain", "add", "U", "ay", "scatter", "qu", "ist", "shark", "mus", "Nantucket.", "co", "as,", "sin", "whir", "TA", "hel", "That\u2019s", "again.", "myster", "spiritual", "happen", "pers", "lee", "bad", "howling", "believe", "conduct", "Sleet", "compass", "\u201cA", "Y", "fanc", "Atlantic", "unconscious", "ces", "thr", "llo", "ore", "ck,", "compreh", "Queen", "Another", "Ad", "Look", "ew", "\u201cAye,", "Go", "there!", "horn", "Boat", "notic", "vers", "moody", "sub", "ale", "volu", "scr", "ors.", "head", "answered", "Ahab;", "right,", "Beale", "ll", "bra", "forget", "rench", "Christmas", "on;", "back.", "chap", "Whal", "suspic", "desperate", "True", "Jonah", "greate", "showed", "right", "hide", "St.", "blem", "Euroclydon", "x", "SAILOR", "iment", "passage", "Jap", "floating", "man.", "ld", "measure", "order", "should", "extreme", "it.", "vest", "pitch", "es", "truth,", "iant", "intel", "men.", "gn", "real", "faint", "strangely", "low,", "enough", "worthy", "\u2019", "harpoon", "\u2014\u201d", "jacket", "aw", "cross", "heed", "you,", "home", "pop", "bene", "swift", "miles", "ashing", "ley", "last", "THE", "ga", "know,", "hitherto", "rise", "appar", "esid", "ature", "rest", "God!", "terms", "Tom", "gener", "pant", "ci", "commanded", "per", "[", "iled", "Nantucket,", "join", "surpr", "there.", "sky", "neither", "treach", "Rad", "instead", "sun", "sailors", "iter", "Besid", "colour", "seam", "stop", "det", "himself", "cept", "stone", "-of-", "seventy-seven", "scarce", "Voyage", "rare", "discer", "sed", "crit", "whole", "Leviathan", "phan", "by;", "partly", "rad", "ct", "?\u2019", "mong", "pat", "doll", "again", "akes", "cas", "hunted", "ook", "back,", "comrad", "roc", "isel", "J", "event", "Spe", "courage", "writt", "mind,", "mariner", "order,", "ctic", "very", "giving", "forms", "een", "pipe", "Sub-", "anything", "visible", "now.", "lar", "cheer", "fortun", "leaped", "spirit", "nameless", "sad", "!\u2019", "ban", "cess", "exam", "as", "ped", "didst", "helped", "kno", "\u201d", "her,", "peculiar", "Elijah", "spi", "encounter", "concluding", "rolls", "dut", "stor", "then", "plenty", "deriv", "ar,", "fix", "Con", "anean", "voyage", "presented", "?\u2014", "could", "ctav", "smell", "Daggoo", "torn", "..", "fool", "substit", "Mean", "single", "prophet", "how", "8.", "ons", "ict", "_;", "take", "forth", "doubt", "voy", "ite", "too;", "incl", "thick", "fast,", "asted", "anti", "bearing", "bones,", "yet", "air,", "is.", "crew,", "amaz", "\u201cThe", "city", "personally", "bag", "unless", "ines", "dim", "0.", "Whale,", "orn", "when", "llen", "helm", "thered", "coun", "els", "wish", "-fish", "means", "leading", "perils", "WHA", "ational", "deliberately", "sport", "urn", "bore", "feet", "eh?", "minds", "ions", "therefore,", "sh", "coral", "mon", "Mountain", "\u201cLook", "ken", "who,", "uri", "Only", "across", "giv", "plan", "Ahab.", "SA", "agged", "boat", "Then", "sm", "it;", "er_.", "it,", "oward", "ations", "quiet", "acetti", "strange,", "gave", "orous", "navig", "unaccountable", "jud", "hal", "\u2014_", "It", "Now", "made", "ose", "midnight", "erous", "warri", "matter,", "truth", "half", "Ped", "Voy", "o\u2019", "Duo", "mildly", "lim", "\u2019st", "*", "touched", "world;", "besides", "life.", "Lim", "ship-", "belong", "ver", "joint", "pie", "other", "prodigious", "inter", "aceti", "Cape", "Coffin", "amount", "Vine", "fa", "ast,", "itive", "thoughts", "Ishma", "gold", "wise", "Do", "ow,", "mit", "!", "ject", "twelve", "wa", "able,", "says", "aspect", "minut", "appro", "equ", "oppos", "officers,", "Some", "bird", "hands", "in\u2019", "crow\u2019s-", "Had", "Take", "grave", "hunter", "easy,", "Tell", "match", "bulwarks", "arian", "his,", "Turn", "cannibal", "Br", "po", "mighty", "particularly", "invest", "mate", "11", "tim", "out", "tre", "example,", "heav", "\u2019d", "cent", "now,", "ity", "ancient", "post", "Squire", "nur", "ists", "ached", "gro", "since", "indeed,", "sever", "where", "mer", "curi", "copy", "fash", "threat", "lat", "its", "ter-", "chowder", "Bed", "watery", "ledge", "T", "via", "spring", "Jonah\u2019s", "Sou", "sun-", "tell", "whale,", "came", "open", "my", "over,", "less,", "those", "that.", "deck,", "nights", "degree", "forecast", "ff", "Dam", "Are", "maintain", "que", "anging", "thread", "inno", "ghost", "harpooneers", "Gam", "su", "Dan", "stubb", "evinced", "fow", "Lakeman", "potent", "prov", "leaning", "regard", "Don\u2019t", "ages,", "\u201cH", "loose", "lest", "dark", "tested", "tail,", "puff", "destru", "att", "s.", "West", "country", "au", "sel", "nest", "convenient", "4.", "striking", "Ice", "anc", "games", "del", "urely", "portent", "agu", "without", "Fo", "sake,", "ird", "remained", "F", "fishermen", "cabin-", "connected", "individ", "recogn", "complete", "cool", "beyond", "twel", "avast", "set,", "pumps", "surmis", ":", "\u0153", "rah", "harpooneers,", "settle", "par", "thump", "ring", "bit", "said", "First:", "look,", "iss", "),", "pot", "ity,", "state", "16", "fet", "Town-", "deter", "Ce", "died", "bru", "breakfast", "viol", "his;", "infer", "thee,", "des", "ey", "twenty", "ith,", "moun", "glasses", "\u2014what", "laugh", "travell", "peril", "try", "ery", "Besides,", "intense", "pleas", "tink", "deem", "masts", "ided", "ich", "fact,", "sat", "Hus", "ountain", "Him", "getting", "Foli", "acing", "free", "distant", "gu", "sted", "accoun", "ated", "anim", "against", "gain", "him", "excell", "Span", "punch", "ction", "\u201c_", "close", "fire-", "forced", "renched", "following", "board.", "grad", "Great", "ways,", "looking", "horizontal", "en", "mast-head", "WHALE", "lab", "succeed", "crew.", "craz", "Oh!", "sense", "ou", "dim,", "Or", "eas", "ation;", "common", "certainly", "ting", "Meant", ",\u2019", "hon", "owed", "W", "aps", "manner.", "sme", "honor", "grow", "poor", "ful", "whaling", "t.", "No,", "tou", "plank", "thought,", "rus", "som", "to,", "ahaw", "passing", "ish,", "modern", "sho", "town", "save", "dr", "iv", "dignity", "lowered", "lerable", "narr", "ional", "und", "el,", "lands", "induce", "Bulking", "crow\u2019s", "ific", "oung", "push", "shut", "chimney", "chool", "either", "Chin", "du", "buck", "beard", "swi", "wards", "immedi", "ther", "es,", "oil,", "through", "pecu", "T.", "viv", "a", "chapters", "brave", "opposite", "\u0152", "north", "Eu", "ising", "frantic", "bell", "contr", "didn\u2019t", "tar", "New", "com", "complex", "night,", "yellow", "with", "spr", "sleeping", "isting", "thy", "jaws", ")", "port,", "ies", "nt", "entit", "don\u2019t", "ls", "tur", "emb", "(_Octavo_),", "VO", "rever", "\u2014this", "mar", "cold,", "account", "spouting", "heal", "trem", "bones", "travel", "u", "old", "thro", "apart", "ce", "hook", "Cong", "nat", "\u2019em", "Starbuck", "There", "visit", "stuff", "law", "an,", "into", "shake", "figure", "cart", "gr", "Africa", "R", "gig", "quir", "script", "shaking", "explain", "org", "back", "officers", "which,", "sleep", "escap", "horiz", "gallant", "#", "uct", "acqu", "fy", "cursed", "heart,", "ere", "quarter-", "inced", "issu", "but,", "k,", "bucket", "mates,", "tem", "weed", "col", "plainly", "show", "arily", "Nantucketer,", "king,", "L", "vo", "ried", "beat", "Therefore", "involuntarily", "Heaven", "church", "Com", "woe", "returned", "rep", ";", "EE", "?", "themselves", "tro", "whal", "obed", "5.", "thousands", "Ori", "me;", "ech", "chas", "won\u2019t", "leaves", "prim", "snug", "inv", "ct,", "tow", "power", "image", "age", "gone", "conse", "ars", "veil", "ro", "beast", "ses", "ward,", "harpo", "emer", "jaw", "whisper", "judg", "en,", "ils", "sup", "bows", "afford", "stage", "dam", "Mr.", "Octav", "ation,", "irc", "inde", "harpooneer,", "passed", "so;", "2.", "or.", "Day", "beating", "butter", "opened", "pir", "dang", "equal", "hull", "sum", "to", "deliri", "was,", "perhaps,", "approach", "philo", "ubb", "child", "sick", "bes", "\u00a3", "breez", "follow", "bal", "Fish", "Cap", "!\u2014", "No", "proper", "Ish", "sent", "Sc", "Man", "whales;", "iven", "whales.", "prev", "tormented", "alo", "ie", "Up", "horri", "being", "fal", "mem", "object", "fear", "akened", "denomin", "floated", "ashes", "Judg", "\u00e6", "view,", "captains", "ning", "ffer", "Th", "yes,", "advent", "must", "vig", "dep", "sideways", "thing,", "fav", "Spou", "Didn\u2019t", "\u03c4", "afterno", "dece", "boots", "streng", "\u2014aye,", "good", "I\u2019", "prodig", "Tal", "spl", "driven", "ular", "such", "things,", "ical", "wholly", "grey", "worn", "statement", "hy", "slightly", "cks", "\u2019s", "\u2014that", "times,", "Harpo", "here,", "true", "names", "ess", "shore", "sir,", "roll", "war", "some", "imperial", "there,", "picked", "bill", "\u201cMy", "Oh,", "often", "aught", "aled", "pill", "known", "heard", "har", "gy", "other,", "sal", "ske", "inside", "ity;", "leviathan", "liness", "God,", "self", "arrive", "ener", "truly", "narrative", "concluded", "half-", "Did", "ant", "\u03b7", "acle", "wanting", "public", "ow", "seized", "de", "fisher", "vain", "cted", "Don", "serv", "can", "sometimes", "acc", "others", "Afri", "head;", "y-", "toge", "hor", "\u2014for", "\u2014_R", "high", "ds", "oun", "ump", "ance.", "vicinity", "rowed", "case", "hanging", "third", "subsequent", "luck", "jolly", "Porpoise", "udge", "ory", "upon", "mil", "oath", "irit", "smoking", "il", "meanwhile", "caut", "Mid", "der.", "pull", "hatch", "wrinkled", "hole", "craft,", "Peter", "ate.", "CHAP", "seas.", "-minded", "fri", "ge", "deli", "appe", "ough", "lines", "n,", "them;", "mysterious", "warr", "between", "remote", "-e", "doub", "meas", "ping", "alive", "worship", "them,", "comp", "own-", "lain", "experi", "prolong", "men", "stay", "zza", "Ishmael,", "hur", "attempt", "laid", "wards,", "baleen", "ye;", "Nothing", "waist", "ingly", "ustom", "hither", "mind", "ges", "go.", "fixed", "occur", "more.", "company", "called", "demand", "thunder", "hea", "near", "res", "brought", "\u201cHe", "thing", "stru", "graph", "stat", "Ah", "seem", "les", "most", "barb", "sight", "ishing", "Em", "pent", "leg", "among", "sprang", "spect", "I\u2019m", "manned", "seemed", "Ze", "royal", "according", "racted", "ponderous", "dusk", "ching", "fresh", "awe", "Browne", "num", "Stubb;", "private", "leg,", "vag", "seventy-seventh", "wrink", "Pequod\u2019s", "soon", "ence", "us.", "superstitious", "blast", "cloth", "iction", "Who\u2019s", "cat", "at.", "faith", "concl", "sudden", "including", "go,", "cast", "anxious", "using", "about,", "tempor", "\u2014and", "heart", "op", "sol", "Bedford,", "coast,", "ford", "eg", "sail,", "bling", "yield", "vill", "squ", "er-", "Har", "ught", "ise", "lungs", "abl", "le.", "ke,", "one.", "smoke", "gen", "Sy", "cul", "rom", "separ", "together", "Yet,", "different", "A.", "Pagan", "mber", "both", "aint", "water.", "abb", "eye", "sn", "1", "arrived", "0", "ors,", "become", "Po", "formed", "idol", "clud", "mere", "proceed", "beg", "business", "abs", "vol", "whales", "years\u2019", "tap", "his", "ret", "yonder", "another", "it\u2019s", "ink", "caught", "vac", "fish,", "eper", "includ", "why,", "aloft", "notice", "detail", "crowd", "right;", "Dough", "He\u2019s", "ement", "spring,", "pip", "a.", "rear", "never", "sailor,", "general", "tattooed", "nothing", "all;", "soul,", "ged", "making", "da", "stra", "ke", "posed", "Radney,", "ross", "Mon", "My", "magnet", "wo", "s;", "LE", "fairly", "whatever", "ace", "finds", "words", "indiv", "anywhere", "Bo", "hip", "l,", "hump", "aggy", "bo", "teen", "man\u2019s", "over", "along,", "py", "Spanish", "weigh", "(_Folio_),", "middle", "entered", "still,", "dashed", "Peleg", "cur", "Eli", "fig", "service", "av", "quite", "Roman", "prep", "side,", "secre", "dif", "streets", "lowly", "pipe,", "13", "ilt", "insu", "animal", "employ", "cherish", "fill", "hot", "idea", "ru", "remarkable", "ras", "ships", "wh", "wid", "up.", "SAIL", "comfor", "Or,", "spout", "prec", "\u201cIt", "taken", "cor", "Was", "-N", "lie", "ishment", "fir", "mou", "yon", "and,", "awful", "ble", "reaching", "7", "whi", "school", "might", "ain", "every", "been", "old-fash", "ced", "bear", "feel", "what\u2019s", "sea.", "content", "piece", "bor", "fire", "whiteness", "which", "hun", "actually", "Yojo", "scri", "f", "assu", "car", "val", "Hist", "Yet", "ances,", "that", "ters", "terrific", "azz", "troubled", "brain", "Line.", "mast", ",\u2014", "ship.", "Black", "tattoo", "mn", "p", "history", "portion", "somewhere", "Peleg,", "ation", "is;", "Second", "blo", "mean", "whale-boat", "ps", "or,", "supp", "gri", "top", "Nevertheless,", "prove", "imes", "winter", "would", "ier", "Stubb.", "age;", "\u2014\u2018", "oh", "allusions", "whales,", "fab", "\u2014so", "other.", "adventur", "handker", "tle", "year", "ished", "together;", "meth", "shud", "leak", "philoso", "boom", ",", "new", "arrow", "yard", "ont", "I", "teeth,", "odd", "High", "3", "deck", "...", "line,", "Brow", "ence,", "sharp", "empty", "cry", "az", "conne", "lay", "bis", "unched", "comm", "easy", "V", "isk", "ann", "least,", "anting", "\u2019tis", "pol", "fit", "Vineyard", "dreadful", "tel", "possible", "let", "father", "ibly", "aim", "supernatural", "Thus", "ad", "differ", "in", "y;", "greg", "ind", "ep", "\u2014all", "started", "used", "wooden", "Bulkington", "weather", "stand", "yet,", "ocean,", "uffalo", "ild", "ho", "merely", "gay", "observing", "cu", "valu", "consideration", "hearted", "off", "special", "beginning", "sailing", "from", "Me", "ment.", "Se", "particular", "higher", "cial", "knocking", "lect", "scut", "ding", "hast", "dem", "slight", "greatest", "key", "itch", "times", "voyage.", "ove", "tat", "8", "Frederick", "sea", "Thunder", "sound", "accountable", "ev", "Beale\u2019s", "empt", "alt", "r", "shout", "unex", "did", "inn", "jaw,", "ark", "olding", "rapid", "rob", "bed", "mutter", "come.", "round", "bloody", "le;", "fif", "exceedingly", "ither", "though,", "satis", "coll", "O", "leave", "seen,", "muf", "three", "understand", "feed", "gard", "row", "ral", "establ", "f,", "more", "these,", "zz", "Island", "atter", "(S", "ss", "med", "Pr", "NG", "possibly", "capture", "table,", "savages", "bodily", "\u201cWhat", "pit", "stretched", "OO", "deliver", "work", "trou", "level", "af", "barbaric", "world\u2019s", "oe", "ohog", "closely", "cries", "vessels", "jun", "setting", "out.", "ashed", "pred", "lod", "schoon", "dle", "pistol", "tering", "shipmates,", "Cetolog", "swallow", "harm", "plain", "antly", "\u201cD", "scrut", "ills", "produ", "monstrous", "s", "place", "ignity", "nam", "Give", "system", "pread", "thousand", "seeing", "whalemen,", "find", "chance,", "ed", "Post", "ations,", "drab", "pull,", "lit", "ouse", "ine,", "ext", "way.", "eye,", "\u201cWho", "thee", "break", "bolt", "ides", "sym", "Dick", "ze", "Steelkilt", "kn", "were,", "engaged", "ti", "aft", "second", "ceived", "all,", "indiffer", "Stand", "oo", "horizon", "dinn", "lurked", "seated", "CHAPTER", "lting", "disappeared", "ally", "nay,", "neg", "gling", "Bildad", "inc", "demo", "astonishment", "div", "instances", "hist", "Egy", "anced", "foam", "exceed", "ages", "!\u201d", "throw", "inated", "instant", "revealed", "gir", "ised", "X", "erest", "mystical", "sufficient", "spe", "vil", "phe", "mine", "Bar", "cand", "ned", "lessly", "Daggoo,", "oot", "jo", "for,", "God\u2019s", "ight", "sto", "6", "circum", "Queequ", "dra", "pale", "ople", "boat\u2019s", "stre", "fro", "ives", "English", "to-", ".\u201d", "obli", "peculiarities", "then.", "sell", "polit", "flew", "ol", "live", "up,", "er\u2019s", "nal", "lamp", "yourself", "ish.", "confound", "theless", "inging", "Woe", "arb", "direct", "horse", "on.", "plant", "beef", "conf", "flying", "ass", "lead", "I\u2019ll", "ament", "roo", "Fe", ",\u201d", "oil", "warm", "species", "scen", "bid", "extre", "arest", "till", "stern", "ize", "voyage,", "pal", "fatal", "le", "them", "ared", "windl", "gl", "dangerous", "je", "original", "ones,", "him,", "Bul", "seldom", "Where", "\u201cM", "incre", "pass", "learn", "\u201cI", "DE", "only", "wre", "ure.", "ves", "knife", "Joh", "Gre", "uch", "forecastle,", "spon", "belie", "lion", "sim", "whaling,", "me!", "hard", "surround", "Pequ", "touch", "prod", "practical", "grand", "leng", "Mark", "orig", "strong", "apping", "bin", "lad", "nervous", "shadow", "chapter", "fled", "ments", "told", "Whales,", "question", "paced", "seems", "mal", "pulled", "though", "cr", "arch", "is,", "ail", "art", "swe", "ground", "obey", "hue", "family", "AN", "lessness", "having", "loud", "whereas", "amp", "rope", "while", "habit", "ponder", "mas", "ames", "pan", "tree", "look-outs", "cross-", "suc", "gang", "\u201cyou", "rolling", "z", "uf", "carpent", "Among", "five", "fast", "face.", "pend", "batros", "ained", "alter", "fifteen", "His", "human", "tamb", "spo", "impress", "devil", "ation.", "harpoone", "mate,", "token", "orning", "look", "ut", "ness.", "this:", ");", "Nant", "waters,", "light", "utter", "rous", "king", "\u201c\u2018", "bus", "umbling", "After", "below", "far", "pap", "sit", "Delight", "scar", "consider", "Ro", "disting", "one", "ith", "langu", "ince", "make", "round,", "Life", "it?", "vice", "know", "rows", "lance", "desire", "llow", "beaut", "mean,", "Father", "diver", "aped", "heaven.", "th;", "roaring", "ion.", "symp", "irst", "bottom", "Starbuck,", "suppose", "unusual", "Nor,", "frequently", "From", "Eng", "road", "doom", "vague", "clo", "SAILOR.", "thous", "there;", "oper", "remember", "Then,", "thre", "dis", "usk", "ine", "oy", "wildly", "hours", "adv", "pray", "se", "pon", "around", "perpend", "built", "tomb", "popular", "ever", "ch.", "deliber", "fall", "d", "ghast", "critical", "oc", "kind", "BOOK", "Ben", "ashore", "romantic", "cou", "competent", "represent", "der", "tw", "distin", "sir.\u201d", "earth,", "Med", "picture", "rag", "arm", "time,", "respect", "]", "streets,", "Though", "ast.", "Flask.", "shipped", "strick", "fellow", "is", "bar", "kings", "down,", "suspended", "ets", "dismal", "wondr", "ves,", "Pro", "cloud", "Jonah,", "miss", "\u2014to", "precise", "\u2019ye", "mund", "ved", "aster", "prof", "myst", "wast", "hundred", "concer", "emp", "s?", "Fre", "Char", "form.", "fain", "merry", "entitled", "people", "weaving", "mag", "speak", "angel", "blue", "4", "here", "glit", "scarcely", "straight", "drew", "wonder", "surprising", "weather,", "repe", "domestic", "handkerchief", "Picture", "no", "(", "myself", "marvell", "stove", "isted", "Chief", "comes", "mood", "b", "ubber", "ones", "itude,", "there\u2019s", "Pequod", "hog", "-p", "char", "captain,", "dress", "endless", "lo", "pair", "lted", "Iceland", "ive", "sof", "along", "strang", "TER", "breath", "assa", "ile", "present", "horr", "iz", "room,", "wall,", "forward", "appeared", "test", "dou", "tom", "cruising", "ry", "s\u2019", "looked", "sk", "few", "y,", "religion", "G", "children", "All", "concern", "bone", "aken", "itle", "by", "day", "joy", "ef", "silent", "dost", "report", "whenever", "A.D", "enter", "going", "guess", "Sebast", "that\u2019s", "Steelkilt,", "conv", "allow", "al.", "incident", "How", "usion", "Ocean", "shipmate", "pil", "gaining", "Indian", "marvel", "preh", "concerning", "receiving", "pock", "wood", "reng", "placed", "hammock", "latitud", "American", "fr", "filled", "entire", "exp", "old-fashioned", "orders", "Because", "throwing", "quarter-deck", "well", "OF", "so", "sounded", "den", "seas,", "away,", "\u201cQueequeg,\u201d", "trad", "D", "corner,", "box", "Town-Ho", "slowly", "prow", "Narwhale", "gg", "band", "White", "mates", "corn", "conven", "natural", "be.", "be", "theless,", "little,", "ctions", "life", "\u201cLandlord", "ware", "batross.", "ilt,", "shri", "Canall", "Quaker", "inches", "suddenly", "sweeping", "fine", "out,", "circumstance", "He", "ening", "17", "sequent", "remo", "arr", "irt", "prob", "Pass", "ome", "Pat", "head.", "mortal", "rist", "blows", "Oh", "inst", "opening", "deeper", "self-", "hint", "ong", "calling", "seless", "Wat", "merchant", "A", "bitter", "e\u2014", "turns", "cere", "simp", "\u201cS", "sleeper", "Atl", "deep", "TH", "are,", "again;", "horror", "iest", "tid", "passeng", "s!", "spend", "Green", "chase", "sadly", "ropic", "him.", "ract", "a,", "received", "darkness", "Pictures", "abound", "little", "list", "feet,", "OL", "Of", "venge", "legs", "gre", "udg", "Cuvi", "hearing", "-Head", "ount", "seasons", "Co", "Can", ";\u2014", "process", "shore,", "susp", "ake", "pun", "handk", "Amer", "exasper", "ches", "immortal", "drawing", "Whale_;", "who", "telling", "ing.", "eness", "lied", "Queequeg", "bing", "pointed", "st", "together,", "fferable", "confidential", "up", "omin", "ness", "RE", "etimes", "too,", "assure", "ah", "Tash", "reco", "have", "Ramadan", "ging", "them\u2014", "fic", "\u201cC", "world.", "in.", "putting", "apped", "world", "double", "dream", "rain", "tri", "intervals", "\u201cthat", "degre", "sil", "pling", "y", "advance", "ivory", "Stubb", "ous", "raised", "neigh", "_)", "5", "furnish", "counten", "ered", "valuable", "leagu", "glad", "Whale", "whose", "hereafter", "crew", "last,", "TU", "form", "stud", "we", "aul", "invol", ",00", "\u201cIn", ":\u2014", "deck.", "adm", "towards", "beneath", "eks", "afore", "face,", "lau", "previously", "eries", "fiery", "always", "Starb", "deser", "sail", "air.", "w", "observed", "stories", "ese", "roy", "ates.", "separate", "sixty", "everlasting", "Fedall", "e,", "viathan", "thrust", "barrow", "mention", "do", "Jon", "spoke", "iac", "inf", "bed.", "lighted", "haun", "scattered", "scal", "Starbuck\u2019s", "creatures", "plac", "ways", "moon", "als", "Radney", "ocean", "utterly", "to.", "ir", "decks", "umb", "by,", "E", "bow", "tossed", "somehow", "contrasting", "gue", "cases", "k", "\u2014as", "sleeps", "bring", "happ", "intelli", "sing", "forecastle.", "reading", "civil", "ship;", "So,", "fact", "boys", "about", "worth", "return", "solic", "money", "forecastle", "coast", "ger", "es\u2014", "cra", "this;", "Fin", "feature", "waters", "i", "ordinary", "ar", "cha", "of;", "story", "commer", "oman", "ys", "Old", "chant", "ip", "\u03bf", "be,", "Fl", "les,", "Mo", "refuse", "poss", "delight", "ide", "mystic", "lof", "pow", "moonlight", "accident", "ach", "swell", "Sir", "got", "Supper", "me\u2014", "but", "instinct", "distri", "tings", "sperm", "hu", "ultimate", "fle", "reference", "row!", "tal", "Death", "resol", "scientific", "Cod", "bled", "probab", "hammo", "III.", "lift", "forlorn", "bears", "stroke", "above", "ous,", "there", "timate", "purpose", "leaving", "Quak", "\u2019T", "gh", "long", "stant", "stranger,", "published", "apt", "sweep", "painting", "wat", "passion", "e."], "merge_rules": [["t", "h"], ["i", "n"], ["th", "e"], ["a", "n"], ["e", "r"], ["a", "t"], ["r", "e"], ["o", "n"], ["o", "u"], ["e", "d"], ["i", "s"], ["e", "n"], ["in", "g"], ["a", "l"], ["an", "d"], ["o", "f"], ["s", "t"], ["o", "r"], ["a", "r"], ["t", "o"], ["e", "s"], ["a", "s"], ["i", "t"], ["w", "h"], ["s", "e"], ["h", "e"], ["l", "e"], ["o", "m"], ["o", "w"], ["l", "y"], ["c", "h"], ["b", "e"], ["i", "l"], ["a", "d"], ["th", "at"], ["i", "m"], ["g", "h"], ["h", "is"], ["u", "t"], ["al", "l"], ["v", "er"], ["n", "o"], ["c", "e"], ["i", "d"], ["s", ","], ["l", "d"], ["v", "e"], ["s", "h"], ["w", "i"], ["en", "t"], ["l", "i"], ["c", "k"], ["a", "y"], ["a", "b"], ["wi", "th"], ["f", "or"], ["u", "n"], ["m", "e"], ["i", "r"], ["a", "in"], ["w", "as"], ["er", "e"], ["e", "t"], ["gh", "t"], ["a", "p"], ["l", "l"], ["r", "o"], ["s", "u"], ["m", "o"], ["a", "g"], ["r", "i"], ["\u2019", "s"], ["e", ","], ["i", "on"], ["t", "er"], ["k", "e"], ["o", "o"], ["d", "e"], ["wh", "al"], ["h", "im"], ["s", "o"], ["i", "c"], ["q", "u"], ["ou", "t"], ["no", "t"], ["s", "a"], ["on", "e"], ["ou", "n"], ["a", "m"], ["u", "r"], ["u", "p"], ["b", "y"], ["the", "r"], ["th", "is"], ["p", "o"], ["a", "st"], ["om", "e"], ["b", "ut"], ["w", "e"], ["p", "er"], ["f", "r"], ["es", "s"], ["y", "ou"], ["il", "l"], ["c", "t"], ["m", "an"], ["b", "o"], ["p", "e"], ["h", "a"], ["u", "l"], ["c", "on"], ["fr", "om"], ["ou", "s"], ["n", "e"], ["ar", "d"], ["e", "m"], ["ow", "n"], ["ou", "ld"], ["i", "p"], ["an", "t"], ["f", "e"], ["a", "re"], ["r", "a"], ["the", "re"], ["W", "h"], ["wh", "i"], ["T", "he"], ["ar", "t"], ["u", "s"], ["es", ","], ["s", "ome"], ["n", "ow"], ["i", "f"], ["c", "om"], ["h", "ad"], ["m", "y"], ["i", "ght"], ["on", "g"], ["y", "e"], ["o", "re"], ["th", "ou"], ["sh", "ip"], ["t", "ain"], ["ha", "ve"], ["oun", "d"], ["is", "h"], ["l", "o"], ["p", "re"], ["o", "ld"], ["e", "ver"], ["th", "ing"], ["B", "ut"], ["p", "l"], ["se", "l"], ["in", "d"], ["w", "ere"], ["s", "."], ["whal", "e"], ["a", "k"], ["a", "c"], ["ed", ","], ["t", "e"], ["d", "er"], ["ou", "r"], ["w", "ay"], ["wh", "o"], ["li", "ke"], ["u", "e"], ["whi", "ch"], ["d", "o"], ["or", "t"], ["b", "l"], ["g", "e"], ["o", "ver"], ["the", "n"], ["the", "y"], ["the", "ir"], ["e", "x"], ["u", "m"], ["wh", "at"], ["wh", "en"], ["T", "h"], ["is", "t"], ["up", "on"], ["w", "or"], ["u", "st"], ["o", "ther"], ["e", "qu"], ["en", "d"], ["ab", "le"], ["g", "o"], ["s", "p"], ["e", "l"], ["mo", "re"], ["v", "en"], ["oo", "d"], ["i", "g"], ["u", "re"], ["t", "r"], ["mo", "st"], ["oo", "k"], ["f", "ore"], ["the", "m"], ["a", "ck"], ["t", "im"], ["sel", "f"], ["g", "re"], ["er", "s"], ["an", "y"], ["ap", "tain"], ["at", "e"], ["it", "t"], ["in", "to"], [".", "\u201d"], ["it", "e"], ["w", "ould"], ["u", "ck"], ["o", "d"], ["at", "ion"], ["al", "ly"], ["y", ","], ["i", "ve"], ["n", "d"], ["H", "A"], ["se", "em"], ["T", "E"], ["st", "r"], ["th", "an"], ["S", "t"], ["a", "f"], ["h", "ab"], ["p", "ro"], ["l", "and"], ["s", "s"], ["ing", ","], ["m", "en"], ["TE", "R"], ["h", "er"], ["s", "c"], ["e", "p"], ["se", "a"], ["he", "ad"], ["C", "HA"], ["CHA", "P"], ["CHAP", "TER"], ["c", "o"], ["ou", "gh"], ["be", "en"], ["d", "own"], ["an", "ce"], ["b", "le"], ["A", "hab"], ["e", "g"], ["sa", "id"], ["a", "ke"], ["c", "l"], ["a", "v"], ["i", "ous"], ["s", ";"], ["id", "e"], ["in", "t"], ["g", "r"], ["Q", "ue"], ["o", "p"], ["su", "ch"], ["c", "an"], ["of", "f"], ["i", "v"], ["the", "se"], ["al", "e"], ["A", "nd"], ["ab", "out"], ["f", "a"], ["w", "ill"], ["ar", "k"], ["c", "re"], ["Que", "equ"], ["Queequ", "eg"], ["it", "y"], ["l", "ong"], ["H", "e"], ["sa", "il"], ["h", "ow"], ["e", "st"], ["ag", "ain"], ["s", "ay"], ["o", "se"], ["h", "and"], ["p", "r"], ["w", "ard"], ["h", "ar"], ["m", "at"], ["on", "ly"], ["in", "k"], ["c", "a"], ["ag", "e"], ["il", "d"], ["thou", "gh"], ["ur", "n"], ["p", "art"], ["i", "re"], ["re", "e"], ["l", "ess"], ["l", "ook"], ["it", "s"], ["f", "ul"], ["i", "es"], ["ver", "y"], ["w", "at"], ["\u2019", "t"], ["v", "o"], ["th", "ose"], ["l", "itt"], ["i", "ck"], ["or", "n"], ["u", "d"], ["litt", "le"], ["in", "e"], ["C", "aptain"], ["se", "e"], ["as", "s"], ["th", "r"], ["s", "pe"], ["f", "l"], ["t", "w"], ["er", ","], ["g", "l"], ["you", "r"], ["gre", "at"], ["I", "t"], ["d", "id"], ["a", "ch"], ["bo", "at"], ["y", "et"], ["at", "ed"], ["t", "ed"], ["an", "c"], ["wh", "ere"], ["h", "as"], ["d", "ay"], ["n", "ess"], ["b", "r"], ["I", "n"], ["m", "on"], ["i", "e"], ["u", "ch"], ["h", "ere"], ["le", "g"], ["it", ","], ["be", "fore"], ["an", "g"], ["h", "o"], ["af", "ter"], ["seem", "ed"], ["u", "b"], ["st", "ill"], ["en", "ce"], ["li", "ght"], ["l", "ast"], ["c", "ould"], ["ne", "ver"], ["p", "t"], ["es", "."], ["com", "p"], ["u", "ll"], ["i", "an"], ["tim", "e"], ["har", "po"], ["him", "self"], ["m", "ad"], ["ever", "y"], ["thou", "ght"], ["to", "o"], ["as", "h"], ["Wh", "ale"], ["m", "ust"], ["t", "urn"], ["c", "oun"], ["m", "ight"], ["or", "d"], ["ir", "st"], ["we", "ll"], ["s", "w"], ["c", "r"], ["ed", "."], ["m", "ent"], ["r", "ound"], ["f", "ish"], ["ig", "n"], ["m", "uch"], ["tw", "o"], ["?", "\u201d"], ["m", "er"], ["d", "is"], ["s", "ort"], [",", "\u201d"], ["b", "er"], ["is", "e"], ["re", "d"], ["k", "now"], ["per", "m"], ["a", "ce"], ["n", "ight"], ["st", "and"], ["m", "ay"], ["a", "w"], ["v", "ing"], ["c", "er"], ["e", "ven"], ["wh", "ite"], ["be", "ing"], ["him", ","], ["g", "ood"], ["F", "or"], ["_", "."], ["ul", "ar"], ["th", "ree"], ["s", "er"], ["t", ","], ["ri", "ght"], ["!", "\u201d"], ["t", "ing"], ["a", "th"], ["o", "b"], ["b", "ack"], ["ll", "ow"], ["v", "i"], ["th", "ink"], ["ar", "m"], ["whi", "le"], ["d", "es"], ["c", "ri"], ["ap", "p"], ["a", "h"], ["re", "ad"], ["c", "u"], ["wor", "ld"], ["f", "irst"], ["h", "un"], ["or", "y"], ["as", "k"], ["v", "es"], ["s", "id"], ["i", "gh"], ["ar", "b"], ["thr", "ough"], ["me", ","], ["v", "ed"], ["ar", "s"], ["l", "ow"], ["c", "all"], ["s", "ent"], ["m", "ast"], ["t", "y"], ["d", "en"], ["sa", "me"], ["un", "der"], ["c", "ome"], ["a", "ir"], ["s", "he"], ["n", "ing"], ["sh", "ould"], ["k", "n"], ["es", "s,"], ["i", "al"], ["ar", "y"], ["uck", "et"], ["p", "h"], ["man", "y"], ["ly", ","], ["k", "ing"], ["i", "ble"], ["f", "er"], ["be", "t"], ["de", "ck"], ["ion", "s"], ["s", "m"], ["e", "ar"], ["st", "e"], ["wat", "er"], ["n", "at"], ["l", "ar"], ["mad", "e"], ["then", ","], ["ub", "b"], ["o", "t"], ["Th", "ere"], ["i", "z"], ["s", "le"], ["al", "most"], ["N", "ant"], ["n", "a"], ["\u2014", "_"], ["am", "ong"], ["s", "ide"], ["c", "lo"], ["harpo", "one"], ["Nant", "ucket"], ["m", "ar"], ["se", "en"], ["ak", "ing"], ["s", "ou"], ["p", "ed"], ["te", "ll"], ["it", "."], ["f", "t"], ["j", "o"], ["he", "art"], ["with", "out"], ["p", "ass"], ["y", "e,"], ["whal", "e,"], ["f", "ound"], ["a", "way"], ["bo", "ard"], ["st", "er"], ["G", "od"], ["t", "en"], ["in", "ter"], ["p", "ort"], ["d", "on"], ["f", "in"], ["su", "r"], ["vo", "y"], ["l", "ed"], ["c", "aptain"], ["le", "t"], ["Wh", "at"], ["at", "t"], ["i", "ce"], ["u", "se"], ["ch", "ed"], ["ca", "me"], ["b", "ro"], ["an", "ge"], ["er", "s,"], ["B", "ild"], ["Bild", "ad"], ["c", "he"], ["St", "ubb"], ["l", "ing"], ["to", "m"], ["i", "b"], ["d", "ist"], ["P", "e"], ["th", ","], ["g", "en"], ["S", "o"], ["at", "ing"], ["w", "ind"], ["I", ","], ["f", "f"], ["wor", "d"], ["or", "s"], ["man", ","], ["f", "ar"], ["se", "t"], ["St", "arb"], ["Starb", "uck"], ["whal", "es"], ["en", "s"], ["p", "ur"], ["w", "on"], ["ic", "al"], ["r", "y"], ["c", "as"], ["again", "st"], ["cre", "w"], ["b", "ow"], ["on", ","], ["Pe", "leg"], ["P", "equ"], ["Pequ", "od"], ["m", "ed"], ["e", "y"], ["ward", "s"], ["f", "o"], ["J", "on"], ["ra", "w"], ["i", "ly"], ["su", "b"], ["me", "an"], ["um", "p"], ["whal", "ing"], ["j", "e"], ["b", "re"], ["ing", "s"], ["sm", "all"], ["a", "z"], ["bo", "d"], ["i", "ed"], ["con", "t"], ["b", "ed"], ["in", "st"], ["pre", "sent"], ["com", "m"], ["kn", "own"], ["m", "ind"], ["a", "ct"], ["some", "thing"], ["M", "o"], ["Jon", "ah"], ["ch", "ing"], ["d", "r"], ["en", "g"], ["c", "ed"], ["re", "g"], ["h", "old"], ["h", "ap"], ["er", "ing"], ["c", "ar"], ["j", "ust"], ["re", "n"], ["\u201c", "\u2018"], ["p", "ut"], ["er", "."], ["ic", "t"], ["F", "l"], ["t", "ake"], ["se", "as"], ["m", "ain"], ["v", "ent"], ["(", "_"], ["him", "."], ["men", ","], ["or", ","], ["a", "ve"], ["cer", "tain"], ["d", "re"], ["e", "ach"], ["h", "al"], ["ne", "w"], ["g", "et"], ["v", "al"], ["ro", "ll"], ["i", "x"], ["li", "fe"], ["fa", "ce"], ["su", "p"], ["t", "re"], ["l", "t"], ["s", "un"], ["no", "thing"], ["t", "ill"], ["c", "i"], ["sou", "l"], ["o", "l"], ["it", "ion"], ["ow", ","], ["that", ","], ["u", "g"], ["Fl", "ask"], ["if", "ic"], ["in", "de"], ["p", "le"], ["N", "o"], ["c", "ra"], ["w", "ild"], ["pl", "ace"], ["an", "k"], ["m", "ake"], ["there", ","], ["on", "ce"], ["po", "se"], ["er", "ed"], ["je", "ct"], ["st", "ri"], ["ing", "."], ["h", "ard"], ["fe", "el"], ["op", "en"], ["sle", "ep"], ["ir", "c"], ["n", "or"], ["be", "g"], ["ar", "r"], ["ab", "in"], ["whale", "-"], ["l", "ay"], ["ce", "an"], ["at", "ure"], ["m", "om"], ["mom", "ent"], ["h", "igh"], ["so", "on"], ["es", ";"], ["y", "."], ["na", "me"], ["gen", "er"], ["e", "ye"], ["f", "ull"], ["to", "wards"], ["s", "perm"], ["A", "t"], ["d", "raw"], ["c", "ap"], ["po", "ss"], ["hal", "f"], ["c", "irc"], ["s", "il"], ["don", "\u2019t"], ["we", "en"], ["oun", "g"], ["C", "h"], ["a", "il"], ["ar", "ing"], ["a", "u"], ["t", "ou"], ["v", "is"], ["sa", "w"], ["ca", "use"], ["he", "ard"], ["bet", "ween"], ["m", "ark"], ["Queequeg", ","], ["are", "d"], ["s", "!"], ["is", ","], ["r", "un"], ["o", "ve"], ["or", "der"], ["mat", "ter"], ["t", "able"], ["I", "."], ["ro", "om"], ["who", "le"], ["e", "."], ["ro", "p"], ["A", "s"], ["lar", "ge"], ["i", "ther"], ["thing", "s"], ["str", "ange"], ["I", "\u2019"], ["c", "abin"], ["ing", "ly"], ["W", "e"], ["h", "or"], ["ct", "ed"], ["s", "in"], ["w", "r"], ["po", "s"], ["and", ","], ["per", "hap"], ["k", "en"], ["g", "ent"], ["bl", "ack"], ["al", "ong"], ["S", "perm"], ["i", "th"], ["he", "l"], ["way", "s"], ["vi", "a"], ["ne", "ar"], ["ro", "ss"], ["po", "int"], ["-", "head"], ["t", "s"], ["p", "ing"], ["th", "y"], ["tim", "es"], ["u", "al"], ["T", "his"], ["call", "ed"], ["s", "ign"], ["s", "on"], ["via", "than"], ["f", "ri"], ["er", "y"], ["o", "cean"], ["a", "ther"], ["S", "te"], ["pe", "cu"], ["pecu", "li"], ["peculi", "ar"], ["c", "or"], ["in", "ess"], ["en", ","], ["so", "l"], ["su", "per"], ["oo", "l"], ["S", "e"], ["i", "ent"], ["f", "our"], ["for", "m"], ["c", "ur"], ["say", ","], ["m", "in"], ["con", "sid"], ["e", "w"], ["all", ","], ["et", ","], ["ag", "e,"], ["st", "ood"], ["look", "ed"], ["ag", "g"], ["t", "ra"], ["s", "k"], ["\u201c", "I"], ["pl", "ain"], ["ship", ","], ["spe", "ct"], ["as", "on"], ["w", "ent"], ["cri", "ed"], ["c", "ast"], ["to", "ge"], ["toge", "ther"], ["wh", "e"], ["re", "st"], ["r", "u"], ["h", "u"], ["co", "l"], ["my", "self"], ["_", ")"], ["sa", "v"], ["me", "."], ["do", "es"], ["an", "other"], ["d", "ark"], ["Mo", "by"], ["D", "ick"], ["ie", "f"], ["p", "i"], ["al", "so"], ["c", "al"], ["sp", "r"], ["Th", "at"], ["de", "ad"], ["ac", "coun"], ["go", "ing"], ["s", "l"], ["y", "oung"], ["bo", "th"], ["nat", "ur"], ["en", "ess"], ["m", "is"], ["ish", "ed"], ["st", "re"], ["sh", "all"], ["sea", ","], ["ak", "en"], ["The", "y"], ["d", "ou"], ["ct", "ion"], ["il", "t"], ["ou", "d"], ["l", "at"], ["ic", "ular"], ["s", "ight"], ["l", "ord"], ["en", "c"], ["re", "ason"], ["v", "il"], ["s", "om"], ["Wh", "al"], ["qu", "e"], ["con", "d"], ["t", "ri"], ["be", "st"], ["un", "g"], ["b", "en"], ["M", "r"], ["s", "ing"], ["anc", "es"], ["in", "n"], ["comp", "le"], ["comm", "and"], ["g", "ive"], ["r", "ow"], ["pr", "of"], ["c", "le"], ["on", "e,"], ["\u201c", "A"], ["s", "at"], ["H", "ow"], ["su", "re"], ["h", "at"], ["Wh", "ite"], ["f", "am"], ["Ahab", ","], ["E", "n"], ["D", "e"], ["su", "m"], ["s", "y"], ["ey", "es"], ["him", ";"], ["le", ","], ["li", "e"], ["pre", "ss"], ["ak", "es"], ["fo", "llow"], ["now", ","], ["s", "qu"], ["it", ";"], ["ed", ";"], ["tr", "y"], ["c", "ent"], ["ch", "ief"], ["ation", "s"], ["ap", "pe"], ["f", "ind"], ["how", "ever"], ["is", "ing"], ["fe", "ar"], ["he", "ar"], ["end", "ed"], ["N", "ew"], ["a", ","], ["s", "we"], ["won", "der"], ["b", "us"], ["s", "po"], ["m", "orn"], ["O", "R"], ["e", "as"], ["tr", "ue"], ["de", "ep"], ["k", "ed"], ["it", "y,"], ["f", "lo"], ["c", "over"], ["o", "c"], ["N", "or"], ["l", "ad"], ["en", "ough"], ["me", "m"], ["Ste", "el"], ["Steel", "k"], ["Q", "u"], ["k", "ill"], ["li", "c"], ["who", "se"], ["l", "ess,"], ["\u201c", "S"], ["an", "e"], ["c", "ut"], ["m", "ate"], ["voy", "age"], ["turn", "ed"], ["fe", "w"], ["m", "a"], ["s", "mo"], ["d", "den"], ["bo", "y"], ["circ", "um"], ["c", "ess"], ["ou", "se"], ["ch", "ap"], ["qu", "est"], ["on", "s"], ["ast", ","], ["a", "ven"], ["al", "s"], ["ves", "sel"], ["in", "s"], ["k", "s"], ["fe", "et"], ["pl", "ac"], ["gr", "ound"], ["m", "il"], ["cu", "ri"], ["B", "e"], ["il", "ed"], ["whal", "em"], ["wh", "it"], ["O", "n"], ["harpoone", "er"], ["O", "h"], ["look", "ing"], ["g", "g"], ["coun", "ter"], ["th", "us"], ["su", "dden"], ["ra", "ther"], ["ke", "ep"], ["w", "ise"], ["se", "am"], ["h", "am"], ["to", "p"], ["gent", "le"], ["ar", "p"], ["H", "is"], ["G", "re"], ["to", "w"], ["u", "de"], ["m", "ort"], ["ance", ","], ["p", "ain"], ["po", "or"], ["fri", "end"], ["st", "or"], ["with", "in"], ["day", "s"], ["dou", "b"], ["them", ","], ["f", "ire"], ["ion", ","], ["ant", "ic"], ["s", "ound"], ["ou", "s,"], ["mast", "-head"], ["p", "ar"], ["C", "ap"], ["ship", "s"], ["part", "icular"], ["N", "ow,"], ["t", "al"], ["com", "mon"], ["\u2014", "the"], ["n", "\u2019t"], ["f", "ur"], ["us", "ed"], ["go", "t"], ["S", "A"], ["et", "s"], ["of", "t"], ["av", "ing"], ["ous", "ly"], ["ent", "ly"], ["I", "nd"], ["whal", "es,"], ["whe", "ther"], ["sea", "-"], ["ex", "ce"], ["li", "ving"], ["cre", "ature"], ["j", "aw"], ["k", "ind"], ["u", "ff"], ["l", "es"], ["can", "not"], ["sh", "o"], ["i", "es,"], ["ye", "ars"], ["fe", "llow"], ["ow", "s"], ["m", "id"], ["ow", "ing"], ["ci", "ally"], ["be", "cause"], ["off", "ic"], ["read", "y"], ["p", "ri"], ["c", "ord"], ["p", "ull"], ["of", "ten"], ["I", "L"], ["b", "ook"], ["cl", "ud"], ["u", "s,"], ["o", "st"], ["b", "ur"], ["on", "."], ["x", "t"], ["l", "in"], ["o", "il"], ["ear", "th"], ["man", "n"], ["p", "it"], ["A", "mer"], ["Amer", "ic"], ["it", "ud"], ["es", "pe"], ["bet", "ter"], ["i", "et"], ["cr", "u"], ["er", "able"], ["al", "ways"], ["con", "cer"], ["h", "ouse"], ["natur", "al"], ["who", ","], ["str", "ang"], ["ste", "ad"], ["h", "int"], ["ship", "\u2019s"], ["it", "ed"], ["r", "ist"], ["L", "e"], ["H", "o"], ["ict", "ure"], ["ic", "ally"], ["am", "p"], ["im", "es"], ["m", "ou"], ["ag", "es"], ["s", "ir"], ["de", "ath"], ["ul", "t"], ["im", "p"], ["W", "ith"], ["op", "le"], ["boat", "s"], ["it", "self"], ["d", "ire"], ["wat", "ch"], ["p", "an"], ["Ch", "rist"], ["de", "vil"], ["s", "al"], ["b", "ul"], ["sin", "ce"], ["ar", "n"], ["head", ","], ["to", "ld"], ["u", "ght"], ["sel", "ves"], ["a", "id"], ["g", "u"], ["gr", "and"], ["ha", "ving"], ["h", "our"], ["ve", "st"], ["ation", ","], ["con", "sc"], ["ful", "ly"], ["bod", "y"], ["e", "f"], ["so", ","], ["et", "er"], ["it", "\u2019s"], ["tr", "u"], ["fa", "ct"], ["f", "le"], ["le", "ft"], ["t", "le"], ["that", "\u2019s"], ["id", "ent"], ["i", "ven"], ["Bildad", ","], ["SA", "IL"], ["SAIL", "OR"], ["as", "e"], ["y", "ing"], ["m", "ere"], ["bo", "t"], ["l", "eng"], ["ce", "iv"], ["T", "o"], ["in", ","], ["\u2014", "\u201c"], ["w", "ood"], ["\u2014", "a"], ["ab", "ly"], ["whalem", "en"], ["perhap", "s"], ["ne", "ed"], ["be", "ar"], ["Th", "ough"], ["v", "ar"], ["per", "il"], ["st", "art"], ["this", ","], ["tim", "e,"], ["stand", "ing"], ["s", "ed"], ["ure", "d"], ["he", "\u2019s"], ["he", "av"], ["deck", ","], ["?", "\u2019"], ["Steelk", "ilt"], ["l", "ine"], ["y", "-"], ["M", "e"], ["?", "\u2014"], ["i", "ver"], ["mort", "al"], ["Ind", "ian"], ["mo", "t"], ["ster", "n"], ["be", ","], ["f", "re"], ["ter", "s"], ["re", "p"], ["per", "son"], ["gre", "en"], ["an", "sw"], ["Mr", "."], ["it", "ies"], ["le", "ad"], ["ob", "ject"], ["b", "ound"], ["d", "if"], ["vo", "l"], ["espe", "cially"], ["k", "new"], ["sh", "ad"], ["itt", "ing"], ["ar", "ri"], ["bus", "iness"], ["do", "or"], ["fa", "ir"], ["bre", "ak"], ["c", "our"], ["b", "ra"], ["SAILOR", "."], ["f", "ast"], ["all", "ow"], ["em", "pt"], ["at", "ive"], ["w", "ant"], ["ab", "ove"], ["spe", "c"], ["fish", "er"], ["is", "land"], ["ere", "st"], ["em", "p"], ["t", "or"], ["reg", "ular"], ["harpo", "on"], ["oo", "t"], ["too", "k"], ["ne", "xt"], ["li", "ve"], ["re", "main"], ["lo", "g"], ["s", "n"], ["ir", "d"], ["at", ","], ["i", "le"], ["_", ","], ["the", "e"], ["str", "ong"], ["et", "imes"], ["es", "id"], ["b", "on"], ["f", "if"], ["t", "aken"], ["no", "ble"], ["-", "f"], ["m", "ag"], ["spe", "ak"], ["ay", ","], ["bl", "ood"], ["end", "ing"], ["sh", "ort"], ["h", "ome"], ["st", "ra"], ["way", ","], ["er", ";"], ["con", "f"], ["ious", "ly"], ["s", "now"], ["u", "ally"], ["c", "old"], ["sav", "age"], ["sail", "or"], ["inter", "val"], ["comple", "te"], ["A", "ll"], ["night", ","], ["A", "l"], ["ter", "ing"], ["some", "how"], ["ate", "ly"], ["wh", "om"], ["cont", "in"], ["av", "es"], ["te", "e"], ["ye", "ar"], ["o", "y"], ["l", "ly"], ["Gre", "en"], ["un", "d"], ["hun", "d"], ["hund", "red"], ["ck", ","], ["pe", "ople"], ["which", ","], ["n", "ess,"], ["man", "\u2019s"], ["e", "v"], ["m", "ut"], ["inst", "ant"], ["ve", "l"], ["qu", "ar"], ["gener", "al"], ["c", "are"], ["s", "im"], ["wh", "y"], ["circum", "st"], ["Cap", "e"], ["too", ","], ["hand", ","], ["C", "an"], ["c", "ross"], ["mat", "es,"], ["fe", "lt"], ["ter", "r"], ["be", "low"], ["en", "se"], ["ter", "-"], ["ie", "w"], ["g", "one"], ["Le", "viathan"], ["som", "etimes"], ["go", "es"], ["\u201c", "The"], ["ou", "ght"], ["p", "on"], ["f", "ix"], ["sw", "im"], ["clo", "se"], ["l", "im"], ["k", "e,"], ["ben", "e"], ["w", "ide"], ["ent", "ire"], ["tr", "an"], ["ri", "ed"], ["th", "ous"], ["thous", "and"], ["se", "ver"], ["Americ", "an"], ["!", "\u2019"], ["turn", "ing"], ["pre", "c"], ["in", "c"], ["ib", "ly"], ["h", "app"], ["p", "icture"], ["om", "in"], ["hand", "s"], ["fl", "u"], ["re", "mo"], ["m", "al"], ["f", "ine"], ["ck", "ed"], ["I\u2019", "ll"], ["whale", "."], ["en", "ed"], ["D", "on"], ["per", "i"], ["!", "\u2014"], ["li", "f"], ["pe", "ct"], ["Stubb", ","], ["i", "fe"], ["un", "t"], ["bot", "tom"], ["wor", "k"], ["sh", "ore"], ["v", "ast"], ["seem", "s"], ["sp", "out"], ["ter", "ri"], ["an", "ch"], ["accoun", "t"], ["f", "ree"], ["d", "iv"], ["ob", "ser"], ["pre", "t"], ["ag", "ed"], ["n", "al"], ["ct", "ly"], ["le", "ast"], ["roll", "ed"], ["p", "ow"], ["pre", "v"], ["Wh", "o"], ["voy", "age,"], ["te", "st"], ["qu", "ick"], ["mat", "es"], ["bro", "ad"], ["can", "n"], ["land", "lord"], ["j", "ack"], ["beg", "an"], ["ay", "e,"], [".", "\u2019"], ["as", "pect"], ["Starbuck", ","], ["en", "counter"], ["I", "I."], ["R", "ad"], ["O", "O"], ["it", "ude"], ["p", "il"], ["de", "li"], ["tou", "ching"], ["v", "iew"], ["ple", "as"], ["ro", "y"], ["he", "aven"], ["\u201c", "L"], ["might", "y"], ["h", "ind"], ["f", "i"], ["ch", "ar"], ["doub", "t"], ["e", "ither"], ["r", "ing"], ["de", "st"], ["ru", "sh"], ["poss", "ible"], ["g", "ed"], ["st", "ep"], ["qu", "iet"], ["stra", "ight"], ["y", "on"], ["ch", "ant"], ["m", "oun"], ["yet", ","], ["any", "thing"], ["se", "cond"], ["vis", "ible"], ["pur", "pose"], ["st", "op"], ["f", "ro"], ["ke", "pt"], ["ss", "ed"], ["ence", ","], ["ir", "on"], ["-", "like"], ["\u2019", "em"], ["we", "ather"], ["sea", "."], ["here", ","], ["k", "ick"], ["pro", "d"], ["w", "al"], ["an", ","], ["sever", "al"], ["last", ","], ["h", "um"], ["L", "ake"], ["En", "gl"], ["Engl", "ish"], ["B", "y"], ["1", "."], ["ir", "it"], ["N", "ot"], ["up", ","], ["day", ","], ["leng", "th"], [".", "."], ["y", "ard"], ["s", "ix"], ["g", "ro"], ["Green", "land"], ["iz", "ed"], ["i", "or"], ["bene", "ath"], ["Christ", "ian"], ["int", "erest"], ["pur", "su"], ["r", "ad"], ["ad", "d"], ["at", "e,"], ["ch", "es"], ["mat", "e,"], ["li", "p"], ["qu", "ite"], ["We", "ll"], ["g", "ain"], ["con", "tr"], ["com", "for"], ["ve", "ll"], ["sail", "ors"], ["fam", "ous"], ["sh", "arp"], ["It", "\u2019s"], ["iv", "ory"], ["fur", "ther"], ["w", "a"], ["sh", "ow"], ["run", "ning"], ["im", "e"], ["e", "vent"], ["there", "fore"], ["gentle", "men,"], ["Y", "ou"], ["er", "s."], ["an", "im"], ["A", "n"], ["for", "d"], ["f", "anc"], ["el", ","], ["ne", "st"], ["d", "art"], ["mag", "n"], ["ash", "ore"], ["d", "ri"], ["pi", "pe"], ["mar", "in"], ["am", "b"], ["p", "ul"], ["bro", "ken"], ["g", "az"], ["dre", "am"], ["le", "an"], ["in", "vest"], ["e", "per"], ["t", "aking"], ["var", "ious"], ["po", "l"], ["or", "ig"], ["orig", "in"], ["cra", "ft"], ["le", "viathan"], ["h", "ur"], ["\u2019", "ll"], ["comp", "any"], ["morn", "ing"], ["che", "st"], ["com", "ing"], ["again", ","], ["d", "one"], ["\u2014", "and"], ["for", "th"], ["ers", ";"], ["quest", "ion"], ["m", "ur"], ["g", "iven"], ["Peleg", ","], ["T", "ash"], ["I", "f"], ["e", "le"], ["3", "."], ["8", "."], ["9", "."], ["0", "."], ["S", "h"], ["ain", "t"], ["w", "ed"], ["r", "om"], ["cas", "e"], ["ho", "pe"], ["N", "ow"], ["boat", ","], ["p", "a"], ["n", "arr"], ["K", "ing"], ["t", "i"], ["low", "ly"], ["th", "re"], ["er", "\u2019s"], ["C", "om"], ["be", "hind"], ["m", "ist"], ["b", "ar"], ["re", "spect"], ["pass", "age"], ["in", "ct"], ["Nantucket", ","], ["sh", "r"], ["n", "um"], ["el", "se"], ["ing", "ing"], ["st", "it"], ["f", "all"], ["Y", "es,"], ["re", "ach"], ["d", "rop"], ["st", "ory"], ["h", "on"], ["ar", ","], ["A", "N"], ["ide", "a"], ["l", "s"], ["c", "orn"], ["say", "s"], ["b", "or"], ["hu", "man"], ["cann", "ib"], ["ne", "y"], ["inde", "ed"], ["y", ";"], ["hel", "p"], ["when", ","], ["man", "."], ["com", "es"], ["pre", "h"], ["bl", "ed"], ["back", ","], ["curi", "ous"], ["sy", "m"], ["ant", "ly"], ["id", "ing"], ["th", "or"], ["2", "."], ["-", "B"], ["6", "."], ["B", "l"], ["Whale", ";"], [".", "\u2014"], ["out", ","], ["g", "lo"], ["em", "ent"], ["se", "ven"], ["m", "aking"], ["ce", "ed"], ["lo", "st"], [")", ","], ["L", "et"], ["in", "fer"], ["se", ","], ["d", "im"], ["le", "ap"], ["me", "et"], ["ance", "."], ["dif", "fer"], ["you", ","], ["stor", "m"], ["in", "su"], ["ie", "ld"], ["Y", "et"], ["k", ","], ["Wh", "y"], ["them", "."], ["-", "b"], ["sup", "pose"], ["bl", "ing"], ["pl", "ank"], ["t", "on"], ["b", "ed,"], ["ch", "ance"], ["light", ","], ["mem", "ber"], ["re", "al"], ["ur", "ing"], ["s", "light"], ["or", "po"], ["mean", "s"], ["ad", "v"], ["Tash", "te"], ["Tashte", "go"], ["whit", "eness"], ["at", "es"], ["B", "OO"], ["BOO", "K"], ["4", "."], ["5", "."], ["P", "ac"], ["Pac", "ific"], ["ion", "."], ["ity", "."], ["so", "le"], ["said", ","], ["w", "arm"], ["L", "ord"], ["mon", "ster"], ["c", "at"], ["-", "e"], ["mou", "th"], ["thing", "s,"], ["whale", "\u2019s"], ["b", "id"], ["t", "ail"], ["fix", "ed"], ["S", "ome"], ["for", "med"], ["them", "selves"], ["bo", "ld"], ["pro", "per"], ["b", "arb"], ["de", "gre"], ["p", "al"], ["draw", "n"], ["reg", "ard"], ["str", "uck"], ["p", "end"], ["Oh", ","], ["all", "."], ["n", "igh"], ["i", "est"], ["ph", "an"], ["enc", "es"], ["ck", "s"], ["ion", "ed"], ["as", ","], ["f", "ive"], ["head", "s"], ["concer", "ning"], ["was", ","], ["fe", "ct"], ["ha", "w"], ["ag", "an"], ["tou", "ch"], ["f", "right"], ["g", "ra"], ["i", "ence"], ["l", "ur"], ["sail", "ed"], ["om", "an"], ["p", "ra"], ["p", "ump"], ["Ahab", "\u2019s"], ["R", "ight"], ["A", "r"], ["w", "ark"], ["ar", "ch"], ["anc", "ing"], ["v", "iv"], ["al", "together"], ["d", "read"], ["p", "at"], ["re", "ceiv"], ["\u201c", "What"], ["I", "s"], ["en", "ing"], ["wat", "er,"], ["m", "ing"], ["land", ","], ["harpoone", "ers"], ["ex", "press"], ["r", "id"], ["h", "orn"], ["f", "at"], ["other", ","], ["b", "u"], ["ag", "o"], ["pret", "ty"], ["answ", "er"], ["ut", "ter"], ["p", "u"], ["Wh", "en"], ["d", "s"], ["sil", "ent"], ["ri", "gg"], ["fore", "cast"], ["think", "s"], ["iv", "es"], ["perhap", "s,"], ["in", "ed"], ["f", "oot"], ["ly", "ing"], ["tee", "th"], ["an", "n"], ["ore", "d"], ["long", ","], ["half", "-"], ["seam", "en"], ["b", "ad"], ["il", "ar"], ["is", "ed"], ["un", "known"], ["po", "p"], ["see", "ing"], ["cl", "am"], ["con", "clud"], ["But", ","], ["a", "haw"], ["su", "c"], ["draw", "ing"], ["qu", "ent"], ["N", "ever"], ["ven", "ge"], ["g", "old"], ["am", "es"], ["sp", "irit"], ["l", "ist"], ["hor", "iz"], ["0", "0"], ["L", "E"], ["li", "ed"], ["7", "."], ["t", "."], ["C", "on"], ["F", "ish"], ["or", "."], ["I", "S"], ["p", "ick"], ["gener", "ally"], ["pr", "om"], ["world", ","], ["H", "ere"], ["re", "t"], ["cal", "m"], ["nat", "ure"], ["dis", "cover"], ["b", "one"], ["\u201c", "M"], ["vo", "ice"], ["ch", "o"], ["im", "port"], ["ment", "ion"], ["st", "one"], ["su", "sp"], ["g", "all"], ["P", "o"], ["ce", ","], ["1", "8"], ["ar", "ound"], ["de", "m"], ["g", "a"], ["b", "it"], ["is", "e,"], ["s", "lowly"], ["ship", "."], ["tow", "n"], ["cr", "ow"], ["bul", "wark"], ["im", "ent"], ["ey", "es,"], ["ign", "ity"], ["ex", "act"], ["H", "orn"], ["c", "and"], ["ward", ","], ["s", "itting"], ["sid", "e,"], ["hold", "ing"], ["room", ","], ["d", "ing"], ["feel", "ing"], ["there", "\u2019s"], ["g", "ave"], ["think", "ing"], ["heav", "y"], ["more", ","], ["me", ";"], ["sc", "ar"], ["it", "ary"], ["bur", "st"], ["mo", "od"], ["r", "up"], ["itt", "ed"], ["Pequod", ","], ["o", "_)"], ["part", "s"], ["S", "p"], ["F", "irst"], ["O", "f"], ["on", ";"], ["Th", "en"], ["z", "e"], ["ex", "t"], ["que", "er"], ["m", "ild"], ["le", "aving"], ["cre", "d"], ["be", "long"], ["gr", "ow"], ["fif", "ty"], ["il", "ing"], ["tr", "ou"], ["plac", "ed"], ["re", "l"], ["o", "h"], ["and", "ed"], ["ord", "in"], ["p", "ap"], ["o", "e"], ["near", "ly"], ["ck", "ing"], ["lo", "y"], ["ive", "ly"], ["Wh", "ere"], ["H", "us"], ["Hus", "se"], ["fe", "ll"], ["pro", "b"], ["d", "am"], ["de", "part"], ["prec", "ise"], ["ut", "e"], ["s", "\u2014"], ["at", "ter"], ["v", "ain"], ["k", "ne"], ["phan", "tom"], ["B", "esid"], ["le", "st"], ["to", ","], ["us", "."], ["be", "lie"], ["re", "pe"], ["b", "ill"], ["c", "es"], ["em", "b"], ["ch", "ase"], ["So", ","], ["th", "ick"], ["the", "less,"], ["ter", ","], ["m", "ine"], ["himself", ","], ["st", "em"], ["but", ","], ["cannib", "al"], ["f", "ill"], ["c", "up"], ["sh", "out"], ["plain", "ly"], ["tom", "ahaw"], ["f", "ig"], ["l", "au"], ["lau", "gh"], ["er", "r"], ["m", "akes"], ["st", "ar"], ["pop", "ular"], ["Qu", "ak"], ["captain", ","], ["Flask", ","], ["ang", "u"], ["es", "e"], ["T", "H"], ["vo", "c"], ["qu", "ire"], ["G", "r"], ["D", "o"], ["ign", "or"], ["what", "ever"], ["ation", "s,"], ["cle", "ar"], ["-", "mast"], ["re", "s"], ["br", "ought"], ["s.", "\u201d"], ["des", "cri"], ["mot", "ion"], ["le", "arn"], ["land", "s"], ["gr", "im"], ["co", "ast"], ["a", "-"], ["ther", "n"], ["S", "ou"], ["pos", "ed"], ["_.", ")"], ["consid", "er"], ["thr", "own"], ["air", ","], ["col", "our"], ["sh", "ark"], ["lo", "ve"], ["Whal", "e,"], ["shr", "oud"], ["emp", "loy"], ["whale-", "ship"], ["v", "ic"], ["air", "."], [";", "\u2014"], ["che", "er"], ["ation", "."], ["il", "o"], ["sur", "pr"], ["there", "."], ["re", "ver"], ["pe", "st"], ["me", "t"], ["er", "-"], ["your", "self"], ["se", "par"], ["consc", "ious"], ["hon", "or"], ["ud", "g"], ["ab", "l"], ["re", "ally"], ["consid", "ering"], ["deck", "."], ["quar", "ter-"], ["se", "cre"], ["eas", "y"], ["anc", "es,"], ["B", "ed"], ["Bed", "ford"], ["et", "s,"], ["a", "!"], ["r", "ap"], ["g", "n"], ["b", "urn"], ["t", "em"], ["though", ","], ["wr", "ink"], ["head", "."], ["num", "ber"], ["sup", "per"], ["wh", "is"], ["comp", "an"], ["ham", "mo"], ["s", "or"], ["f", "et"], ["won", "\u2019t"], ["es", "cap"], ["pil", "ot"], ["thing", ","], ["mur", "der"], ["sea", ";"], ["br", "ow"], ["who", "lly"], ["b", "orn"], ["bod", "ily"], ["inde", "ed,"], ["whal", "es."], ["w", "ar"], ["ac", "cord"], ["squ", "all"], ["is", "m"], ["re", "li"], ["crew", ","], ["g", "un"], ["cor", "re"], ["coun", "try"], ["R", "am"], ["G", "o"], ["Ahab", "."], ["at", "."], ["r", "an"], ["br", "ain"], ["be", "ll"], ["Wh", "ile"], ["al", "one"], ["i", "ch"], ["ex", "tra"], ["appe", "ar"], ["gl", "ass"], ["s", "ad"], ["roy", "al"], ["heart", "s"], ["pl", "ay"], ["c", "ing"], ["be", "l"], ["li", "es"], ["we", "ar"], ["att", "le"], ["V", "oy"], ["ur", "ch"], ["n", "av"], ["ca", "ught"], ["ab", "o"], ["ap", "pro"], ["ro", "b"], ["end", "s"], ["er", "ous"], ["my", "ster"], ["n", "y"], ["fin", "ally"], ["E", "li"], ["mil", "es"], ["ure", "s"], ["le", "e"], ["Husse", "y"], ["mo", "d"], ["st", "o"], ["for", "ward"], ["st", "ic"], ["oc", "cas"], ["I", "sh"], ["Ish", "ma"], ["water", "y"], ["h", "y"], ["wh", "ar"], ["L", "ook"], ["ies", "."], ["e", "k"], ["ho", "llow"], ["dist", "ant"], ["Besid", "es,"], ["time", "."], ["ain", "\u2019t"], ["Well", ","], ["p", "ay"], ["sing", "le"], ["p", "en"], ["S", "uch"], ["origin", "al"], ["ash", "ing"], ["t", "all"], [":", "\u2014"], ["to", "ssed"], ["so", "ci"], ["n", "ed"], ["sc", "en"], ["ha", "ir"], ["sh", "ap"], ["ex", "am"], ["id", "ed"], ["r", "um"], ["sub", "st"], ["whis", "per"], ["over", ","], ["re", "sol"], ["if", "f"], ["certain", "ly"], ["preh", "ens"], ["f", "urn"], ["d", "ut"], ["l", "er"], ["ash", "ed"], ["sim", "ilar"], ["complete", "ly"], ["one", "."], ["f", "ic"], ["ak", "ed"], ["is", "es"], ["less", "ly"], ["Queequeg", "\u2019s"], ["for", "t"], ["ex", "peri"], ["u", "su"], ["ad", "m"], ["h", "ither"], ["m", "n"], ["will", ","], ["car", "ried"], ["ne", "cess"], ["ang", "ing"], ["men", "."], ["turn", "s"], ["d", "et"], ["f", "ool"], ["wat", "ers"], ["\u2019", "s,"], ["h", "om"], ["pre", "ad"], ["exce", "pt"], ["l", "uck"], ["tim", "es,"], ["te", "l"], ["or", "s,"], ["orpo", "ise"], ["o_)", ","], ["Rad", "ney"], ["P", "ro"], ["p", "y"], ["in", "clud"], ["us", "ing"], ["Ram", "ad"], ["in", "."], ["F", "o"], ["ri", "g"], ["word", ","], ["ever", ","], ["t", "ic"], ["anc", "ient"], ["Th", "ou"], ["al", "oft"], ["stri", "ke"], ["\u201c", "And"], ["p", "un"], ["ent", ","], ["w", "aves"], ["\u201c", "He"], ["i", "ke"], ["mo", "der"], ["on", "t"], ["te", "en"], ["can", "\u2019t"], ["o", "be"], ["fa", "il"], ["con", "ce"], ["ro", "pe"], ["jo", "y"], ["st", "ove"], ["cap", "t"], ["ore", "s"], ["poss", "ess"], ["bl", "ow"], ["com", "rad"], ["F", "rom"], ["m", "or"], ["hour", "s"], ["se", "ated"], ["ast", "er"], ["ac", "ing"], ["cont", "ent"], ["s", "?"], ["un", "less"], ["sudden", "ly"], ["ho", "ly"], ["gr", "as"], ["l", "ung"], ["g", "y"], ["t", "ar"], ["mer", "chant"], ["in", "flu"], ["able", ","], ["soul", ","], ["her", ","], ["p", "ie"], ["way", "."], ["spo", "t"], ["ing", "s,"], ["ly", "."], ["ment", "s"], ["h", ","], ["go", "d"], ["se", "m"], ["u", "f"], ["stand", "s"], ["table", ","], ["po", "t"], ["however", ","], ["he", "ld"], ["ain", "ed"], ["ship", "mates,"], ["pl", "an"], ["strang", "er"], ["harpoone", "er,"], ["I\u2019", "ve"], ["say", "ing"], ["u", "ct"], ["to", "-"], ["eye", "ing"], ["anc", "ed"], ["terri", "ble"], ["ist", "ed"], ["tomahaw", "k"], ["l", "amp"], ["t", "ur"], ["in", "ch"], ["lo", "ck"], ["by", ","], ["scar", "ce"], ["ful", "ness"], ["he", "ed"], ["g", "ir"], ["Oh", "!"], ["ho", "g"], ["au", "thor"], ["them", ";"], ["be", "aring"], ["s", "pread"], ["al", "ity"], ["at", "ed,"], ["what", "\u2019s"], ["Eli", "j"], ["Elij", "ah"], ["sc", "ut"], ["ch", "art"], ["d", "ignity"], ["super", "stit"], ["cru", "ising"], ["U", "n"], ["ct", "ions"], ["ter", "m"], ["l", "aw"], ["P", "ost"], ["He", "ad"], ["us", "k"], ["le", "."], ["b", "at"], ["own", "-"], ["it", "ch"], ["P", "er"], ["C", "off"], ["i", "a"], ["ing", ";"], ["not", ","], ["ent", "er"], ["well", ","], ["s", "pl"], ["sw", "allow"], ["ge", "st"], ["pro", "ceed"], ["r", "ise"], ["appe", "ared"], ["the", "d"], ["p", "he"], ["s", "es"], ["exce", "ed"], ["k", "es"], ["we", "l"], ["z", "z"], ["de", "al"], ["b", "ale"], ["seas", ","], ["g", "e,"], ["att", "ack"], ["car", "ry"], ["dre", "ss"], ["fish", ","], ["At", "l"], ["Atl", "antic"], ["C", "har"], ["ch", "ild"], ["\u201c", "No"], ["bow", "s"], ["b", "right"], ["fre", "sh"], ["u", "ri"], ["ex", "p"], ["c", "ial"], ["le", "ct"], ["l", "ate"], ["mann", "er"], ["ful", ","], ["d", "ang"], ["v", "it"], ["l", "aid"], ["e", "ag"], ["f", "t,"], ["prof", "ess"], ["des", "ire"], ["est", ","], ["wind", "s"], ["bl", "ue"], ["vis", "it"], ["there", "!"], ["it", "?"], ["ke", "y"], ["Captain", ","], ["id", "ol"], ["am", "id"], ["um", "b"], ["swe", "ep"], ["mar", "vell"], ["earth", "ly"], ["accoun", "table"], ["himself", "."], ["peril", "s"], ["follow", "ing"], ["po", "ck"], ["fro", "st"], ["b", "oo"], ["one", "st"], ["itself", ","], ["ent", "y"], ["n", ","], ["hun", "g"], ["lim", "b"], ["n", "er"], ["fin", "al"], ["h", "ump"], ["landlord", ","], ["ye", "?"], ["set", "t"], ["That", "\u2019s"], ["co", "at"], ["br", "im"], ["al", "o"], ["be", "come"], ["sleep", "ing"], ["he", "ight"], ["pri", "v"], ["n", "one"], ["get", "ting"], ["in", "ning"], ["morn", "ing,"], ["ish", "ing"], ["c", "ool"], ["snow", "-"], ["moment", ","], ["prod", "ig"], ["A", "f"], ["ye", "llow"], ["tru", "th"], ["while", ","], ["as", "c"], ["h", "id"], ["again", "."], ["c", "iv"], ["civ", "il"], ["smo", "king"], ["G", "ood"], ["c", "ul"], ["se", "quent"], ["ac", "c"], ["ust", "om"], ["Se", "e"], ["be", "at"], ["kn", "ife"], ["also", ","], ["l", "of"], ["lof", "ty"], ["fa", "ther"], ["au", "ght"], ["ul", "ous"], ["cabin", "."], ["spe", "aking"], ["remain", "ed"], ["low", "er"], ["be", "ach"], ["le", "ak"], ["de", "cl"], ["im", "press"], ["v", "ag"], ["Mr", "s."], ["Y", "o"], ["Yo", "jo"], ["h", "ull"], ["ch", "as"], ["ha", "iled"], ["\u201cA", "ye,"], ["inst", "ances"], ["\u2014", "that"], ["ition", ","], ["-", "of"], ["fish", "ery"], ["in", "tel"], ["D", "agg"], ["Dagg", "oo"], ["Fo", "li"], ["_)", ".\u2014"], ["hun", "t"], ["O", "r"], ["T", "A"], ["et", "."], ["ck", "."], ["T", "own-"], ["Town-", "Ho"], ["R", "o"], ["is", "ter"], ["H", "ist"], ["f", "un"], ["sign", "ific"], ["anim", "al"], ["med", "i"], ["_", ";"], ["at", "ic"], ["pleas", "ant"], ["re", "f"], ["O", "ne"], ["ag", "on"], ["b", "esid"], ["o", "s"], ["his", ","], ["bon", "es"], ["kill", "ed"], ["b", "al"], ["a", "im"], ["ure", ","], ["S", "ir"], ["pon", "der"], ["jaw", "s"], ["qu", "ently"], ["s", "wi"], ["swi", "ft"], ["arm", "ed"], ["se", "ld"], ["seld", "om"], ["re", "fer"], ["am", "ent"], ["re", "ck"], ["ro", "ck"], ["n", "et"], ["he", ","], ["p", "ast"], ["w", "ake"], ["ish", "ment"], ["l", "ance"], ["eag", "er"], ["pow", "er"], ["ar", "ily"], ["k", "no"], ["ph", "ilo"], ["philo", "so"], ["was", "h"], ["w", "av"], ["prev", "ious"], ["el", "s"], ["men", ";"], ["su", "ff"], ["poss", "ibly"], ["des", "er"], ["gl", "ory"], ["myself", ","], ["consid", "erable"], ["pass", "ed"], ["ear", "nest"], ["secre", "t"], ["un", "accountable"], ["barb", "ar"], ["con", "ne"], ["be", "came"], ["an", "x"], ["d", "le"], ["follow", "ed"], ["l", "oud"], ["did", "n\u2019t"], ["ies", ";"], ["fi", "ery"], ["lin", "es"], ["im", "ag"], ["gre", "g"], ["sub", "ject"], ["r", "ust"], ["r", "al"], ["fanc", "y"], ["att", "empt"], ["t", "um"], ["c", "y"], ["as", "s,"], ["me", "as"], ["U", "pon"], ["de", "c"], ["f", "ain"], ["fl", "ed"], ["of", ","], ["cr", "y"], ["dart", "ed"], ["sp", "are"], ["fle", "w"], ["bl", "ess"], ["then", "."], ["other", "wise"], ["Af", "ter"], ["o", ","], ["ag", "es,"], ["prod", "u"], ["d", "inn"], ["in", "ced"], ["R", "e"], ["board", ","], ["t", "akes"], ["a", "me"], ["pr", "ay"], ["p", "agan"], ["en", "ess,"], ["g", "iv"], ["mo", "ther"], ["th", "ird"], ["l", "it"], ["al", "ive"], ["for", ","], ["or", "ous"], ["des", "c"], ["look", "s"], ["if", "ied"], ["know", "s"], ["day", "s,"], ["fisher", "y,"], ["bl", "es"], ["der", ","], ["pro", "v"], ["hel", "m"], ["li", "est"], ["seas", "."], ["cabin", ","], ["ob", "li"], ["th", "under"], ["A", "ye,"], ["il", "ity"], ["it", "ies,"], ["picture", "s"], ["ist", "s"], ["nat", "ive"], ["own", "ers"], ["b", "an"], ["E", "m"], ["super", "ior"], ["ant", "s"], ["\u2019", "ye"], ["horiz", "on"], ["hun", "ter"], ["ham", "mer"], ["sail", "ing"], ["im", "per"], ["af", "t"], ["r", "ising"], ["sail", "s"], ["peri", "od"], ["lat", "itud"], ["Pequod", "\u2019s"], ["I", "II."], ["boat", "\u2019s"], ["o", "ars"], ["pull", ","], ["Lake", "man"], ["W", "HA"], ["W", "he"], ["Ramad", "an"], ["to", "log"], ["able", "."], ["Whale", "."], ["T", "e"], ["S", "he"], ["up", "per"], ["ch", "ool"], ["oo", "se"], ["b", "lo"], ["1", "0"], ["Bl", "ack"], ["re", "su"], ["S", "."], ["S", "pan"], ["b", "ird"], ["f", "are"], ["g", "ul"], ["-", "p"], ["\u201c", "There"], ["\u201c", "In"], ["p", "ent"], ["mon", "str"], ["th", "ir"], ["moder", "n"], ["hu", "ge"], ["sp", "ort"], ["cl", "im"], ["s", "me"], ["Sou", "th"], ["o", "\u2019"], ["st", "uff"], ["p", "s"], ["art", "ic"], ["boat", "s,"], ["ren", "ch"], ["sir", ","], ["some", "where"], ["am", ","], ["h", "ill"], ["mo", "on"], ["en", "or"], ["entire", "ly"], ["ex", "c"], ["regard", "ed"], ["oc", "cur"], ["way", "s,"], ["v", "es,"], ["ct", "ic"], ["pursu", "it"], ["g", "ale"], ["one", "y"], ["h", "ous"], ["deli", "ber"], ["quiet", "ly"], ["ch", "er"], ["lean", "ing"], ["ben", "ch"], ["car", "ri"], ["d", "ed"], ["app", "ing"], ["sil", "ver"], ["pass", "eng"], ["hab", "it"], ["j", "ump"], ["tran", "s"], ["oun", "t"], ["do", "g"], ["\u2014", "he"], ["other", "s"], ["present", "ed"], ["us", "ion"], ["arm", ","], ["point", "ed"], ["al", "ready"], ["ad", "vent"], ["l", "ted"], ["ion", "s,"], ["ne", "gro"], ["air", ";"], ["word", "s"], ["ou", "ter"], ["place", ","], ["wood", "en"], ["u", "ous"], ["ast", "ing"], ["t", "at"], ["w", "id"], ["sy", "stem"], ["imag", "in"], ["bl", "ast"], ["w", "inter"], ["op", "pos"], ["w", "all"], ["wrink", "led"], ["l", "es,"], ["v", "ill"], ["sou", "ght"], ["bl", "ank"], ["f", "ing"], ["crew", "."], ["st", "iff"], ["priv", "ate"], ["ap", "art"], ["t", "id"], ["sn", "ug"], ["v", "ig"], ["s", "oft"], ["Th", "ink"], ["under", "stand"], ["st", "air"], ["dut", "y"], ["tain", "ing"], ["f", "ight"], ["whale", "man"], ["h", "onest"], ["abo", "ard"], ["k", "in"], ["hid", "den"], ["b", "is"], ["d", "uring"], ["short", ","], ["roll", "ing"], ["regular", "ly"], ["hard", "ly"], ["cal", "cul"], ["ach", "ed"], ["trou", "bled"], ["e", "ks"], ["dre", "w"], ["le", "ave"], ["Never", "theless,"], ["hun", "ted"], ["degre", "e"], ["if", ","], ["sk", "y"], ["if", "ul"], ["se", "t,"], ["sol", "itary"], ["mil", "k"], ["pl", "ant"], ["swe", "et"], ["in", "stead"], ["sole", "mn"], ["f", "ash"], ["God", ","], ["fe", "ature"], ["for", "mer"], ["ac", "ross"], ["lif", "ted"], ["there", ";"], ["re", "lie"], ["s", "well"], ["de", "p"], ["whar", "f"], ["\u201c", "H"], ["st", "ate"], ["ion", ";"], ["de", "light"], ["it", "!"], ["hand", "s,"], ["c", "ou"], ["ac", "qu"], ["s", "ke"], ["ask", "ed"], ["D", "id"], ["mem", "or"], ["int", "ense"], ["strange", "ly"], ["e", "h"], ["offic", "ers"], ["in", "cl"], ["accord", "ing"], ["al", "ter"], ["reli", "g"], ["se", "vent"], ["away", ","], ["-of", "-"], ["St", "and"], ["For", ","], ["invest", "ed"], ["D", "ough"], ["Dough", "-B"], ["sc", "ient"], ["scient", "ific"], ["P", "orpoise"], ["boy", "s,"], ["TH", "E"], ["WHA", "LE"], ["S", "ub"], ["In", "n"], ["B", "o"], ["own", "."], ["Sh", "ip"], ["ch", "."], ["Dick", "."], ["S", "c"], ["oun", "tain"], ["ine", "."], ["1", "1"], ["1", "2"], ["l", "a"], ["pre", "ser"], ["heart", ","], ["D", "ut"], ["A", "."], ["A", "L"], ["-", "st"], ["ear", "th,"], ["it", "able"], ["at", "or"], ["pre", "p"], ["h", "ast"], ["ro", "o"], ["besid", "es"], ["mou", "th,"], ["b", "ig"], ["red", ","], ["pro", "phe"], ["receiv", "ed"], ["De", "ath"], ["pe", "ace"], ["d", "i"], ["learn", "ed"], ["ocean", ","], ["for", "ced"], ["e", "ight"], ["God", "\u2019s"], ["le", "y"], ["ri", "b"], ["a", "fr"], ["afr", "aid"], ["ordin", "ary"], ["p", "ir"], ["these", ","], ["st", "ro"], ["C", "u"], ["Cu", "vi"], ["ace", "ti"], ["b", "read"], ["ho", "sp"], ["tre", "m"], ["m", "ous"], ["every", "thing"], ["utter", "ly"], ["spec", "ies"], ["w", "o"], ["is", "s"], ["stri", "king"], ["l", ","], ["bro", "ther"], ["sail", ","], ["look", "-"], ["differ", "ent"], ["vic", "in"], ["Coff", "in"], ["thr", "ow"], ["precise", "ly"], ["in", "vol"], ["T", "ake"], ["separ", "ate"], ["tor", "ment"], ["offic", "er"], ["E", "gy"], ["Egy", "pt"], ["put", "ting"], ["that", "."], ["about", ","], ["know", "ing"], ["un", "iver"], ["vi", "ol"], ["repe", "ated"], ["And", ","], ["exact", "ly"], ["ind", "u"], ["name", "less"], ["hor", "r"], ["so", "cial"], ["me", "\u2014"], ["sw", "ung"], ["sh", "ir"], ["start", "ed"], ["emb", "ark"], ["whal", "ing,"], ["on", "es"], ["Ishma", "el,"], ["al", "ed"], ["vi", "ce"], ["me", "ant"], ["be", "yon"], ["beyon", "d"], ["j", "et"], ["ct", ","], ["tem", "pest"], ["wor", "se"], ["how", "ling"], ["tal", "k"], ["shad", "ow"], ["En", "g"], ["Eng", "land"], ["ner", "v"], ["ce", "pt"], ["pr", "im"], ["y", "ield"], ["fact", ","], ["spr", "ing"], ["sh", "ud"], ["sc", "re"], ["plac", "es"], ["in", "ing"], ["\u201c", "But"], ["dre", "ssed"], ["resol", "ved"], ["even", "ing"], ["marin", "ers"], ["land", "ed"], ["per", "s"], ["face", ","], ["s", "lip"], ["natur", "ally"], ["bo", "lt"], ["on", "es,"], ["there", "by"], ["\u201c", "D"], ["light", "ed"], ["jack", "et,"], ["ho", "t"], ["Me", "an"], ["ship", "ped"], ["na", "ught"], ["agg", "ed"], ["fat", "al"], ["p", "uff"], ["cl", "oud"], ["\u201c", "Queequeg"], ["har", "m"], ["pre", "s"], ["M", "y"], ["app", "ed"], ["aw", "ful"], ["po", "st"], ["char", "ac"], ["usu", "al"], ["fig", "ure"], ["wa", "ist"], ["self", "-"], ["tain", "ed"], ["prof", "ound"], ["that", "_"], ["ind", "iv"], ["indiv", "id"], ["individ", "ual"], ["are", "st"], ["sp", "ite"], ["fl", "ow"], ["re", "cord"], ["ant", "i"], ["al", ","], ["spirit", "ual"], ["F", "ather"], ["his", "tor"], ["dist", "inct"], ["terr", "ors"], ["h", "ip"], ["Jonah", "\u2019s"], ["wor", "thy"], ["it", "ive"], ["arm", "s"], ["h", "ide"], ["sle", "eper"], ["drop", "ped"], ["re", "tre"], ["ind", "if"], ["indif", "fer"], ["hom", "e,"], ["il", "i"], ["des", "per"], ["hint", "ed"], ["ma", "j"], ["maj", "est"], ["il", "s"], ["t", "orn"], ["ren", "g"], ["le", ";"], ["tr", "ad"], ["o", "hog"], ["hun", "ters"], ["ch", "ow"], ["chow", "der"], ["af", "fair"], ["king", "s"], ["ire", "d"], ["wi", "g"], ["t", "emp"], ["water", "s,"], ["t", "ask"], ["below", ","], ["gh", "ost"], ["b", "attle"], ["im", "e,"], ["matter", ","], ["scut", "tle"], ["as", "cri"], ["ev", "inced"], ["horizon", "tal"], ["ct", "av"], ["ha", "il"], ["o", "ar"], ["Can", "all"], ["ber", "g"], ["at", "es,"], ["M", "O"], ["C", "K"], ["ing", "s."], ["gr", "ap"], ["arr", "ow"], ["st", "ir"], ["Ahab", ";"], ["W", "at"], ["T", "r"], ["Whal", "ing"], ["K", "ill"], ["as", "sa"], ["ow", "ard"], ["B", "ul"], ["S", "y"], ["ver", "s"], ["co", "at,"], [".", "_"], ["im", "medi"], ["a", "x"], ["Dut", "ch"], ["st", "at"], ["ish", ","], ["empt", "y"], ["ye", "!"], ["Se", "a"], ["m", "ong"], ["fo", "am"], ["u", "c"], ["\u201c", "_"], ["narr", "ative"], ["A.", "D"], ["O", "ld"], ["whale", ".\u201d"], ["V", "ery"], ["thir", "ty"], ["year", "s,"], ["s", "it"], ["V", "."], ["H", "u"], ["p", "ip"], ["C", "o"], ["fre", "quently"], ["Voy", "age"], ["oil", ","], ["sme", "ll"], ["spec", "ial"], ["import", "ant"], ["J", "oh"], ["j", "un"], ["f", "y"], ["appro", "ach"], ["re", "quire"], ["E", "u"], ["ve", "lo"], ["c", "ity"], ["ele", "ment"], ["inst", "inct"], ["s", "word"], ["obser", "ved"], ["ac", "y"], ["co", "t"], ["p", "air"], ["dest", "roy"], ["eng", "aged"], ["ll", "ed"], ["ast", "on"], ["con", "ven"], ["iz", "e"], ["Com", "mod"], ["Commod", "ore"], ["voy", "ages"], ["look-", "out"], ["vessel", "s"], ["re", "turn"], ["m", "ass"], ["sh", "ot"], ["al", "e,"], ["cl", "aim"], ["when", "ever"], ["re", "ar"], ["pr", "inc"], ["ex", "tre"], ["b", "ree"], ["ag", "u"], ["le", "aves"], ["in", "fall"], ["happ", "en"], ["smo", "ke"], ["reach", "ing"], ["moun", "tain"], ["N", "ar"], ["is", "su"], ["our", "selves"], ["need", "s"], ["ship", "s,"], ["not", "."], ["but", "ter"], ["i", "ally"], ["sail", "or,"], ["sat", "is"], ["ar", "y,"], ["comfor", "table"], ["b", "ri"], ["re", "sid"], ["enc", "y"], ["as", "ed"], ["lo", "d"], ["end", "less"], ["p", "ack"], ["day", "."], ["cra", "ft,"], ["am", "az"], ["mid", "dle"], ["con", "cl"], ["ac", "ed"], ["p", "or"], ["How", "ever,"], ["were", ","], ["marvell", "ous"], ["thr", "ust"], ["sh", "iver"], ["st", "ud"], ["care", "ful"], ["thr", "owing"], ["fair", "ly"], ["own", ","], ["op", "in"], ["shud", "der"], ["remo", "test"], ["se", "ll"], ["try", "ing"], ["susp", "ic"], ["together", ","], ["re", "port"], ["m", "uf"], ["be", "ard"], ["Jonah", ","], ["some", "what"], ["min", "ut"], ["o\u2019", "clo"], ["I\u2019", "m"], ["thought", "s"], ["r", "age"], ["act", "ually"], ["shout", "ed"], ["gu", "ess"], ["tim", "ate"], ["st", "ay"], ["anch", "or"], ["sc", "r"], ["re", "member"], ["sa", "ve"], ["to", "."], ["com", "pl"], ["squ", "are"], ["che", "ek"], ["this", ";"], ["tat", "too"], ["cour", "se"], ["ef", "fect"], ["be", "a"], ["Y", "e"], ["little", ","], ["all", ";"], ["sym", "p"], ["conclud", "ing"], ["giv", "ing"], ["clo", "the"], ["od", "d"], ["il", "t,"], ["g", "ing"], ["ex", "plain"], ["circumst", "ance"], ["ak", "e,"], ["ness", "."], ["dr", "ag"], ["mon", "th"], ["mo", "ve"], ["ne", "ither"], ["command", "ed"], ["pie", "ce"], ["harpoone", "ers,"], ["rop", "ic"], ["slight", "est"], ["f", "old"], ["be", "ef"], ["see", "k"], ["dist", "ing"], ["disting", "u"], ["sh", "ri"], ["wor", "ship"], ["J", "ap"], ["gra", "ve"], ["man", "kind"], ["im", "mortal"], ["fe", "ed"], ["M", "app"], ["sym", "bo"], ["ser", "en"], ["contin", "ual"], ["hither", "to"], ["man", "!"], ["e", "ye,"], ["ap", "prehens"], ["iz", "ing"], ["consc", "ience"], ["ang", "s"], ["R", "oman"], ["ra", "ce"], ["b", "ing"], ["v", "ac"], ["circ", "le"], ["ship", ";"], ["de", "em"], ["in", "v"], ["sh", "ut"], ["whal", "er"], ["in", "ce"], ["int", "ent"], ["\u2014", "for"], ["to", "ken"], ["st", "reng"], ["ro", "ared"], ["re", "ve"], ["up", "."], ["pra", "ir"], ["won", "dr"], ["ull", ","], ["vag", "ue"], ["\u201c", "C"], ["pro", "spect"], ["on", "ed"], ["d", "eter"], ["deter", "min"], ["Quak", "er"], ["d", "\u2019ye"], ["crow", "\u2019s"], ["lif", "e,"], ["pra", "ct"], ["sevent", "y-"], ["e", "!"], ["rap", "id"], ["fr", "antic"], ["c", "ustom"], ["b", "and"], ["Qu", "ohog"], ["Starbuck", "\u2019s"], ["gaz", "ing"], ["sort", "s"], ["ian", ","], ["ent", "s"], ["fl", "ank"], ["kick", "ed"], ["b", "ub"], ["cl", "ass"], ["ion", "al"], ["thing", "."], ["-", "fish"], ["O", "ctav"], ["mast-head", "s"], ["re", "venge"], ["mon", "oman"], ["L", "im"], ["Se", "b"], ["Seb", "ast"], ["any", "where"], ["or", "g"], ["g", "er"], ["E", "T"], ["der", "."], ["sc", "ri"], ["night", "s"], ["C", "e"], ["S", "pe"], ["-", "Head"], ["F", "ed"], ["Fed", "all"], ["Fedall", "ah"], ["out", "."], ["ro", "s"], ["al", "."], ["Whale", "\u2019s"], ["ast", "ed"], ["ir", "g"], ["W", "ill"], ["pro", "ject"], ["d", "om"], ["p", "ale"], ["th", "read"], ["now", "."], ["fl", "ag"], ["mind", "ed"], ["s", "chool"], ["n", "am"], ["ict", "ion"], ["us", "ions"], ["val", "u"], ["thought", ","], ["c", "roo"], ["croo", "ked"], ["mon", "st"], ["monstr", "ous"], ["hor", "se"], ["se", "c"], ["L", "ike"], ["th", "ro"], ["il", "li"], ["b", "es"], ["stre", "am"], ["att", "end"], ["t", "wel"], ["A", "fri"], ["mast", "s"], ["d", "u"], ["bale", "en"], ["mast", "er"], ["fi", "er"], ["obe", "y"], ["itud", "e,"], ["deep", ","], ["comp", "ar"], ["large", "st"], ["sup", "posed"], ["fisher", "men"], ["F", "rench"], ["co", "ast,"], ["cover", "ed"], ["C", "ol"], ["net", "t"], ["H", "ad"], ["\u2019", "d"], ["ac", "ious"], ["i", "er"], ["\u2019t", "is"], ["thre", "w"], ["r", "ain"], ["w", "ish"], ["He", "\u2019s"], ["Sc", "ores"], ["in", "f"], ["enor", "mous"], ["comp", "et"], ["dang", "erous"], ["B", "en"], ["whe", "el"], ["rush", "ed"], ["dire", "ctly"], ["prob", "ably"], ["again", ";"], ["my", "stic"], ["\u201c", "It"], ["ent", "r"], ["per", "pend"], ["perpend", "icular"], ["princ", "ip"], ["is", "to"], ["sur", "round"], ["stre", "ets"], ["ward", "."], ["extre", "me"], ["pe", "ep"], ["f", "ield"], ["yon", "der"], ["Te", "ll"], ["ab", "sent"], ["pl", "ung"], ["sup", "p"], ["ad", "e"], ["he", "al"], ["cra", "z"], ["ian", "s"], ["de", "eper"], ["r", "ag"], ["part", ","], ["s", "cho"], [",", "\u2014"], ["somehow", ","], ["f", "ow"], ["j", "udg"], ["py", "r"], ["pyr", "amid"], ["s", "ense"], ["ke", "en"], ["order", "s"], ["inst", "ance"], ["y", "s"], ["differ", "ence"], ["F", "in"], ["so", "."], ["su", "spect"], ["this", ":"], ["jo", "lly"], ["ce", "ive"], ["h", "ood"], ["can", "o"], ["\u2014", "so"], ["concer", "n"], ["b", "ag"], ["H", "ar"], ["\u2014", "but"], ["ser", "vice"], ["boo", "ts"], ["us", "es"], ["bo", "x"], ["ra", "h"], ["pu", "sh"], ["f", "ac"], ["pul", "p"], ["ch", "urch"], ["sw", "inging"], ["b", "ed."], ["ch", "at"], ["z", "en"], ["fe", "et,"], ["be", "."], ["gl", "ing"], ["w", "arr"], ["g", "ig"], ["gig", "antic"], ["des", "ign"], ["cle", "an"], ["oppos", "ite"], ["world", "\u2019s"], ["may", ","], ["ang", "ed"], ["tell", "ing"], ["in", "\u2019"], ["orn", "ing"], ["sp", "ace"], ["y,", "\u201d"], ["comple", "x"], ["at", "s"], ["years", "\u2019"], ["muf", "fled"], ["be", "ars"], ["az", "z"], ["shad", "ows"], ["ann", "oun"], ["ra", "ised"], ["Bul", "king"], ["seem", "ing"], ["b", "ump"], ["meas", "ure"], ["w", "all,"], ["wh", "ir"], ["St", "ill"], ["f", "fer"], ["y", "es,"], ["ped", "d"], ["eas", "y,"], ["show", "ed"], ["prodig", "ious"], ["ant", ","], ["hammo", "ck"], ["tri", "ed"], ["comm", "only"], ["life", "."], ["Whe", "ther"], ["spo", "ken"], ["employ", "ed"], ["ing", "-"], ["conclud", "ed"], ["pass", "ing"], ["not", "ic"], ["um", "bling"], ["back", "."], ["r", "as"], ["prev", "iously"], ["bis", "cu"], ["suc", "ceed"], ["ac", "co"], ["spr", "ang"], ["now", ";"], ["sc", "atter"], ["Don", "\u2019t"], ["keep", "ing"], ["\u2014", "this"], ["s", "ens"], ["ne", "y,"], ["sub", "sequent"], ["sho", "ck"], ["en", "ced"], ["charac", "ter"], ["ward", "s,"], ["civil", "ized"], ["str", "ain"], ["beg", "ins"], ["ste", "el"], ["break", "fast"], ["cross", "ing"], ["led", "ge"], ["\u2014", "all"], ["_", "that_"], ["peculiar", "ities"], ["ro", "ad"], ["most", "ly"], ["when", "ce"], ["ri", "c"], ["bra", "ve"], ["w", "om"], ["m", "us"], ["mood", "y"], ["re", "ign"], ["coun", "ten"], ["not", "ice"], ["therefore", ","], ["en", "su"], ["eter", "nal"], ["pul", "pit"], ["ent", "ial"], ["jo", "int"], ["gall", "ant"], ["in", "ser"], ["pr", "ow"], ["sum", "ing"], ["chap", "ter"], ["\u2014", "\u2018"], ["us", ";"], ["con", "s"], ["Be", "cause"], ["tou", "ched"], ["ist", "ing"], ["Th", "en,"], ["lin", "e,"], ["tru", "th,"], ["f", "al"], ["le", "vel"], ["suc", "cess"], ["f", "it"], ["He", "aven"], ["like", "wise"], ["dire", "ct"], ["do", ","], ["ye", "."], ["gl", "ad"], ["top", "-"], ["rup", "t"], ["ity", ";"], ["exce", "ll"], ["col", "le"], ["l", "one"], ["jo", "in"], ["no", "se"], ["mere", "ly"], ["cr", "own"], ["ske", "let"], ["pl", "ed"], ["li", "ved"], ["ation", ";"], ["ap", "t"], ["sett", "led"], ["as", "su"], ["ro", "se"], ["c", "ask"], ["bulwark", "s,"], ["W", "as"], ["wondr", "ous"], ["c", "od"], ["impress", "ions"], ["barbar", "ic"], ["wig", "w"], ["main", "-mast"], ["temp", "or"], ["eh", "?"], ["\u2014", "\u201d"], ["i", "ous,"], ["\u2014", "that\u2019s"], ["Peleg", "."], ["vol", "u"], ["seventy-", "seven"], ["\u201c", "Captain"], ["s", "ink"], ["na", "me,"], ["interval", "s"], ["the", "e,"], ["good", "-"], ["d", "ashed"], ["ch", "ange"], ["l", "erable"], [")", ";"], ["re", "mark"], ["ye", ";"], ["gre", "y"], ["down", ";"], ["below", "."], ["wind", "l"], ["spr", "ing,"], ["re", "co"], [",", "00"], ["intel", "li"], ["cour", "age"], ["cr", "it"], ["superstit", "ious"], ["f", "ir"], ["terri", "fic"], ["ad", "ing"], ["King", "-"], ["King-", "Post"], ["Tashtego", ","], ["P", "ip"], ["iven", "ess"], ["popular", "ly"], ["sp", "on"], ["Dough-B", "oy"], ["Flask", "."], ["mark", "ed"], ["exam", "ple"], ["p", "all"], ["S", "le"], ["i", "ac"], ["pull", "ing"], ["stre", "t"], ["terr", "or"], ["snow-", "white"], ["Steelk", "ilt,"], ["Dick", ";"], ["Or", ","], ["includ", "ed"], ["it", "le"], ["H", "er"], ["Sub", "-"], ["b", "arrow"], ["m", "as"], ["A", "d"], ["Ce", "tolog"], ["S", "un"], ["a", "."], ["P", "icture"], ["Tr", "ue"], ["Whal", "es"], ["or", "k"], ["u", "o"], ["g", "ue"], ["irg", "in"], ["l", "ting"], ["p", "ub"], ["pub", "lic"], ["d", "ust"], ["g", "ay"], ["world", "."], ["u", "e,"], ["deli", "ver"], ["S", "w"], ["a", "ul"], ["I", "ce"], ["Span", "ish"], ["E", "E"], ["all", "usions"], ["There", "fore"], ["ct", "s"], ["prep", "ared"], ["sun", "rise"], ["Hist", "ory"], ["yard", "s"], ["be", "ast"], ["bul", "k"], ["ace", "t"], ["w", "ound"], ["M", "an"], ["P", "ar"], ["mo", "ving"], ["come", ";"], ["twel", "ve"], ["r", "im"], ["nor", "th"], ["1", "7"], ["br", "ing"], ["h", "oo"], ["G", "old"], ["Joh", "n"], ["en", "de"], ["ende", "av"], ["fier", "ce"], ["str", "anded"], ["So", "on"], ["L", "on"], ["Lon", "don"], ["l", "angu"], ["pl", "ing"], ["Po", "lar"], ["child", "ren"], ["God", "!"], ["O", "cean"], ["ap", "s"], ["head", ";"], ["curi", "os"], ["conven", "ient"], ["y", "!"], ["light", "ning"], ["lat", "e,"], ["leap", "ing"], ["ation", "al"], ["e", "ch"], ["i", "a,"], ["ind", "ire"], ["an", "ning"], ["E", "x"], ["vicin", "ity"], ["re", "turned"], ["t", "ree"], ["at", "ur"], ["ter", "n"], ["str", "u"], ["i", "ant"], ["m", "oney"], ["br", "inging"], ["me", "th"], ["meth", "od"], ["p", "isto"], ["bulwark", "s"], ["No", "thing"], ["magn", "et"], ["comp", "ass"], ["more", "."], ["p", "her"], ["se", "e,"], ["receiv", "ing"], ["ure", "ly"], ["s", "ick"], ["conf", "ess"], ["ting", "s"], ["creature", "s"], ["sim", "ple"], ["particular", "ly"], ["am", "ount"], ["mean", ","], ["sc", "al"], ["captain", "s"], ["ser", "ved"], ["round", ","], ["other", "\u2019s"], ["belie", "ve"], ["quarter-", "deck"], ["bre", "a"], ["in", "visible"], ["influ", "ences"], ["IS", "H"], ["E", "L"], ["circumst", "ances,"], ["ment", "."], ["whale", ";"], ["hel", "ped"], ["indu", "ce"], ["torment", "ed"], ["ever", "last"], ["g", "es"], ["flo", "ated"], ["pro", "cess"], ["arri", "ved"], ["mean", "while"], ["n", "ay,"], ["dis", "mal"], ["anx", "ious"], ["glo", "om"], ["dark", "ness"], ["low", ","], ["look", ","], ["f", "lying"], ["ash", "es"], ["f", "aint"], ["re", "present"], ["P", "eter"], ["enough", ","], ["ro", "c"], ["wind", "ow"], ["wind", "ow,"], ["pro", "ve"], ["li", "on"], ["p", "ill"], ["sh", "aking"], ["sum", "mer"], ["ser", "v"], ["dr", "ink"], ["ub", "ber"], ["pl", "enty"], ["cent", "re"], ["dri", "ve"], ["su", "bl"], ["mid", "night"], ["mid", "st"], ["con", "ver"], ["ex", "as"], ["exas", "per"], ["he", "a"], ["ix", "ed"], ["l", "ances"], ["ent", "ered"], ["tra", "vell"], ["ch", "im"], ["\u2014", "you"], ["ction", ","], ["cur", "sed"], ["deli", "ri"], ["\u2014", "not"], ["bit", "ter"], ["wor", "king"], ["sum", "mon"], ["me", "al"], ["\u201cL", "and"], ["\u201cLand", "lord"], ["\u201c", "that"], ["a", "fore"], ["sp", "end"], ["no", "ise"], ["agg", "y"], ["ll", "en"], ["ou", "red"], ["pit", "ch"], ["sw", "ore"], ["ship", "mate"], ["descri", "pt"], ["b", "raw"], ["br", "own"], ["seem", "s,"], ["Bulking", "ton"], ["over", "."], ["ho", "le"], ["\u2014", "I"], ["qu", "it"], ["high", "er"], ["d", "ra"], ["aken", "ed"], ["\u201c", "what"], ["bless", "ed"], ["seen", ","], ["conf", "ident"], ["dem", "and"], ["man", ";"], ["S", "al"], ["There", "\u2019s"], ["flo", "or,"], ["plac", "ing"], ["dou", "ble"], ["dis", "appeared"], ["scr", "ut"], ["flo", "or"], ["seam", "an"], ["un", "k"], ["hur", "ry"], ["beg", "inning"], ["p", "ant"], ["infer", "nal"], ["spo", "ke"], ["notic", "ed"], ["sing", "ing"], ["do", "or,"], ["c", "oward"], ["contin", "u"], ["leg", "s"], ["in", "ated"], ["con", "v"], ["in", "side"], ["s", "nat"], ["pol", "ite"], ["in", "cre"], ["o", "per"], ["spe", "ll"], ["com", "preh"], ["\u201c", "Who"], ["kill", "-e"], ["What", "\u2019s"], ["af", "fe"], ["stri", "p"], ["here", "."], ["gre", "ate"], ["greate", "st"], ["super", "natural"], ["p", "iled"], ["as", "ide"], ["leng", "th,"], ["de", "lic"], ["wor", "th"], ["un", "usual"], ["face", "."], ["be", "hold"], ["exceed", "ingly"], ["pr", "oud"], ["quick", "ly"], ["st", "ed"], ["mal", "ice"], ["slight", "ly"], ["t", "ast"], ["wh", "y,"], ["fl", "es"], ["b", "uck"], ["sperm", "aceti"], ["pot", "ent"], ["s", "and"], ["g", "ri"], ["comm", "un"], ["l", "ain"], ["read", "ing"], ["n", "ames"], ["not", ";"], ["d", "ied"], ["scarce", "ly"], ["ic", "ient"], ["Mapp", "le"], ["rop", "e,"], ["seen", "."], ["out", "ward"], ["g", "ang"], ["fl", "ing"], ["end", "ed,"], ["jo", "ined"], ["less", "on"], ["heart", "ed"], ["w", "il"], ["con", "ve"], ["sel", "ves,"], ["see", "king"], ["T", "ars"], ["Tars", "his"], ["find", "s"], ["it", "em"], ["it", "ions"], ["cri", "es"], ["Th", "us"], [",", "\u2019"], ["ra", "cted"], ["feel", "s"], ["v", "ious"], ["ber", "th"], ["d", "y"], ["hide", "ous"], ["itud", "es,"], ["app", "all"], ["cond", "uct"], ["fa", "th"], ["fath", "om"], ["down", ","], ["pl", "um"], ["tre", "ach"], ["g", "ives"], ["chief", "ly"], ["\u2014", "as"], ["en", "er"], ["bo", "om"], ["deem", "ed"], ["lur", "ked"], ["h", "ence"], ["don", "e,"], ["soul", "s"], ["ul", "s"], ["H", "igh"], ["seam", "en,"], ["susp", "ended"], ["home", "."], ["watch", ","], ["harpo", "on,"], ["con", "se"], ["peril", "ous"], ["lung", "s"], ["\u201cL", "ook"], ["form", "."], ["un", "conscious"], ["ab", "s"], ["Nantucket", "er,"], ["lead", "ing"], ["\u201cQueequeg", ",\u201d"], ["f", "ood"], ["book", "s"], ["let", "\u2019s"], ["har", "b"], ["cas", "es"], ["rush", "ing"], ["D", "am"], ["wor", "n"], ["t", "end"], ["st", "out"], ["wind", "ward"], ["do", "st"], ["did", "st"], ["V", "ine"], ["Vine", "yard"], ["ind", "is"], ["say", "ing,"], ["un", "common"], ["a", "ud"], ["b", "ir"], ["bir", "th"], ["sp", "i"], ["insu", "lt"], ["all", "-"], ["G", "ay"], ["know", ","], ["gir", "l"], ["inc", "ident"], ["on", "om"], ["crew", ";"], ["d", "ome"], ["dome", "stic"], ["leg", ","], ["be", ";"], ["long", "er"], ["hat", "ch"], ["v", "ap"], ["Me", "ant"], ["app", "ar"], ["t", "us"], ["stead", "y"], ["remain", "s"], ["bl", "ind"], ["less", "ness"], ["adv", "ance"], ["em", "in"], ["l", "iness"], ["ab", "ound"], [",00", "0"], ["mann", "ed"], ["ap", "ed"], ["har", "bor"], ["o", "es"], ["ial", ","], ["imper", "ial"], ["On", "ly"], ["fir", "m"], ["with", "stand"], ["moun", "t"], ["whales", ";"], ["Daggoo", ","], ["Is", "land"], ["by", ";"], ["(_", "Foli"], ["(_", "Octav"], ["reco", "gn"], ["captain", "\u2019s"], ["l", "oung"], ["crow\u2019s", "-"], ["crow\u2019s-", "nest"], ["whisper", "ed"], ["w", "re"], ["St", "."], ["mad", "ness"], ["uff", "alo"], ["pump", "s"], ["leap", "ed"], ["Lake", "man,"], ["so", "ever"], ["term", "s"], ["D", "an"], ["L", "az"], ["Laz", "ar"], ["ar", "ian"], ["L", "o"], ["C", "hap"], ["el", "."], ["Nantucket", "."], ["Go", "ing"], ["board", "."], ["M", "er"], ["ate", "."], ["scri", "pt"], ["H", "im"], ["M", "id"], ["F", "ore"], ["H", "ark"], ["H", "y"], ["bat", "ros"], ["M", "on"], ["Picture", "s"], ["Whal", "es,"], ["one", ";"], ["B", "r"], ["Stubb", "\u2019s"], ["T", "al"], ["at", "tering"], ["Gre", "at"], ["id", "el"], ["Gr", "and"], ["is", "."], ["ow", "er"], ["l", "es."], ["Th", "under"], ["L", "ife"], ["1", "3"], ["De", "light"], ["b", "in"], ["bod", "y,"], ["immedi", "ately"], ["stre", "et"], ["valu", "able"], ["af", "ford"], ["Leviathan", ","], ["than", "k"], ["spl", "inter"], ["un", "ch"], ["bre", "ed"], ["..", "."], ["_", ".\u201d"], ["cat", "ching"], ["tee", "th,"], ["six", "ty"], ["ud", "ge"], ["prophe", "t"], ["a", "con"], ["\u201c", "T"], ["doub", "t,"], ["thre", "at"], ["ponder", "ous"], ["ret", "ched"], ["bre", "ath"], ["swim", "ming"], ["Ho", "ly"], ["ch", "ance,"], ["flo", "ating"], ["Afri", "ca"], ["nav", "ig"], ["1", "6"], ["we", "ight"], ["g", "ard"], ["P", "h"], ["ab", "und"], ["ll", "o"], ["a", "\u2019s"], ["Americ", "a"], ["p", "et"], ["i", "th,"], ["after", "no"], ["C", "ook"], ["m", "und"], ["crew", "s"], ["sp", "ire"], ["are", ","], ["fif", "teen"], ["im", "men"], ["bo", "re"], ["ro", "aring"], ["o", "log"], ["B", "ar"], ["colour", ","], ["sho", "als"], ["myster", "ious"], ["jaw", ","], ["h", "ook"], ["is", ";"], ["Ar", "ch"], ["set", "ting"], ["wi", "ce"], ["out", ";"], ["st", "age"], ["answer", "ed,"], ["destroy", "ed"], ["18", "2"], ["moon", "light"], ["capt", "ure"], ["dist", "ance"], ["roll", "s"], ["aston", "ishment"], ["com", "mer"], ["Be", "ale"], ["18", "3"], ["bow", ","], ["occur", "red"], ["sur", "viv"], ["f", "uri"], ["E", "re"], ["there", "d"], ["s", "end"], ["he", "ll"], ["order", ","], ["ha", "un"], ["Th", "ese"], ["h", "it"], ["W", "est"], ["pu", "bl"], ["look-out", "s"], ["ex", "pan"], ["P", "ed"], ["ri", "an"], ["occas", "ion"], ["w", "in"], ["claim", "ed"], ["r", "are"], ["unt", "arily"], ["pisto", "l"], ["philoso", "ph"], ["fl", "our"], ["cher", "ish"], ["wav", "es,"], ["Ch", "in"], ["le", "agu"], ["l", "an"], ["ir", "t"], ["ra", "ct"], ["carri", "es"], ["infall", "ibly"], ["med", "it"], ["ac", "o"], ["m", "it"], ["\u2014", "what"], ["ch", "arm"], ["tra", "vel"], ["sad", "ly"], ["craz", "y"], ["my", "st"], ["vi", "br"], ["im", "age"], ["dr", "own"], ["no", ","], ["ab", "and"], ["dist", "in"], ["scho", "on"], ["r", "ous"], ["No", ","], ["forecast", "le,"], ["est", "abl"], ["fam", "ily"], ["a", "we"], ["as", "sure"], ["we", "igh"], ["ange", "l"], ["every", "body"], ["of", "."], ["p", "aid"], ["A", "h"], ["aster", "n"], ["li", "ce"], ["st", "ant"], ["doubt", "less,"], ["id", "ence"], ["bri", "ef"], ["inter", "l"], ["E", "le"], ["V", "O"], ["M", "A"], ["de", "l"], ["port", "ent"], ["sight", "s"], ["everlast", "ing"], ["remo", "te"], ["bid", "den"], ["fl", "ood"], ["conne", "cted"], ["gr", "ad"], ["ar", "th"], ["whalem", "en,"], ["\u2014", "to"], ["is", "k"], ["port", ","], ["stre", "ets,"], ["C", "ross"], ["stop", "ping"], ["tom", "b"], ["quar", "ter"], ["pro", "ved"], ["he", "aring"], ["pre", "ach"], ["mut", "ter"], ["d", "il"], ["dist", "ri"], ["never", "theless,"], ["it", "er"], ["p", "ity"], ["ch", "ip"], ["nor", "thern"], ["ye", "a,"], ["come", "."], ["qu", "ir"], ["warr", "ant"], ["nerv", "ous"], ["bre", "aking"], ["e", ";"], ["pos", "ing"], ["hea", "then"], ["k", "not"], ["sweep", "ing"], ["hor", "ri"], ["harpo", "ons"], ["wild", "ly"], ["tail", ","], ["she", "l"], ["ang", "le"], ["t", "ap"], ["d", "iver"], ["av", "ast"], ["\u201c", "you"], ["bed", ";"], ["st", "oo"], ["d", "um"], ["mann", "er."], ["t", "ion"], ["m", "ixed"], ["ice", "-"], ["ship", "mates"], ["f", "av"], ["strang", "er,"], ["fin", "ite"], ["m", "ult"], ["clo", "th"], ["r", "ough"], ["car", "pent"], ["bus", "in"], ["busin", "ess,"], ["set", "tle"], ["dra", "ught"], ["fet", "ch"], ["ffer", "able"], ["ic", "es"], ["bed", "fellow"], ["com", "prehens"], ["y", "arn"], ["st", "ick"], ["pass", "ion"], ["he", "."], ["ain", ","], ["stor", "ies"], ["confident", "ial"], ["sa", "fe"], ["Z", "e"], ["Ze", "al"], ["Wh", "y,"], ["stair", "s"], ["furn", "ish"], ["ye", ".\u201d"], ["old", "ing"], ["room", ";"], ["f", ","], ["out", "land"], ["fire", "-"], ["to", "re"], ["com", "men"], ["er", "y,"], ["still", ","], ["other", "."], ["tattoo", "ed"], ["ure", "."], ["inde", "pend"], ["pull", "ed"], ["gh", "ast"], ["n", "t"], ["escap", "ed"], ["pal", "m"], ["C", "ong"], ["b", "ab"], ["bl", "az"], ["sc", "or"], ["d", "ry"], ["c", "ere"], ["cere", "mon"], ["symp", "tom"], ["cloud", "s"], ["sa", "ke,"], ["scatter", "ed"], ["pip", "e,"], ["k", "ing,"], ["wi", "fe"], ["l", "ab"], ["together", ";"], ["fort", "un"], ["sun", "-"], ["wr", "apped"], ["close", "ly"], ["N", "ay,"], ["pre", "d"], ["co", "ll"], ["st", "y"], ["jo", "ke"], ["voyage", "."], ["t", "ropic"], ["contr", "asting"], ["wal", "k"], ["sil", "ence"], ["w", "arri"], ["here", ";"], ["n", "ut"], ["M", "ed"], ["ane", "an"], ["whaling", "-"], ["heed", "ed"], ["re", "el"], ["re", "put"], ["Y", "et,"], ["Atlantic", ","], ["Pacific", ","], ["that", "?"], ["ug", "ust"], ["bea", "ut"], ["con", "greg"], ["ref", "use"], ["n", "ation"], ["mat", "ch"], ["cold", ","], ["jack", "et"], ["st", "ubb"], ["sailor", "s,"], ["stead", "fast"], ["t", "s,"], ["R", "E"], ["D", "es"], ["I", "C"], ["side", "ways"], ["acc", "ident"], ["des", "ol"], ["dead", "ly"], ["the", "less"], ["main", "tain"], ["gre", "w"], ["mer", "ry"], ["\u2014", "aye,"], ["st", "ave"], ["suff", "icient"], ["ut", "most"], ["tru", "ly"], ["necess", "ary"], ["gain", "ing"], ["fa", "ith"], ["row", "ed"], ["snow", "y"], ["bow", "s,"], ["B", "ible"], ["clo", "sed"], ["off", "ered"], ["pro", "long"], ["li", "ft"], ["do", "om"], ["open", "ing"], ["God", "."], ["chap", "ters"], ["we", "ed"], ["ob", "ed"], ["obed", "ience"], ["command", "."], ["Tarshis", "h"], ["opin", "ion"], ["wr", "ong"], ["in", "no"], ["g", "ames"], ["li", "ke,"], ["Who", "\u2019s"], ["voice", ","], ["call", "s"], ["ent", "."], ["wr", "itt"], ["dis", "cer"], ["discer", "n"], ["allow", "ed"], ["rest", "ing"], ["ho", "le,"], ["w", "oe"], ["id", "es"], ["friend", "s,"], ["wi", "cked"], ["over", "board"], ["sid", "es"], ["soul", "."], ["oc", "cup"], ["so", "lic"], ["co", "p"], ["ant", "ing"], ["heav", "ed"], ["br", "ow,"], ["o", "int"], ["mis", "s"], ["bon", "es,"], ["W", "oe"], ["b", "ase"], ["J", "udg"], ["sh", "ake"], ["ious", "ness"], ["in", "e,"], ["his", ";"], ["fore", "head"], ["gl", "ance"], ["s", "imp"], ["sing", "ular"], ["tw", "enty"], ["int", "ens"], ["t", "es"], ["hosp", "it"], ["P", "agan"], ["do", "ll"], ["ch", "an"], ["f", "ut"], ["furn", "ished"], ["h", "anging"], ["fam", "ili"], ["famili", "ar"], ["skelet", "on"], ["con", "qu"], ["prev", "ail"], ["ow", "ed"], ["water", "."], ["stern", ","], ["gl", "iding"], ["desper", "ate"], ["d", "a"], ["u", "ated"], ["add", "ed"], ["P", "ot"], ["ignor", "ant"], ["ashore", ","], ["Did", "n\u2019t"], ["form", "s"], ["pre", "ced"], ["streng", "th,"], ["prair", "ie"], ["gr", "own"], ["capt", "ured"], ["world", ";"], ["seas", "ons"], ["sal", "t"], ["mal", "ic"], ["Em", "per"], ["her", "ds"], ["ass", "er"], ["cross", "-"], ["C", "od"], ["pol", "it"], ["it", "es"], ["f", "ast,"], ["ne", "arest"], ["v", "\u2019"], ["fle", "et"], ["whole", ","], ["of", ";"], ["h", "op"], ["in", "es"], ["deck", "s"], ["cent", "ur"], ["her", "ed"], ["l", "oose"], ["al", "i"], ["un", "ched"], ["s", "of"], ["so", ";"], ["ceiv", "ed"], ["agg", "er"], ["will", "ing"], ["origin", "ally"], ["ill", "ed"], ["relig", "ion"], ["pract", "ical"], ["cabin", "-"], ["dr", "ab"], ["ordin", "ate"], ["Bildad", ",\u201d"], ["know", "ledge"], ["import", "ance"], ["event", "ually"], ["seventy-seven", "th"], ["i", "ly,"], ["along", ","], ["T", "urn"], ["\u201c", "Yes,"], ["wonder", "s"], ["\u2019", "T"], ["that", ";"], ["reve", "aled"], ["land", "lad"], ["strang", "e,"], ["stro", "ke"], ["se", "ized"], ["into", "lerable"], ["prob", "ab"], ["here", "after"], ["n", "ur"], ["\u2019", "st"], ["whale-", "boat"], ["ent", "it"], ["entit", "led"], ["relie", "ved"], ["E", "very"], ["cra", "ck"], ["ste", "ward"], ["mind", ","], ["call", "ing"], ["vap", "or"], ["live", "ly"], ["offic", "ers,"], ["mate", "."], ["go", "."], ["for", "get"], ["Stubb", ";"], ["boat", "."], ["e", "en"], ["remark", "able"], ["r", "us"], ["de", "mo"], ["as", "soci"], ["?", "_"], ["sur", "mis"], ["qu", "al"], ["crit", "ical"], ["ble", "m"], ["ac", "le"], ["dis", "ast"], ["person", "ally"], ["af", "fr"], ["ere", "ct"], ["whal", "ers"], ["t", "amb"], ["tamb", "our"], ["tambour", "ine"], ["us", "ive"], ["sub", "tle"], ["calcul", "ated"], ["weather", ","], ["is", "el"], ["t", "le,"], ["plank", "s,"], ["B", "el"], ["aspect", ","], ["b", "inn"], ["f", "ab"], ["ve", "il"], ["ul", "timate"], ["ic", ","], ["sw", "am"], ["First", ":"], ["O", "L"], ["D", "E"], ["Whale", "_;"], ["(_Foli", "o_),"], ["der", "iv"], ["his", "t"], ["hist", "ory"], ["un", "ex"], ["den", "omin"], ["example", ","], ["Nar", "whale"], ["(_Octav", "o_),"], ["D", "uo"], ["Duo", "dec"], ["Duodec", "im"], ["zz", "a"], ["low", "ered"], ["h", "ue"], ["vig", "il"], ["det", "ail"], ["N", "or,"], ["d", "umb"], ["Sle", "et"], ["c", "ad"], ["ren", "ched"], ["de", "mon"], ["me", "!"], ["forecast", "le"], ["horr", "or"], ["T", "U"], ["\u2019", "re"], ["row", "!"], ["cru", "is"], ["mind", "s"], ["rum", "ors"], ["viv", "id"], ["stret", "ched"], ["ly", ":"], ["whit", "eness,"], ["C", "ab"], ["b", "ucket"], ["c", "ash"], ["we", "aving"], ["P", "ull,"], ["Rad", "ney,"], ["ut", "en"], ["B", "ook"], ["re", "stri"], ["co", "py"], ["2", "7"], ["O", "F"], ["B", "Y"], ["(", "S"], ["Sp", "ou"], ["Spou", "ter-"], ["Inn", "."], ["St", "re"], ["N", "ight"], ["i", "o"], ["grap", "h"], ["M", "ark"], ["P", "rop"], ["Christ", "mas"], ["S", "quire"], ["Stubb", "."], ["Que", "en"], ["at", "-"], ["Bo", "at"], ["batros", "s."], ["G", "am"], ["th", ";"], ["M", "ountain"], ["L", "ine."], ["S", "upper"], ["ish", "."], ["Me", "ets"], ["-", "Fish"], ["m", "ber"], ["U", "p"], ["im", "in"], ["sm", "ith"], ["e", "\u2014"], ["D", "ay"], ["Se", "cond"], ["V", "irgin"], ["b", "are"], ["hand", "k"], ["handk", "er"], ["handker", "chief"], ["n", "ations"], ["mild", "ly"], ["\u2014_", "R"], ["Ice", "land"], ["-", "N"], ["F", "e"], ["le", "ast,"], ["h", "ig"], ["stat", "ement"], ["gl", "ancing"], ["includ", "ing"], ["too", ";"], ["te", "ar"], ["G", "ive"], ["pain", "s"], ["er", "ies"], ["glass", "es"], ["cre", "ated"], ["p", "ath"], ["J", "ob"], ["ch", "a"], ["A", "mong"], ["be", "ating"], ["val", "ue"], ["long", "."], ["A.D", "._"], ["where", "as"], ["dread", "ful"], ["swallow", "ed"], ["on", "d"], ["c", "art"], ["qu", "ant"], ["acet", "ti"], ["br", "u"], ["trou", "ble"], ["T", "."], ["B", "row"], ["Brow", "ne"], ["wor", "ks"], ["sleep", "s"], ["land", ";"], ["ill", "s"], ["P", "r"], ["E", "d"], ["t", "ro"], ["ca", "ut"], ["\u201cM", "y"], ["er", "_."], ["G", "lo"], ["att", "ended"], ["s", "en"], ["l", "ph"], ["\u201cI", "f"], ["require", "s"], ["ad", "dress"], ["e", "ff"], ["equ", "al"], ["refer", "ence"], ["consider", "ation"], ["ble", "w"], ["dri", "ven"], ["heaven", "."], ["(_", "A"], ["infer", "ior"], ["marin", "er"], ["seen", ";"], ["w", "ast"], ["fr", "ont"], ["sp", "ir"], ["obser", "ving"], ["spout", "ing"], ["there", "\u2014"], ["point", "ing"], ["bu", "ilt"], ["\u201cNo", ","], ["answ", "ered"], ["T", "om"], ["oo", "per"], ["pap", "ers"], ["view", ","], ["ne", "g"], ["curios", "ity"], ["compet", "ent"], ["w", "it"], ["Beale", "\u2019s"], ["we", "ap"], ["pos", "ition"], ["F", "re"], ["Fre", "der"], ["Freder", "ick"], ["dem", "anded"], ["sir", ".\u201d"], ["ach", "es"], ["bl", "ows"], ["es", "\u2014"], ["in", "y"], ["or", "s."], ["assa", "ult"], ["port", "ion"], ["sto", "ck"], ["A", "no"], ["Ano", "ther"], ["b", "all"], ["indire", "ctly"], ["w", "s"], ["P", "ass"], ["publ", "ished"], ["im", "possible"], ["ren", "ts"], ["blood", "y"], ["sav", "ages"], ["em", "er"], ["\u201c", "On"], ["de", "stru"], ["li", "ves"], ["right", ","], ["bound", "less"], ["shore", ","], ["d", "amp"], ["invol", "untarily"], ["w", "are"], ["deliber", "ately"], ["kno", "cking"], ["sub", "stit"], ["surpr", "ising"], ["cor", "al"], ["bree", "z"], ["land", "."], ["ab", "b"], ["thousand", "s"], ["A", "re"], ["crow", "d"], ["d", "ive"], ["them", "\u2014"], ["we", "st"], ["un", "ite"], ["v", "irt"], ["-", "minded"], ["rom", "antic"], ["want", "ing"], ["po", "et"], ["hand", "ful"], ["myst", "ical"], ["mean", "ing"], ["much", ","], ["ship", "-"], ["fow", "l"], ["\u2014", "though"], ["j", "ud"], ["mast", ","], ["enough", "."], ["boy", "s"], ["th", "ump"], ["pun", "ch"], ["right", ";"], ["earnest", "ly"], ["Ah", "!"], ["forecast", "le."], ["test", "ed"], ["at", "es."], ["N", "G"], ["A", "G"], ["e", "el"], ["re", "call"], ["un", "ning"], ["Ch", "ief"], ["portent", "ous"], ["mar", "vel"], ["P", "at"], ["s", "way"], ["purpose", ","], ["uck", "ed"], ["al", "t"], ["Bedford", ","], ["then", "ce"], ["island", ","], ["age", ";"], ["advent", "ur"], ["part", "ly"], ["e", "at"], ["sound", "ed"], ["go", ","], ["de", "ar"], ["p", "aced"], ["Har", "po"], ["in", "ches"], ["sel", "ess"], ["mis", "erable"], ["t", "ink"], ["cand", "le"], ["H", "a!"], ["pick", "ed"], ["open", "ed"], ["row", "s"], ["black", "ness"], ["for", "l"], ["forl", "orn"], ["pain", "ting"], ["ig", "r"], ["dim", ","], ["stri", "ck"], ["corn", "er,"], ["tempest", "uous"], ["Eu", "roc"], ["Euroc", "ly"], ["Eurocly", "don"], ["house", "."], ["Lazar", "us"], ["e", "ars"], ["O", "ri"], ["gl", "it"], ["vi", "le"], ["mo", "ored"], ["fro", "zen"], ["bl", "ubber"], ["old", "-f"], ["old-f", "ash"], ["old-fash", "ioned"], ["in", "quir"], ["ne", "igh"], ["arri", "ve"], ["con", "found"], ["ast", "."], ["o", "ath"], ["re", "sem"], ["spe", "ar"], ["gr", "ass"], ["sun", "set"], ["fl", "ung"], ["d", "usk"], ["chim", "ney"], ["room", "."], ["cas", "es,"], ["fill", "ed"], ["death", "."], ["de", "ce"], ["s", "\u2019"]], "vocab_list": ["!", "!\u2014", "!\u2019", "!\u201d", "#", "$", "(", "(S", "(_", "(_A", "(_Foli", "(_Folio_),", "(_Octav", "(_Octavo_),", ")", "),", ");", "*", ",", ",00", ",000", ",\u2014", ",\u2019", ",\u201d", "-", "-B", "-Fish", "-Head", "-N", "-b", "-e", "-f", "-fish", "-head", "-like", "-mast", "-minded", "-of", "-of-", "-p", "-st", ".", "..", "...", "._", ".\u2014", ".\u2019", ".\u201d", "0", "0.", "00", "1", "1.", "10", "11", "12", "13", "16", "17", "18", "182", "183", "2", "2.", "27", "3", "3.", "4", "4.", "5", "5.", "6", "6.", "7", "7.", "8", "8.", "9", "9.", ":", ":\u2014", ";", ";\u2014", "?", "?_", "?\u2014", "?\u2019", "?\u201d", "A", "A.", "A.D", "A.D._", "AG", "AL", "AN", "Ad", "Af", "Afri", "Africa", "After", "Ah", "Ah!", "Ahab", "Ahab,", "Ahab.", "Ahab;", "Ahab\u2019s", "Al", "All", "Amer", "Americ", "America", "American", "Among", "An", "And", "And,", "Ano", "Another", "Ar", "Arch", "Are", "As", "At", "Atl", "Atlantic", "Atlantic,", "Aye,", "B", "BOO", "BOOK", "BY", "Bar", "Be", "Beale", "Beale\u2019s", "Because", "Bed", "Bedford", "Bedford,", "Bel", "Ben", "Besid", "Besides,", "Bible", "Bild", "Bildad", "Bildad,", "Bildad,\u201d", "Bl", "Black", "Bo", "Boat", "Book", "Br", "Brow", "Browne", "Bul", "Bulking", "Bulkington", "But", "But,", "By", "C", "CHA", "CHAP", "CHAPTER", "CK", "Cab", "Can", "Canall", "Cap", "Cape", "Captain", "Captain,", "Ce", "Cetolog", "Ch", "Chap", "Char", "Chief", "Chin", "Christ", "Christian", "Christmas", "Co", "Cod", "Coff", "Coffin", "Col", "Com", "Commod", "Commodore", "Con", "Cong", "Cook", "Cross", "Cu", "Cuvi", "D", "DE", "Dagg", "Daggoo", "Daggoo,", "Dam", "Dan", "Day", "De", "Death", "Delight", "Des", "Dick", "Dick.", "Dick;", "Did", "Didn\u2019t", "Do", "Don", "Don\u2019t", "Dough", "Dough-B", "Dough-Boy", "Duo", "Duodec", "Duodecim", "Dut", "Dutch", "E", "EE", "EL", "ET", "Ed", "Egy", "Egypt", "Ele", "Eli", "Elij", "Elijah", "Em", "Emper", "En", "Eng", "Engl", "England", "English", "Ere", "Eu", "Euroc", "Eurocly", "Euroclydon", "Every", "Ex", "F", "Father", "Fe", "Fed", "Fedall", "Fedallah", "Fin", "First", "First:", "Fish", "Fl", "Flask", "Flask,", "Flask.", "Fo", "Foli", "For", "For,", "Fore", "Fre", "Freder", "Frederick", "French", "From", "G", "Gam", "Gay", "Give", "Glo", "Go", "God", "God!", "God,", "God.", "God\u2019s", "Going", "Gold", "Good", "Gr", "Grand", "Gre", "Great", "Green", "Greenland", "H", "HA", "Ha!", "Had", "Har", "Hark", "Harpo", "He", "Head", "Heaven", "Her", "Here", "He\u2019s", "High", "Him", "His", "Hist", "History", "Ho", "Holy", "Horn", "How", "However,", "Hu", "Hus", "Husse", "Hussey", "Hy", "I", "I,", "I.", "IC", "II.", "III.", "IL", "IS", "ISH", "Ice", "Iceland", "If", "In", "Ind", "Indian", "Inn", "Inn.", "Is", "Ish", "Ishma", "Ishmael,", "Island", "It", "It\u2019s", "I\u2019", "I\u2019ll", "I\u2019m", "I\u2019ve", "J", "Jap", "Job", "Joh", "John", "Jon", "Jonah", "Jonah,", "Jonah\u2019s", "Judg", "K", "Kill", "King", "King-", "King-Post", "L", "LE", "Lake", "Lakeman", "Lakeman,", "Laz", "Lazar", "Lazarus", "Le", "Let", "Leviathan", "Leviathan,", "Life", "Like", "Lim", "Line.", "Lo", "Lon", "London", "Look", "Lord", "M", "MA", "MO", "Man", "Mapp", "Mapple", "Mark", "Me", "Mean", "Meant", "Med", "Meets", "Mer", "Mid", "Mo", "Moby", "Mon", "Mountain", "Mr", "Mr.", "Mrs.", "My", "N", "NG", "Nant", "Nantucket", "Nantucket,", "Nantucket.", "Nantucketer,", "Nar", "Narwhale", "Nay,", "Never", "Nevertheless,", "New", "Night", "No", "No,", "Nor", "Nor,", "Not", "Nothing", "Now", "Now,", "O", "OF", "OL", "OO", "OR", "Ocean", "Octav", "Of", "Oh", "Oh!", "Oh,", "Old", "On", "One", "Only", "Or", "Or,", "Ori", "P", "Pac", "Pacific", "Pacific,", "Pagan", "Par", "Pass", "Pat", "Pe", "Ped", "Peleg", "Peleg,", "Peleg.", "Pequ", "Pequod", "Pequod,", "Pequod\u2019s", "Per", "Peter", "Ph", "Picture", "Pictures", "Pip", "Po", "Polar", "Porpoise", "Post", "Pot", "Pr", "Pro", "Prop", "Pull,", "Q", "Qu", "Quak", "Quaker", "Que", "Queen", "Queequ", "Queequeg", "Queequeg,", "Queequeg\u2019s", "Quohog", "R", "RE", "Rad", "Radney", "Radney,", "Ram", "Ramad", "Ramadan", "Re", "Right", "Ro", "Roman", "S", "S.", "SA", "SAIL", "SAILOR", "SAILOR.", "Sal", "Sc", "Scores", "Se", "Sea", "Seb", "Sebast", "Second", "See", "Sh", "She", "Ship", "Sir", "Sle", "Sleet", "So", "So,", "Some", "Soon", "Sou", "South", "Sp", "Span", "Spanish", "Spe", "Sperm", "Spou", "Spouter-", "Squire", "St", "St.", "Stand", "Starb", "Starbuck", "Starbuck,", "Starbuck\u2019s", "Ste", "Steel", "Steelk", "Steelkilt", "Steelkilt,", "Still", "Stre", "Stubb", "Stubb,", "Stubb.", "Stubb;", "Stubb\u2019s", "Sub", "Sub-", "Such", "Sun", "Supper", "Sw", "Sy", "T", "T.", "TA", "TE", "TER", "TH", "THE", "TU", "Take", "Tal", "Tars", "Tarshis", "Tarshish", "Tash", "Tashte", "Tashtego", "Tashtego,", "Te", "Tell", "Th", "That", "That\u2019s", "The", "Then", "Then,", "There", "Therefore", "There\u2019s", "These", "They", "Think", "This", "Thou", "Though", "Thunder", "Thus", "To", "Tom", "Town-", "Town-Ho", "Tr", "True", "Turn", "U", "Un", "Up", "Upon", "V", "V.", "VO", "Very", "Vine", "Vineyard", "Virgin", "Voy", "Voyage", "W", "WHA", "WHALE", "Was", "Wat", "We", "Well", "Well,", "West", "Wh", "Whal", "Whale", "Whale,", "Whale.", "Whale;", "Whale_;", "Whales", "Whales,", "Whale\u2019s", "Whaling", "What", "What\u2019s", "Whe", "When", "Where", "Whether", "While", "White", "Who", "Who\u2019s", "Why", "Why,", "Will", "With", "Woe", "X", "Y", "Ye", "Yes,", "Yet", "Yet,", "Yo", "Yojo", "You", "Z", "Ze", "Zeal", "[", "]", "_", "_)", "_).\u2014", "_,", "_.", "_.)", "_.\u201d", "_;", "_that_", "a", "a!", "a,", "a-", "a.", "ab", "aband", "abb", "abin", "abl", "able", "able,", "able.", "ably", "abo", "aboard", "abound", "about", "about,", "above", "abs", "absent", "abund", "ac", "acc", "accident", "acco", "accord", "according", "accoun", "account", "accountable", "ace", "aced", "acet", "aceti", "acetti", "ach", "ached", "aches", "acing", "acious", "ack", "acle", "aco", "acon", "acqu", "across", "act", "actually", "acy", "ad", "add", "added", "address", "ade", "ading", "adm", "adv", "advance", "advent", "adventur", "af", "affair", "affe", "afford", "affr", "afore", "afr", "afraid", "aft", "after", "afterno", "ag", "again", "again,", "again.", "again;", "against", "agan", "age", "age,", "age;", "aged", "ages", "ages,", "agg", "agged", "agger", "aggy", "ago", "agon", "agu", "ah", "ahaw", "aid", "ail", "aim", "ain", "ain,", "ained", "aint", "ain\u2019t", "air", "air,", "air.", "air;", "ak", "ake", "ake,", "aked", "aken", "akened", "akes", "aking", "al", "al,", "al.", "ale", "ale,", "aled", "ali", "ality", "alive", "all", "all,", "all-", "all.", "all;", "allow", "allowed", "allusions", "ally", "almost", "alo", "aloft", "alone", "along", "along,", "already", "als", "also", "also,", "alt", "alter", "altogether", "always", "am", "am,", "amaz", "amb", "ame", "ament", "ames", "amid", "among", "amount", "amp", "an", "an,", "anc", "ance", "ance,", "ance.", "anced", "ances", "ances,", "anch", "anchor", "ancient", "ancing", "and", "and,", "anded", "ane", "anean", "ang", "ange", "anged", "angel", "anging", "angle", "angs", "angu", "anim", "animal", "ank", "ann", "anning", "announ", "another", "answ", "answer", "answered", "answered,", "ant", "ant,", "anti", "antic", "anting", "antly", "ants", "anx", "anxious", "any", "anything", "anywhere", "ap", "apart", "aped", "app", "appall", "appar", "appe", "appear", "appeared", "apped", "apping", "apprehens", "appro", "approach", "aps", "apt", "aptain", "ar", "ar,", "arb", "arch", "ard", "are", "are,", "ared", "arest", "arian", "arily", "aring", "ark", "arm", "arm,", "armed", "arms", "arn", "around", "arp", "arr", "arri", "arrive", "arrived", "arrow", "ars", "art", "arth", "artic", "ary", "ary,", "as", "as,", "asc", "ascri", "ase", "ased", "ash", "ashed", "ashes", "ashing", "ashore", "ashore,", "aside", "ask", "asked", "ason", "aspect", "aspect,", "ass", "ass,", "assa", "assault", "asser", "associ", "assu", "assure", "ast", "ast,", "ast.", "asted", "aster", "astern", "asting", "aston", "astonishment", "at", "at,", "at-", "at.", "ate", "ate,", "ate.", "ated", "ated,", "ately", "ates", "ates,", "ates.", "ath", "ather", "atic", "ating", "ation", "ation,", "ation.", "ation;", "ational", "ations", "ations,", "ative", "ator", "ats", "att", "attack", "attempt", "attend", "attended", "atter", "attering", "attle", "atur", "ature", "au", "aud", "aught", "aul", "author", "av", "avast", "ave", "aven", "aves", "aving", "aw", "away", "away,", "awe", "awful", "ax", "ay", "ay,", "aye,", "az", "azz", "a\u2019s", "b", "bab", "back", "back,", "back.", "bad", "bag", "bal", "bale", "baleen", "ball", "ban", "band", "bar", "barb", "barbar", "barbaric", "bare", "barrow", "base", "bat", "batros", "batross.", "battle", "be", "be,", "be.", "be;", "bea", "beach", "bear", "beard", "bearing", "bears", "beast", "beat", "beating", "beaut", "became", "because", "become", "bed", "bed,", "bed.", "bed;", "bedfellow", "beef", "been", "before", "beg", "began", "beginning", "begins", "behind", "behold", "being", "bel", "belie", "believe", "bell", "belong", "below", "below,", "below.", "ben", "bench", "bene", "beneath", "ber", "berg", "berth", "bes", "besid", "besides", "best", "bet", "better", "between", "beyon", "beyond", "bid", "bidden", "big", "bill", "bin", "bing", "binn", "bir", "bird", "birth", "bis", "biscu", "bit", "bitter", "bl", "black", "blackness", "blank", "blast", "blaz", "ble", "bled", "blem", "bles", "bless", "blessed", "blew", "blind", "bling", "blo", "blood", "bloody", "blow", "blows", "blubber", "blue", "bo", "board", "board,", "board.", "boat", "boat,", "boat.", "boats", "boats,", "boat\u2019s", "bod", "bodily", "body", "body,", "bold", "bolt", "bon", "bone", "bones", "bones,", "boo", "book", "books", "boom", "boots", "bor", "bore", "born", "bot", "both", "bottom", "bound", "boundless", "bow", "bow,", "bows", "bows,", "box", "boy", "boys", "boys,", "br", "bra", "brain", "brave", "braw", "bre", "brea", "bread", "break", "breakfast", "breaking", "breath", "bree", "breed", "breez", "bri", "brief", "bright", "brim", "bring", "bringing", "bro", "broad", "broken", "brother", "brought", "brow", "brow,", "brown", "bru", "bu", "bub", "buck", "bucket", "built", "bul", "bulk", "bulwark", "bulwarks", "bulwarks,", "bump", "bur", "burn", "burst", "bus", "busin", "business", "business,", "but", "but,", "butter", "by", "by,", "by;", "c", "ca", "cabin", "cabin,", "cabin-", "cabin.", "cad", "cal", "calcul", "calculated", "call", "called", "calling", "calls", "calm", "came", "can", "cand", "candle", "cann", "cannib", "cannibal", "cannot", "cano", "can\u2019t", "cap", "capt", "captain", "captain,", "captains", "captain\u2019s", "capture", "captured", "car", "care", "careful", "carpent", "carri", "carried", "carries", "carry", "cart", "cas", "case", "cases", "cases,", "cash", "cask", "cast", "cat", "catching", "caught", "cause", "caut", "ce", "ce,", "cean", "ced", "ceed", "ceiv", "ceive", "ceived", "cent", "centre", "centur", "cept", "cer", "cere", "ceremon", "certain", "certainly", "ces", "cess", "ch", "ch.", "cha", "chan", "chance", "chance,", "change", "chant", "chap", "chapter", "chapters", "char", "charac", "character", "charm", "chart", "chas", "chase", "chat", "che", "ched", "cheek", "cheer", "cher", "cherish", "ches", "chest", "chief", "chiefly", "child", "children", "chim", "chimney", "ching", "chip", "cho", "chool", "chow", "chowder", "church", "ci", "cial", "cially", "cing", "circ", "circle", "circum", "circumst", "circumstance", "circumstances,", "city", "civ", "civil", "civilized", "ck", "ck,", "ck.", "cked", "cking", "cks", "cl", "claim", "claimed", "clam", "class", "cle", "clean", "clear", "clim", "clo", "close", "closed", "closely", "cloth", "clothe", "cloud", "clouds", "clud", "co", "coast", "coast,", "coat", "coat,", "cod", "col", "cold", "cold,", "coll", "colle", "colour", "colour,", "com", "come", "come.", "come;", "comes", "comfor", "comfortable", "coming", "comm", "command", "command.", "commanded", "commen", "commer", "common", "commonly", "commun", "comp", "compan", "company", "compar", "compass", "compet", "competent", "compl", "comple", "complete", "completely", "complex", "compreh", "comprehens", "comrad", "con", "conce", "concer", "concern", "concerning", "concl", "conclud", "concluded", "concluding", "cond", "conduct", "conf", "confess", "confident", "confidential", "confound", "congreg", "conne", "connected", "conqu", "cons", "consc", "conscience", "conscious", "conse", "consid", "consider", "considerable", "consideration", "considering", "cont", "content", "contin", "continu", "continual", "contr", "contrasting", "conv", "conve", "conven", "convenient", "conver", "cool", "cop", "copy", "cor", "coral", "cord", "corn", "corner,", "corre", "cot", "cou", "could", "coun", "counten", "counter", "country", "cour", "courage", "course", "cover", "covered", "coward", "cr", "cra", "crack", "craft", "craft,", "craz", "crazy", "cre", "created", "creature", "creatures", "cred", "crew", "crew,", "crew.", "crew;", "crews", "cri", "cried", "cries", "crit", "critical", "croo", "crooked", "cross", "cross-", "crossing", "crow", "crowd", "crown", "crow\u2019s", "crow\u2019s-", "crow\u2019s-nest", "cru", "cruis", "cruising", "cry", "ct", "ct,", "ctav", "cted", "ctic", "ction", "ction,", "ctions", "ctly", "cts", "cu", "cul", "cup", "cur", "curi", "curios", "curiosity", "curious", "cursed", "custom", "cut", "cy", "d", "da", "dam", "damp", "dang", "dangerous", "dark", "darkness", "dart", "darted", "dashed", "day", "day,", "day.", "days", "days,", "dden", "de", "dead", "deadly", "deal", "dear", "death", "death.", "dec", "dece", "deck", "deck,", "deck.", "decks", "decl", "ded", "deem", "deemed", "deep", "deep,", "deeper", "degre", "degree", "del", "deli", "deliber", "deliberately", "delic", "delight", "deliri", "deliver", "dem", "demand", "demanded", "demo", "demon", "den", "denomin", "dep", "depart", "der", "der,", "der.", "deriv", "des", "desc", "descri", "descript", "deser", "design", "desire", "desol", "desper", "desperate", "dest", "destroy", "destroyed", "destru", "det", "detail", "deter", "determin", "devil", "di", "did", "didn\u2019t", "didst", "died", "dif", "differ", "difference", "different", "dignity", "dil", "dim", "dim,", "ding", "dinn", "dire", "direct", "directly", "dis", "disappeared", "disast", "discer", "discern", "discover", "dismal", "dist", "distance", "distant", "distin", "distinct", "disting", "distingu", "distri", "div", "dive", "diver", "dle", "do", "do,", "does", "dog", "doll", "dom", "dome", "domestic", "don", "done", "done,", "don\u2019t", "doom", "door", "door,", "dost", "dou", "doub", "double", "doubt", "doubt,", "doubtless,", "down", "down,", "down;", "dr", "dra", "drab", "drag", "draught", "draw", "drawing", "drawn", "dre", "dread", "dreadful", "dream", "dress", "dressed", "drew", "dri", "drink", "drive", "driven", "drop", "dropped", "drown", "dry", "ds", "du", "dum", "dumb", "during", "dusk", "dust", "dut", "duty", "dy", "d\u2019ye", "e", "e!", "e,", "e.", "e;", "each", "eag", "eager", "ear", "earnest", "earnestly", "ears", "earth", "earth,", "earthly", "eas", "easy", "easy,", "eat", "ech", "ed", "ed,", "ed.", "ed;", "eel", "een", "ef", "eff", "effect", "eg", "eh", "eh?", "eight", "either", "ek", "eks", "el", "el,", "el.", "ele", "element", "els", "else", "em", "emb", "embark", "ement", "emer", "emin", "emp", "employ", "employed", "empt", "empty", "en", "en,", "enc", "ence", "ence,", "enced", "ences", "encounter", "ency", "end", "ende", "endeav", "ended", "ended,", "ending", "endless", "ends", "ened", "ener", "eness", "eness,", "eng", "engaged", "ening", "enor", "enormous", "enough", "enough,", "enough.", "ens", "ense", "ensu", "ent", "ent,", "ent.", "enter", "entered", "ential", "entire", "entirely", "entit", "entitled", "ently", "entr", "ents", "enty", "ep", "eper", "equ", "equal", "er", "er,", "er-", "er.", "er;", "er_.", "erable", "ere", "erect", "ered", "erest", "eries", "ering", "erous", "err", "ers", "ers,", "ers.", "ers;", "ery", "ery,", "er\u2019s", "es", "es,", "es.", "es;", "escap", "escaped", "ese", "esid", "espe", "especially", "ess", "ess,", "est", "est,", "establ", "es\u2014", "et", "et,", "et.", "eter", "eternal", "etimes", "ets", "ets,", "ev", "even", "evening", "event", "eventually", "ever", "ever,", "everlast", "everlasting", "every", "everybody", "everything", "evinced", "ew", "ex", "exact", "exactly", "exam", "example", "example,", "exas", "exasper", "exc", "exce", "exceed", "exceedingly", "excell", "except", "exp", "expan", "experi", "explain", "express", "ext", "extra", "extre", "extreme", "ey", "eye", "eye,", "eyeing", "eyes", "eyes,", "e\u2014", "f", "f,", "fa", "fab", "fac", "face", "face,", "face.", "fact", "fact,", "fail", "fain", "faint", "fair", "fairly", "faith", "fal", "fall", "fam", "famili", "familiar", "family", "famous", "fanc", "fancy", "far", "fare", "fash", "fast", "fast,", "fat", "fatal", "fath", "father", "fathom", "fav", "fe", "fear", "feature", "fect", "feed", "feel", "feeling", "feels", "feet", "feet,", "fell", "fellow", "felt", "fer", "fet", "fetch", "few", "ff", "ffer", "fferable", "fi", "fic", "field", "fier", "fierce", "fiery", "fif", "fifteen", "fifty", "fig", "fight", "figure", "fill", "filled", "fin", "final", "finally", "find", "finds", "fine", "fing", "finite", "fir", "fire", "fire-", "firm", "first", "fish", "fish,", "fisher", "fishermen", "fishery", "fishery,", "fit", "five", "fix", "fixed", "fl", "flag", "flank", "fle", "fled", "fleet", "fles", "flew", "fling", "flo", "floated", "floating", "flood", "floor", "floor,", "flour", "flow", "flu", "flung", "flying", "fo", "foam", "fold", "follow", "followed", "following", "food", "fool", "foot", "for", "for,", "forced", "ford", "fore", "forecast", "forecastle", "forecastle,", "forecastle.", "forehead", "forget", "forl", "forlorn", "form", "form.", "formed", "former", "forms", "fort", "forth", "fortun", "forward", "found", "four", "fow", "fowl", "fr", "frantic", "fre", "free", "frequently", "fresh", "fri", "friend", "friends,", "fright", "fro", "from", "front", "frost", "frozen", "ft", "ft,", "ful", "ful,", "full", "fully", "fulness", "fun", "fur", "furi", "furn", "furnish", "furnished", "further", "fut", "fy", "g", "ga", "gain", "gaining", "gale", "gall", "gallant", "games", "gang", "gard", "gave", "gay", "gaz", "gazing", "ge", "ge,", "ged", "gen", "gener", "general", "generally", "gent", "gentle", "gentlemen,", "ger", "ges", "gest", "get", "getting", "gg", "gh", "ghast", "ghost", "ght", "gig", "gigantic", "ging", "gir", "girl", "giv", "give", "given", "gives", "giving", "gl", "glad", "glance", "glancing", "glass", "glasses", "gliding", "gling", "glit", "glo", "gloom", "glory", "gn", "go", "go,", "go.", "god", "goes", "going", "gold", "gone", "good", "good-", "got", "gr", "gra", "grad", "grand", "grap", "graph", "gras", "grass", "grave", "gre", "great", "greate", "greatest", "green", "greg", "grew", "grey", "gri", "grim", "gro", "ground", "grow", "grown", "gu", "gue", "guess", "gul", "gun", "gy", "h", "h,", "ha", "hab", "habit", "had", "hail", "hailed", "hair", "hal", "half", "half-", "ham", "hammer", "hammo", "hammock", "hand", "hand,", "handful", "handk", "handker", "handkerchief", "hands", "hands,", "hanging", "hap", "happ", "happen", "har", "harb", "harbor", "hard", "hardly", "harm", "harpo", "harpoon", "harpoon,", "harpoone", "harpooneer", "harpooneer,", "harpooneers", "harpooneers,", "harpoons", "has", "hast", "hat", "hatch", "haun", "have", "having", "haw", "he", "he,", "he.", "hea", "head", "head,", "head.", "head;", "heads", "heal", "hear", "heard", "hearing", "heart", "heart,", "hearted", "hearts", "heathen", "heav", "heaved", "heaven", "heaven.", "heavy", "heed", "heeded", "height", "hel", "held", "hell", "helm", "help", "helped", "hence", "her", "her,", "herds", "here", "here,", "here.", "here;", "hereafter", "hered", "he\u2019s", "hid", "hidden", "hide", "hideous", "hig", "high", "higher", "hill", "him", "him,", "him.", "him;", "himself", "himself,", "himself.", "hind", "hint", "hinted", "hip", "his", "his,", "his;", "hist", "histor", "history", "hit", "hither", "hitherto", "ho", "hog", "hold", "holding", "hole", "hole,", "hollow", "holy", "hom", "home", "home,", "home.", "hon", "honest", "honor", "hoo", "hood", "hook", "hop", "hope", "hor", "horiz", "horizon", "horizontal", "horn", "horr", "horri", "horror", "horse", "hosp", "hospit", "hot", "hour", "hours", "hous", "house", "house.", "how", "however", "however,", "howling", "hu", "hue", "huge", "hull", "hum", "human", "hump", "hun", "hund", "hundred", "hung", "hunt", "hunted", "hunter", "hunters", "hur", "hurry", "hy", "i", "ia", "ia,", "iac", "ial", "ial,", "ially", "ian", "ian,", "ians", "iant", "ib", "ible", "ibly", "ic", "ic,", "ical", "ically", "ice", "ice-", "ices", "ich", "icient", "ick", "ict", "iction", "icture", "icular", "id", "ide", "idea", "ided", "idel", "idence", "ident", "ides", "iding", "idol", "ie", "ied", "ief", "ield", "ience", "ient", "ier", "ies", "ies,", "ies.", "ies;", "iest", "iet", "iew", "if", "if,", "ife", "iff", "ific", "ified", "iful", "ig", "igh", "ight", "ign", "ignity", "ignor", "ignorant", "igr", "ike", "il", "ilar", "ild", "ile", "iled", "ili", "iling", "ility", "ill", "illed", "illi", "ills", "ilo", "ils", "ilt", "ilt,", "ily", "ily,", "im", "imag", "image", "imagin", "ime", "ime,", "iment", "imes", "imin", "immedi", "immediately", "immen", "immortal", "imp", "imper", "imperial", "import", "importance", "important", "impossible", "impress", "impressions", "in", "in,", "in.", "inated", "inc", "ince", "inced", "inch", "inches", "incident", "incl", "includ", "included", "including", "incre", "inct", "ind", "inde", "indeed", "indeed,", "independ", "indif", "indiffer", "indire", "indirectly", "indis", "indiv", "individ", "individual", "indu", "induce", "ine", "ine,", "ine.", "ined", "ines", "iness", "inf", "infall", "infallibly", "infer", "inferior", "infernal", "influ", "influences", "ing", "ing,", "ing-", "ing.", "ing;", "inging", "ingly", "ings", "ings,", "ings.", "ining", "ink", "inn", "inning", "inno", "inquir", "ins", "inser", "inside", "inst", "instance", "instances", "instant", "instead", "instinct", "insu", "insult", "int", "intel", "intelli", "intens", "intense", "intent", "inter", "interest", "interl", "interval", "intervals", "into", "intolerable", "inv", "invest", "invested", "invisible", "invol", "involuntarily", "iny", "in\u2019", "io", "ion", "ion,", "ion.", "ion;", "ional", "ioned", "ions", "ions,", "ior", "ious", "ious,", "iously", "iousness", "ip", "ir", "irc", "ird", "ire", "ired", "irg", "irgin", "irit", "iron", "irst", "irt", "is", "is,", "is.", "is;", "ise", "ise,", "ised", "isel", "ises", "ish", "ish,", "ish.", "ished", "ishing", "ishment", "ising", "isk", "island", "island,", "ism", "iss", "issu", "ist", "isted", "ister", "isting", "isto", "ists", "it", "it!", "it,", "it.", "it;", "it?", "itable", "itary", "itch", "ite", "ited", "item", "iter", "ites", "ith", "ith,", "ither", "ities", "ities,", "ition", "ition,", "itions", "itive", "itle", "its", "itself", "itself,", "itt", "itted", "itting", "itud", "itude", "itude,", "itudes,", "ity", "ity,", "ity.", "ity;", "it\u2019s", "iv", "ive", "ively", "iven", "iveness", "iver", "ives", "ivory", "ix", "ixed", "iz", "ize", "ized", "izing", "j", "jack", "jacket", "jacket,", "jaw", "jaw,", "jaws", "je", "ject", "jet", "jo", "join", "joined", "joint", "joke", "jolly", "joy", "jud", "judg", "jump", "jun", "just", "k", "k,", "ke", "ke,", "ked", "keen", "keep", "keeping", "ken", "kept", "kes", "key", "kick", "kicked", "kill", "kill-e", "killed", "kin", "kind", "king", "king,", "kings", "kn", "kne", "knew", "knife", "kno", "knocking", "knot", "know", "know,", "knowing", "knowledge", "known", "knows", "ks", "l", "l,", "la", "lab", "lad", "laid", "lain", "lamp", "lan", "lance", "lances", "land", "land,", "land.", "land;", "landed", "landlad", "landlord", "landlord,", "lands", "langu", "lar", "large", "largest", "last", "last,", "lat", "late", "late,", "latitud", "lau", "laugh", "law", "lay", "ld", "le", "le,", "le.", "le;", "lead", "leading", "leagu", "leak", "lean", "leaning", "leap", "leaped", "leaping", "learn", "learned", "least", "least,", "leave", "leaves", "leaving", "lect", "led", "ledge", "lee", "left", "leg", "leg,", "legs", "leng", "length", "length,", "ler", "lerable", "les", "les,", "les.", "less", "less,", "lessly", "lessness", "lesson", "lest", "let", "let\u2019s", "level", "leviathan", "ley", "li", "lic", "lice", "lie", "lied", "lies", "liest", "lif", "life", "life,", "life.", "lift", "lifted", "light", "light,", "lighted", "lightning", "like", "like,", "likewise", "lim", "limb", "lin", "line", "line,", "lines", "liness", "ling", "lion", "lip", "list", "lit", "litt", "little", "little,", "live", "lived", "lively", "lives", "living", "ll", "lled", "llen", "llo", "llow", "lly", "lo", "lock", "lod", "lof", "lofty", "log", "lone", "long", "long,", "long.", "longer", "look", "look,", "look-", "look-out", "look-outs", "looked", "looking", "looks", "loose", "lord", "lost", "loud", "loung", "love", "low", "low,", "lower", "lowered", "lowly", "loy", "lph", "ls", "lt", "lted", "lting", "luck", "lung", "lungs", "lur", "lurked", "ly", "ly,", "ly.", "ly:", "lying", "m", "ma", "mad", "made", "madness", "mag", "magn", "magnet", "main", "main-mast", "maintain", "maj", "majest", "make", "makes", "making", "mal", "malic", "malice", "man", "man!", "man,", "man.", "man;", "mankind", "mann", "manned", "manner", "manner.", "many", "man\u2019s", "mar", "marin", "mariner", "mariners", "mark", "marked", "marvel", "marvell", "marvellous", "mas", "mass", "mast", "mast,", "mast-head", "mast-heads", "master", "masts", "mat", "match", "mate", "mate,", "mate.", "mates", "mates,", "matter", "matter,", "may", "may,", "mber", "me", "me!", "me,", "me.", "me;", "meal", "mean", "mean,", "meaning", "means", "meant", "meanwhile", "meas", "measure", "med", "medi", "medit", "meet", "mem", "member", "memor", "men", "men,", "men.", "men;", "ment", "ment.", "mention", "ments", "mer", "merchant", "mere", "merely", "merry", "met", "meth", "method", "me\u2014", "mid", "middle", "midnight", "midst", "might", "mighty", "mil", "mild", "mildly", "miles", "milk", "min", "mind", "mind,", "minded", "minds", "mine", "ming", "minut", "mis", "miserable", "miss", "mist", "mit", "mixed", "mn", "mo", "mod", "moder", "modern", "mom", "moment", "moment,", "mon", "money", "mong", "monoman", "monst", "monster", "monstr", "monstrous", "month", "mood", "moody", "moon", "moonlight", "moored", "mor", "more", "more,", "more.", "morn", "morning", "morning,", "mort", "mortal", "most", "mostly", "mot", "mother", "motion", "mou", "moun", "mount", "mountain", "mous", "mouth", "mouth,", "move", "moving", "much", "much,", "muf", "muffled", "mult", "mund", "mur", "murder", "mus", "must", "mut", "mutter", "my", "myself", "myself,", "myst", "myster", "mysterious", "mystic", "mystical", "n", "n,", "na", "nal", "nam", "name", "name,", "nameless", "names", "narr", "narrative", "nat", "nation", "nations", "native", "natur", "natural", "naturally", "nature", "naught", "nav", "navig", "nay,", "nd", "ne", "near", "nearest", "nearly", "necess", "necessary", "ned", "need", "needs", "neg", "negro", "neigh", "neither", "ner", "nerv", "nervous", "ness", "ness,", "ness.", "nest", "net", "nett", "never", "nevertheless,", "new", "next", "ney", "ney,", "nigh", "night", "night,", "nights", "ning", "no", "no,", "noble", "noise", "none", "nor", "north", "northern", "nose", "not", "not,", "not.", "not;", "nothing", "notic", "notice", "noticed", "now", "now,", "now.", "now;", "nt", "num", "number", "nur", "nut", "ny", "n\u2019t", "o", "o,", "o_)", "o_),", "oar", "oars", "oath", "ob", "obe", "obed", "obedience", "obey", "object", "obli", "obser", "observed", "observing", "oc", "occas", "occasion", "occup", "occur", "occurred", "ocean", "ocean,", "od", "odd", "oe", "oes", "of", "of,", "of.", "of;", "off", "offered", "offic", "officer", "officers", "officers,", "oft", "often", "oh", "ohog", "oil", "oil,", "oint", "ol", "old", "old-f", "old-fash", "old-fashioned", "olding", "olog", "om", "oman", "ome", "omin", "on", "on,", "on.", "on;", "once", "ond", "one", "one,", "one.", "one;", "oned", "ones", "ones,", "onest", "oney", "ong", "only", "onom", "ons", "ont", "oo", "ood", "ook", "ool", "ooper", "oose", "oot", "op", "open", "opened", "opening", "oper", "opin", "opinion", "ople", "oppos", "opposite", "or", "or,", "or.", "ord", "order", "order,", "orders", "ordin", "ordinary", "ordinate", "ore", "ored", "ores", "org", "orig", "origin", "original", "originally", "ork", "orn", "orning", "orous", "orpo", "orpoise", "ors", "ors,", "ors.", "ort", "ory", "os", "ose", "ost", "ot", "other", "other,", "other.", "others", "otherwise", "other\u2019s", "ou", "oud", "ough", "ought", "ould", "oun", "ound", "oung", "ount", "ountain", "our", "oured", "ourselves", "ous", "ous,", "ouse", "ously", "out", "out,", "out.", "out;", "outer", "outland", "outward", "ove", "over", "over,", "over.", "overboard", "ow", "ow,", "oward", "owed", "ower", "owing", "own", "own,", "own-", "own.", "owners", "ows", "oy", "o\u2019", "o\u2019clo", "p", "pa", "paced", "pack", "pagan", "paid", "pain", "pains", "painting", "pair", "pal", "pale", "pall", "palm", "pan", "pant", "pap", "papers", "par", "part", "part,", "particular", "particularly", "partly", "parts", "pass", "passage", "passed", "passeng", "passing", "passion", "past", "pat", "path", "pay", "pe", "peace", "pect", "pecu", "peculi", "peculiar", "peculiarities", "ped", "pedd", "peep", "pen", "pend", "pent", "people", "per", "perhap", "perhaps", "perhaps,", "peri", "peril", "perilous", "perils", "period", "perm", "perpend", "perpendicular", "pers", "person", "personally", "pest", "pet", "ph", "phan", "phantom", "phe", "pher", "philo", "philoso", "philosoph", "pi", "pick", "picked", "picture", "pictures", "pie", "piece", "pil", "piled", "pill", "pilot", "ping", "pip", "pipe", "pipe,", "pir", "pisto", "pistol", "pit", "pitch", "pity", "pl", "plac", "place", "place,", "placed", "places", "placing", "plain", "plainly", "plan", "plank", "planks,", "plant", "play", "ple", "pleas", "pleasant", "pled", "plenty", "pling", "plum", "plung", "po", "pock", "poet", "point", "pointed", "pointing", "pol", "polit", "polite", "pon", "ponder", "ponderous", "poor", "pop", "popular", "popularly", "por", "port", "port,", "portent", "portentous", "portion", "pos", "pose", "posed", "posing", "position", "poss", "possess", "possible", "possibly", "post", "pot", "potent", "pow", "power", "pr", "pra", "pract", "practical", "prair", "prairie", "pray", "pre", "preach", "pread", "prec", "preced", "precise", "precisely", "pred", "preh", "prehens", "prep", "prepared", "pres", "present", "presented", "preser", "press", "pret", "pretty", "prev", "prevail", "previous", "previously", "pri", "prim", "princ", "princip", "priv", "private", "pro", "prob", "probab", "probably", "proceed", "process", "prod", "prodig", "prodigious", "produ", "prof", "profess", "profound", "project", "prolong", "prom", "proper", "prophe", "prophet", "prospect", "proud", "prov", "prove", "proved", "prow", "ps", "pt", "pu", "pub", "publ", "public", "published", "puff", "pul", "pull", "pull,", "pulled", "pulling", "pulp", "pulpit", "pump", "pumps", "pun", "punch", "pur", "purpose", "purpose,", "pursu", "pursuit", "push", "put", "putting", "py", "pyr", "pyramid", "q", "qu", "qual", "quant", "quar", "quarter", "quarter-", "quarter-deck", "que", "queer", "quent", "quently", "quest", "question", "quick", "quickly", "quiet", "quietly", "quir", "quire", "quit", "quite", "r", "ra", "race", "ract", "racted", "rad", "rag", "rage", "rah", "rain", "raised", "ral", "ran", "rap", "rapid", "rare", "ras", "rather", "raw", "re", "reach", "reaching", "read", "reading", "ready", "real", "really", "rear", "reason", "recall", "receiv", "received", "receiving", "reck", "reco", "recogn", "record", "red", "red,", "ree", "reel", "ref", "refer", "reference", "refuse", "reg", "regard", "regarded", "regular", "regularly", "reign", "rel", "reli", "relie", "relieved", "relig", "religion", "remain", "remained", "remains", "remark", "remarkable", "remember", "remo", "remote", "remotest", "ren", "rench", "renched", "reng", "rents", "rep", "repe", "repeated", "report", "represent", "reput", "require", "requires", "res", "resem", "resid", "resol", "resolved", "respect", "rest", "resting", "restri", "resu", "ret", "retched", "retre", "return", "returned", "reve", "revealed", "revenge", "rever", "ri", "rian", "rib", "ric", "rid", "ried", "rig", "rigg", "right", "right,", "right;", "rim", "ring", "rise", "rising", "rist", "ro", "road", "roared", "roaring", "rob", "roc", "rock", "roll", "rolled", "rolling", "rolls", "rom", "romantic", "roo", "room", "room,", "room.", "room;", "rop", "rope", "rope,", "ropic", "ros", "rose", "ross", "rough", "round", "round,", "rous", "row", "row!", "rowed", "rows", "roy", "royal", "ru", "rum", "rumors", "run", "running", "rup", "rupt", "rus", "rush", "rushed", "rushing", "rust", "ry", "s", "s!", "s,", "s.", "s.\u201d", "s;", "s?", "sa", "sad", "sadly", "safe", "said", "said,", "sail", "sail,", "sailed", "sailing", "sailor", "sailor,", "sailors", "sailors,", "sails", "sake,", "sal", "salt", "same", "sand", "sat", "satis", "sav", "savage", "savages", "save", "saw", "say", "say,", "saying", "saying,", "says", "sc", "scal", "scar", "scarce", "scarcely", "scatter", "scattered", "scen", "scho", "school", "schoon", "scient", "scientific", "scor", "scr", "scre", "scri", "script", "scrut", "scut", "scuttle", "se", "se,", "sea", "sea,", "sea-", "sea.", "sea;", "seam", "seaman", "seamen", "seamen,", "seas", "seas,", "seas.", "seasons", "seated", "sec", "second", "secre", "secret", "sed", "see", "see,", "seeing", "seek", "seeking", "seem", "seemed", "seeming", "seems", "seems,", "seen", "seen,", "seen.", "seen;", "seized", "sel", "seld", "seldom", "seless", "self", "self-", "sell", "selves", "selves,", "sem", "sen", "send", "sens", "sense", "sent", "separ", "separate", "sequent", "ser", "seren", "serv", "served", "service", "ses", "set", "set,", "sett", "setting", "settle", "settled", "seven", "sevent", "seventy-", "seventy-seven", "seventy-seventh", "sever", "several", "sh", "shad", "shadow", "shadows", "shake", "shaking", "shall", "shap", "shark", "sharp", "she", "shel", "ship", "ship,", "ship-", "ship.", "ship;", "shipmate", "shipmates", "shipmates,", "shipped", "ships", "ships,", "ship\u2019s", "shir", "shiver", "sho", "shoals", "shock", "shore", "shore,", "short", "short,", "shot", "should", "shout", "shouted", "show", "showed", "shr", "shri", "shroud", "shud", "shudder", "shut", "sick", "sid", "side", "side,", "sides", "sideways", "sight", "sights", "sign", "signific", "sil", "silence", "silent", "silver", "sim", "similar", "simp", "simple", "sin", "since", "sing", "singing", "single", "singular", "sink", "sir", "sir,", "sir.\u201d", "sit", "sitting", "six", "sixty", "sk", "ske", "skelet", "skeleton", "sky", "sl", "sle", "sleep", "sleeper", "sleeping", "sleeps", "slight", "slightest", "slightly", "slip", "slowly", "sm", "small", "sme", "smell", "smith", "smo", "smoke", "smoking", "sn", "snat", "snow", "snow-", "snow-white", "snowy", "snug", "so", "so,", "so.", "so;", "soci", "social", "soever", "sof", "soft", "sol", "sole", "solemn", "solic", "solitary", "som", "some", "somehow", "somehow,", "something", "sometimes", "somewhat", "somewhere", "son", "soon", "sor", "sort", "sorts", "sou", "sought", "soul", "soul,", "soul.", "souls", "sound", "sounded", "sp", "space", "spare", "spe", "speak", "speaking", "spear", "spec", "special", "species", "spect", "spell", "spend", "sperm", "spermaceti", "spi", "spir", "spire", "spirit", "spiritual", "spite", "spl", "splinter", "spo", "spoke", "spoken", "spon", "sport", "spot", "spout", "spouting", "spr", "sprang", "spread", "spring", "spring,", "squ", "squall", "square", "ss", "ssed", "st", "stage", "stair", "stairs", "stand", "standing", "stands", "stant", "star", "start", "started", "stat", "state", "statement", "stave", "stay", "ste", "stead", "steadfast", "steady", "sted", "steel", "stem", "step", "ster", "stern", "stern,", "steward", "stic", "stick", "stiff", "still", "still,", "stir", "stit", "sto", "stock", "stone", "stoo", "stood", "stop", "stopping", "stor", "stories", "storm", "story", "stout", "stove", "str", "stra", "straight", "strain", "stranded", "strang", "strange", "strange,", "strangely", "stranger", "stranger,", "stre", "stream", "street", "streets", "streets,", "streng", "strength,", "stret", "stretched", "stri", "strick", "strike", "striking", "strip", "stro", "stroke", "strong", "stru", "struck", "stubb", "stud", "stuff", "sty", "su", "sub", "subject", "subl", "subsequent", "subst", "substit", "subtle", "suc", "succeed", "success", "such", "sudden", "suddenly", "suff", "sufficient", "sum", "suming", "summer", "summon", "sun", "sun-", "sunrise", "sunset", "sup", "super", "superior", "supernatural", "superstit", "superstitious", "supp", "supper", "suppose", "supposed", "sur", "sure", "surmis", "surpr", "surprising", "surround", "surviv", "susp", "suspect", "suspended", "suspic", "sw", "swallow", "swallowed", "swam", "sway", "swe", "sweep", "sweeping", "sweet", "swell", "swi", "swift", "swim", "swimming", "swinging", "sword", "swore", "swung", "sy", "sym", "symbo", "symp", "symptom", "system", "s\u2014", "s\u2019", "t", "t,", "t.", "table", "table,", "tail", "tail,", "tain", "tained", "taining", "take", "taken", "takes", "taking", "tal", "talk", "tall", "tamb", "tambour", "tambourine", "tap", "tar", "task", "tast", "tat", "tattoo", "tattooed", "te", "tear", "ted", "tee", "teen", "teeth", "teeth,", "tel", "tell", "telling", "tem", "temp", "tempest", "tempestuous", "tempor", "ten", "tend", "ter", "ter,", "ter-", "tering", "term", "terms", "tern", "terr", "terri", "terrible", "terrific", "terror", "terrors", "ters", "tes", "test", "tested", "th", "th,", "th;", "than", "thank", "that", "that,", "that.", "that;", "that?", "that_", "that\u2019s", "the", "thed", "thee", "thee,", "their", "theless", "theless,", "them", "them,", "them.", "them;", "themselves", "them\u2014", "then", "then,", "then.", "thence", "ther", "there", "there!", "there,", "there.", "there;", "thereby", "thered", "therefore", "therefore,", "there\u2014", "there\u2019s", "thern", "these", "these,", "they", "thick", "thing", "thing,", "thing.", "things", "things,", "think", "thinking", "thinks", "thir", "third", "thirty", "this", "this,", "this:", "this;", "thor", "those", "thou", "though", "though,", "thought", "thought,", "thoughts", "thous", "thousand", "thousands", "thr", "thre", "thread", "threat", "three", "threw", "thro", "through", "throw", "throwing", "thrown", "thrust", "thump", "thunder", "thus", "thy", "ti", "tic", "tid", "till", "tim", "timate", "time", "time,", "time.", "times", "times,", "ting", "tings", "tink", "tion", "tle", "tle,", "to", "to,", "to-", "to.", "toge", "together", "together,", "together;", "token", "told", "tolog", "tom", "tomahaw", "tomahawk", "tomb", "ton", "too", "too,", "too;", "took", "top", "top-", "tor", "tore", "torment", "tormented", "torn", "tossed", "tou", "touch", "touched", "touching", "tow", "towards", "town", "tr", "tra", "trad", "tran", "trans", "travel", "travell", "tre", "treach", "tree", "trem", "tri", "tried", "tro", "tropic", "trou", "trouble", "troubled", "tru", "true", "truly", "truth", "truth,", "try", "trying", "ts", "ts,", "tum", "tur", "turn", "turned", "turning", "turns", "tus", "tw", "twel", "twelve", "twenty", "two", "ty", "u", "ual", "ually", "uated", "ub", "ubb", "ubber", "uc", "uch", "uck", "ucked", "ucket", "uct", "ud", "ude", "udg", "udge", "ue", "ue,", "uf", "uff", "uffalo", "ug", "ught", "ugust", "ul", "ular", "ull", "ull,", "ulous", "uls", "ult", "ultimate", "um", "umb", "umbling", "ump", "un", "unaccountable", "unch", "unched", "uncommon", "unconscious", "und", "under", "understand", "unex", "ung", "unite", "univer", "unk", "unknown", "unless", "unning", "unt", "untarily", "unusual", "uo", "uous", "up", "up,", "up.", "upon", "upper", "ur", "urch", "ure", "ure,", "ure.", "ured", "urely", "ures", "uri", "uring", "urn", "us", "us,", "us.", "us;", "use", "used", "uses", "using", "usion", "usions", "usive", "usk", "ust", "ustom", "usu", "usual", "ut", "ute", "uten", "utmost", "utter", "utterly", "v", "vac", "vag", "vague", "vain", "val", "valu", "valuable", "value", "vap", "vapor", "var", "various", "vast", "ve", "ved", "veil", "vel", "vell", "velo", "ven", "venge", "vent", "ver", "vers", "very", "ves", "ves,", "vessel", "vessels", "vest", "vi", "via", "viathan", "vibr", "vic", "vice", "vicin", "vicinity", "view", "view,", "vig", "vigil", "vil", "vile", "vill", "ving", "viol", "vious", "virt", "vis", "visible", "visit", "vit", "viv", "vivid", "vo", "voc", "voice", "voice,", "vol", "volu", "voy", "voyage", "voyage,", "voyage.", "voyages", "v\u2019", "w", "wa", "waist", "wake", "wal", "walk", "wall", "wall,", "want", "wanting", "war", "ward", "ward,", "ward.", "wards", "wards,", "ware", "wark", "warm", "warr", "warrant", "warri", "was", "was,", "wash", "wast", "wat", "watch", "watch,", "water", "water,", "water.", "waters", "waters,", "watery", "wav", "waves", "waves,", "way", "way,", "way.", "ways", "ways,", "we", "weap", "wear", "weather", "weather,", "weaving", "wed", "weed", "ween", "weigh", "weight", "wel", "well", "well,", "went", "were", "were,", "west", "wh", "whal", "whale", "whale,", "whale-", "whale-boat", "whale-ship", "whale.", "whale.\u201d", "whale;", "whalem", "whaleman", "whalemen", "whalemen,", "whaler", "whalers", "whales", "whales,", "whales.", "whales;", "whale\u2019s", "whaling", "whaling,", "whaling-", "whar", "wharf", "what", "whatever", "what\u2019s", "whe", "wheel", "when", "when,", "whence", "whenever", "where", "whereas", "whether", "whi", "which", "which,", "while", "while,", "whir", "whis", "whisper", "whispered", "whit", "white", "whiteness", "whiteness,", "who", "who,", "whole", "whole,", "wholly", "whom", "whose", "why", "why,", "wi", "wice", "wicked", "wid", "wide", "wife", "wig", "wigw", "wil", "wild", "wildly", "will", "will,", "willing", "win", "wind", "windl", "window", "window,", "winds", "windward", "winter", "wise", "wish", "wit", "with", "within", "without", "withstand", "wo", "woe", "wom", "won", "wonder", "wonders", "wondr", "wondrous", "won\u2019t", "wood", "wooden", "wor", "word", "word,", "words", "work", "working", "works", "world", "world,", "world.", "world;", "world\u2019s", "worn", "worse", "worship", "worth", "worthy", "would", "wound", "wr", "wrapped", "wre", "wrink", "wrinkled", "writt", "wrong", "ws", "x", "xt", "y", "y!", "y,", "y,\u201d", "y-", "y.", "y;", "yard", "yards", "yarn", "ye", "ye!", "ye,", "ye.", "ye.\u201d", "ye;", "ye?", "yea,", "year", "years", "years,", "years\u2019", "yellow", "yes,", "yet", "yet,", "yield", "ying", "yon", "yonder", "you", "you,", "young", "your", "yourself", "ys", "z", "ze", "zen", "zz", "zza", "\u00a3", "\u00e6", "\u00e8", "\u00e9", "\u0152", "\u0153", "\u03b7", "\u03bf", "\u03c2", "\u03c4", "\u03f0", "\u05d5", "\u05d7", "\u2014", "\u2014I", "\u2014_", "\u2014_R", "\u2014a", "\u2014all", "\u2014and", "\u2014as", "\u2014aye,", "\u2014but", "\u2014for", "\u2014he", "\u2014not", "\u2014so", "\u2014that", "\u2014that\u2019s", "\u2014the", "\u2014this", "\u2014though", "\u2014to", "\u2014what", "\u2014you", "\u2014\u2018", "\u2014\u201c", "\u2014\u201d", "\u2018", "\u2019", "\u2019T", "\u2019d", "\u2019em", "\u2019ll", "\u2019re", "\u2019s", "\u2019s,", "\u2019st", "\u2019t", "\u2019tis", "\u2019ye", "\u201c", "\u201cA", "\u201cAnd", "\u201cAye,", "\u201cBut", "\u201cC", "\u201cCaptain", "\u201cD", "\u201cH", "\u201cHe", "\u201cI", "\u201cIf", "\u201cIn", "\u201cIt", "\u201cL", "\u201cLand", "\u201cLandlord", "\u201cLook", "\u201cM", "\u201cMy", "\u201cNo", "\u201cNo,", "\u201cOn", "\u201cQueequeg", "\u201cQueequeg,\u201d", "\u201cS", "\u201cT", "\u201cThe", "\u201cThere", "\u201cWhat", "\u201cWho", "\u201cYes,", "\u201c_", "\u201cthat", "\u201cwhat", "\u201cyou", "\u201c\u2018", "\u201d"], "token_to_id": {"!": 0, "!\u2014": 1, "!\u2019": 2, "!\u201d": 3, "#": 4, "$": 5, "(": 6, "(S": 7, "(_": 8, "(_A": 9, "(_Foli": 10, "(_Folio_),": 11, "(_Octav": 12, "(_Octavo_),": 13, ")": 14, "),": 15, ");": 16, "*": 17, ",": 18, ",00": 19, ",000": 20, ",\u2014": 21, ",\u2019": 22, ",\u201d": 23, "-": 24, "-B": 25, "-Fish": 26, "-Head": 27, "-N": 28, "-b": 29, "-e": 30, "-f": 31, "-fish": 32, "-head": 33, "-like": 34, "-mast": 35, "-minded": 36, "-of": 37, "-of-": 38, "-p": 39, "-st": 40, ".": 41, "..": 42, "...": 43, "._": 44, ".\u2014": 45, ".\u2019": 46, ".\u201d": 47, "0": 48, "0.": 49, "00": 50, "1": 51, "1.": 52, "10": 53, "11": 54, "12": 55, "13": 56, "16": 57, "17": 58, "18": 59, "182": 60, "183": 61, "2": 62, "2.": 63, "27": 64, "3": 65, "3.": 66, "4": 67, "4.": 68, "5": 69, "5.": 70, "6": 71, "6.": 72, "7": 73, "7.": 74, "8": 75, "8.": 76, "9": 77, "9.": 78, ":": 79, ":\u2014": 80, ";": 81, ";\u2014": 82, "?": 83, "?_": 84, "?\u2014": 85, "?\u2019": 86, "?\u201d": 87, "A": 88, "A.": 89, "A.D": 90, "A.D._": 91, "AG": 92, "AL": 93, "AN": 94, "Ad": 95, "Af": 96, "Afri": 97, "Africa": 98, "After": 99, "Ah": 100, "Ah!": 101, "Ahab": 102, "Ahab,": 103, "Ahab.": 104, "Ahab;": 105, "Ahab\u2019s": 106, "Al": 107, "All": 108, "Amer": 109, "Americ": 110, "America": 111, "American": 112, "Among": 113, "An": 114, "And": 115, "And,": 116, "Ano": 117, "Another": 118, "Ar": 119, "Arch": 120, "Are": 121, "As": 122, "At": 123, "Atl": 124, "Atlantic": 125, "Atlantic,": 126, "Aye,": 127, "B": 128, "BOO": 129, "BOOK": 130, "BY": 131, "Bar": 132, "Be": 133, "Beale": 134, "Beale\u2019s": 135, "Because": 136, "Bed": 137, "Bedford": 138, "Bedford,": 139, "Bel": 140, "Ben": 141, "Besid": 142, "Besides,": 143, "Bible": 144, "Bild": 145, "Bildad": 146, "Bildad,": 147, "Bildad,\u201d": 148, "Bl": 149, "Black": 150, "Bo": 151, "Boat": 152, "Book": 153, "Br": 154, "Brow": 155, "Browne": 156, "Bul": 157, "Bulking": 158, "Bulkington": 159, "But": 160, "But,": 161, "By": 162, "C": 163, "CHA": 164, "CHAP": 165, "CHAPTER": 166, "CK": 167, "Cab": 168, "Can": 169, "Canall": 170, "Cap": 171, "Cape": 172, "Captain": 173, "Captain,": 174, "Ce": 175, "Cetolog": 176, "Ch": 177, "Chap": 178, "Char": 179, "Chief": 180, "Chin": 181, "Christ": 182, "Christian": 183, "Christmas": 184, "Co": 185, "Cod": 186, "Coff": 187, "Coffin": 188, "Col": 189, "Com": 190, "Commod": 191, "Commodore": 192, "Con": 193, "Cong": 194, "Cook": 195, "Cross": 196, "Cu": 197, "Cuvi": 198, "D": 199, "DE": 200, "Dagg": 201, "Daggoo": 202, "Daggoo,": 203, "Dam": 204, "Dan": 205, "Day": 206, "De": 207, "Death": 208, "Delight": 209, "Des": 210, "Dick": 211, "Dick.": 212, "Dick;": 213, "Did": 214, "Didn\u2019t": 215, "Do": 216, "Don": 217, "Don\u2019t": 218, "Dough": 219, "Dough-B": 220, "Dough-Boy": 221, "Duo": 222, "Duodec": 223, "Duodecim": 224, "Dut": 225, "Dutch": 226, "E": 227, "EE": 228, "EL": 229, "ET": 230, "Ed": 231, "Egy": 232, "Egypt": 233, "Ele": 234, "Eli": 235, "Elij": 236, "Elijah": 237, "Em": 238, "Emper": 239, "En": 240, "Eng": 241, "Engl": 242, "England": 243, "English": 244, "Ere": 245, "Eu": 246, "Euroc": 247, "Eurocly": 248, "Euroclydon": 249, "Every": 250, "Ex": 251, "F": 252, "Father": 253, "Fe": 254, "Fed": 255, "Fedall": 256, "Fedallah": 257, "Fin": 258, "First": 259, "First:": 260, "Fish": 261, "Fl": 262, "Flask": 263, "Flask,": 264, "Flask.": 265, "Fo": 266, "Foli": 267, "For": 268, "For,": 269, "Fore": 270, "Fre": 271, "Freder": 272, "Frederick": 273, "French": 274, "From": 275, "G": 276, "Gam": 277, "Gay": 278, "Give": 279, "Glo": 280, "Go": 281, "God": 282, "God!": 283, "God,": 284, "God.": 285, "God\u2019s": 286, "Going": 287, "Gold": 288, "Good": 289, "Gr": 290, "Grand": 291, "Gre": 292, "Great": 293, "Green": 294, "Greenland": 295, "H": 296, "HA": 297, "Ha!": 298, "Had": 299, "Har": 300, "Hark": 301, "Harpo": 302, "He": 303, "Head": 304, "Heaven": 305, "Her": 306, "Here": 307, "He\u2019s": 308, "High": 309, "Him": 310, "His": 311, "Hist": 312, "History": 313, "Ho": 314, "Holy": 315, "Horn": 316, "How": 317, "However,": 318, "Hu": 319, "Hus": 320, "Husse": 321, "Hussey": 322, "Hy": 323, "I": 324, "I,": 325, "I.": 326, "IC": 327, "II.": 328, "III.": 329, "IL": 330, "IS": 331, "ISH": 332, "Ice": 333, "Iceland": 334, "If": 335, "In": 336, "Ind": 337, "Indian": 338, "Inn": 339, "Inn.": 340, "Is": 341, "Ish": 342, "Ishma": 343, "Ishmael,": 344, "Island": 345, "It": 346, "It\u2019s": 347, "I\u2019": 348, "I\u2019ll": 349, "I\u2019m": 350, "I\u2019ve": 351, "J": 352, "Jap": 353, "Job": 354, "Joh": 355, "John": 356, "Jon": 357, "Jonah": 358, "Jonah,": 359, "Jonah\u2019s": 360, "Judg": 361, "K": 362, "Kill": 363, "King": 364, "King-": 365, "King-Post": 366, "L": 367, "LE": 368, "Lake": 369, "Lakeman": 370, "Lakeman,": 371, "Laz": 372, "Lazar": 373, "Lazarus": 374, "Le": 375, "Let": 376, "Leviathan": 377, "Leviathan,": 378, "Life": 379, "Like": 380, "Lim": 381, "Line.": 382, "Lo": 383, "Lon": 384, "London": 385, "Look": 386, "Lord": 387, "M": 388, "MA": 389, "MO": 390, "Man": 391, "Mapp": 392, "Mapple": 393, "Mark": 394, "Me": 395, "Mean": 396, "Meant": 397, "Med": 398, "Meets": 399, "Mer": 400, "Mid": 401, "Mo": 402, "Moby": 403, "Mon": 404, "Mountain": 405, "Mr": 406, "Mr.": 407, "Mrs.": 408, "My": 409, "N": 410, "NG": 411, "Nant": 412, "Nantucket": 413, "Nantucket,": 414, "Nantucket.": 415, "Nantucketer,": 416, "Nar": 417, "Narwhale": 418, "Nay,": 419, "Never": 420, "Nevertheless,": 421, "New": 422, "Night": 423, "No": 424, "No,": 425, "Nor": 426, "Nor,": 427, "Not": 428, "Nothing": 429, "Now": 430, "Now,": 431, "O": 432, "OF": 433, "OL": 434, "OO": 435, "OR": 436, "Ocean": 437, "Octav": 438, "Of": 439, "Oh": 440, "Oh!": 441, "Oh,": 442, "Old": 443, "On": 444, "One": 445, "Only": 446, "Or": 447, "Or,": 448, "Ori": 449, "P": 450, "Pac": 451, "Pacific": 452, "Pacific,": 453, "Pagan": 454, "Par": 455, "Pass": 456, "Pat": 457, "Pe": 458, "Ped": 459, "Peleg": 460, "Peleg,": 461, "Peleg.": 462, "Pequ": 463, "Pequod": 464, "Pequod,": 465, "Pequod\u2019s": 466, "Per": 467, "Peter": 468, "Ph": 469, "Picture": 470, "Pictures": 471, "Pip": 472, "Po": 473, "Polar": 474, "Porpoise": 475, "Post": 476, "Pot": 477, "Pr": 478, "Pro": 479, "Prop": 480, "Pull,": 481, "Q": 482, "Qu": 483, "Quak": 484, "Quaker": 485, "Que": 486, "Queen": 487, "Queequ": 488, "Queequeg": 489, "Queequeg,": 490, "Queequeg\u2019s": 491, "Quohog": 492, "R": 493, "RE": 494, "Rad": 495, "Radney": 496, "Radney,": 497, "Ram": 498, "Ramad": 499, "Ramadan": 500, "Re": 501, "Right": 502, "Ro": 503, "Roman": 504, "S": 505, "S.": 506, "SA": 507, "SAIL": 508, "SAILOR": 509, "SAILOR.": 510, "Sal": 511, "Sc": 512, "Scores": 513, "Se": 514, "Sea": 515, "Seb": 516, "Sebast": 517, "Second": 518, "See": 519, "Sh": 520, "She": 521, "Ship": 522, "Sir": 523, "Sle": 524, "Sleet": 525, "So": 526, "So,": 527, "Some": 528, "Soon": 529, "Sou": 530, "South": 531, "Sp": 532, "Span": 533, "Spanish": 534, "Spe": 535, "Sperm": 536, "Spou": 537, "Spouter-": 538, "Squire": 539, "St": 540, "St.": 541, "Stand": 542, "Starb": 543, "Starbuck": 544, "Starbuck,": 545, "Starbuck\u2019s": 546, "Ste": 547, "Steel": 548, "Steelk": 549, "Steelkilt": 550, "Steelkilt,": 551, "Still": 552, "Stre": 553, "Stubb": 554, "Stubb,": 555, "Stubb.": 556, "Stubb;": 557, "Stubb\u2019s": 558, "Sub": 559, "Sub-": 560, "Such": 561, "Sun": 562, "Supper": 563, "Sw": 564, "Sy": 565, "T": 566, "T.": 567, "TA": 568, "TE": 569, "TER": 570, "TH": 571, "THE": 572, "TU": 573, "Take": 574, "Tal": 575, "Tars": 576, "Tarshis": 577, "Tarshish": 578, "Tash": 579, "Tashte": 580, "Tashtego": 581, "Tashtego,": 582, "Te": 583, "Tell": 584, "Th": 585, "That": 586, "That\u2019s": 587, "The": 588, "Then": 589, "Then,": 590, "There": 591, "Therefore": 592, "There\u2019s": 593, "These": 594, "They": 595, "Think": 596, "This": 597, "Thou": 598, "Though": 599, "Thunder": 600, "Thus": 601, "To": 602, "Tom": 603, "Town-": 604, "Town-Ho": 605, "Tr": 606, "True": 607, "Turn": 608, "U": 609, "Un": 610, "Up": 611, "Upon": 612, "V": 613, "V.": 614, "VO": 615, "Very": 616, "Vine": 617, "Vineyard": 618, "Virgin": 619, "Voy": 620, "Voyage": 621, "W": 622, "WHA": 623, "WHALE": 624, "Was": 625, "Wat": 626, "We": 627, "Well": 628, "Well,": 629, "West": 630, "Wh": 631, "Whal": 632, "Whale": 633, "Whale,": 634, "Whale.": 635, "Whale;": 636, "Whale_;": 637, "Whales": 638, "Whales,": 639, "Whale\u2019s": 640, "Whaling": 641, "What": 642, "What\u2019s": 643, "Whe": 644, "When": 645, "Where": 646, "Whether": 647, "While": 648, "White": 649, "Who": 650, "Who\u2019s": 651, "Why": 652, "Why,": 653, "Will": 654, "With": 655, "Woe": 656, "X": 657, "Y": 658, "Ye": 659, "Yes,": 660, "Yet": 661, "Yet,": 662, "Yo": 663, "Yojo": 664, "You": 665, "Z": 666, "Ze": 667, "Zeal": 668, "[": 669, "]": 670, "_": 671, "_)": 672, "_).\u2014": 673, "_,": 674, "_.": 675, "_.)": 676, "_.\u201d": 677, "_;": 678, "_that_": 679, "a": 680, "a!": 681, "a,": 682, "a-": 683, "a.": 684, "ab": 685, "aband": 686, "abb": 687, "abin": 688, "abl": 689, "able": 690, "able,": 691, "able.": 692, "ably": 693, "abo": 694, "aboard": 695, "abound": 696, "about": 697, "about,": 698, "above": 699, "abs": 700, "absent": 701, "abund": 702, "ac": 703, "acc": 704, "accident": 705, "acco": 706, "accord": 707, "according": 708, "accoun": 709, "account": 710, "accountable": 711, "ace": 712, "aced": 713, "acet": 714, "aceti": 715, "acetti": 716, "ach": 717, "ached": 718, "aches": 719, "acing": 720, "acious": 721, "ack": 722, "acle": 723, "aco": 724, "acon": 725, "acqu": 726, "across": 727, "act": 728, "actually": 729, "acy": 730, "ad": 731, "add": 732, "added": 733, "address": 734, "ade": 735, "ading": 736, "adm": 737, "adv": 738, "advance": 739, "advent": 740, "adventur": 741, "af": 742, "affair": 743, "affe": 744, "afford": 745, "affr": 746, "afore": 747, "afr": 748, "afraid": 749, "aft": 750, "after": 751, "afterno": 752, "ag": 753, "again": 754, "again,": 755, "again.": 756, "again;": 757, "against": 758, "agan": 759, "age": 760, "age,": 761, "age;": 762, "aged": 763, "ages": 764, "ages,": 765, "agg": 766, "agged": 767, "agger": 768, "aggy": 769, "ago": 770, "agon": 771, "agu": 772, "ah": 773, "ahaw": 774, "aid": 775, "ail": 776, "aim": 777, "ain": 778, "ain,": 779, "ained": 780, "aint": 781, "ain\u2019t": 782, "air": 783, "air,": 784, "air.": 785, "air;": 786, "ak": 787, "ake": 788, "ake,": 789, "aked": 790, "aken": 791, "akened": 792, "akes": 793, "aking": 794, "al": 795, "al,": 796, "al.": 797, "ale": 798, "ale,": 799, "aled": 800, "ali": 801, "ality": 802, "alive": 803, "all": 804, "all,": 805, "all-": 806, "all.": 807, "all;": 808, "allow": 809, "allowed": 810, "allusions": 811, "ally": 812, "almost": 813, "alo": 814, "aloft": 815, "alone": 816, "along": 817, "along,": 818, "already": 819, "als": 820, "also": 821, "also,": 822, "alt": 823, "alter": 824, "altogether": 825, "always": 826, "am": 827, "am,": 828, "amaz": 829, "amb": 830, "ame": 831, "ament": 832, "ames": 833, "amid": 834, "among": 835, "amount": 836, "amp": 837, "an": 838, "an,": 839, "anc": 840, "ance": 841, "ance,": 842, "ance.": 843, "anced": 844, "ances": 845, "ances,": 846, "anch": 847, "anchor": 848, "ancient": 849, "ancing": 850, "and": 851, "and,": 852, "anded": 853, "ane": 854, "anean": 855, "ang": 856, "ange": 857, "anged": 858, "angel": 859, "anging": 860, "angle": 861, "angs": 862, "angu": 863, "anim": 864, "animal": 865, "ank": 866, "ann": 867, "anning": 868, "announ": 869, "another": 870, "answ": 871, "answer": 872, "answered": 873, "answered,": 874, "ant": 875, "ant,": 876, "anti": 877, "antic": 878, "anting": 879, "antly": 880, "ants": 881, "anx": 882, "anxious": 883, "any": 884, "anything": 885, "anywhere": 886, "ap": 887, "apart": 888, "aped": 889, "app": 890, "appall": 891, "appar": 892, "appe": 893, "appear": 894, "appeared": 895, "apped": 896, "apping": 897, "apprehens": 898, "appro": 899, "approach": 900, "aps": 901, "apt": 902, "aptain": 903, "ar": 904, "ar,": 905, "arb": 906, "arch": 907, "ard": 908, "are": 909, "are,": 910, "ared": 911, "arest": 912, "arian": 913, "arily": 914, "aring": 915, "ark": 916, "arm": 917, "arm,": 918, "armed": 919, "arms": 920, "arn": 921, "around": 922, "arp": 923, "arr": 924, "arri": 925, "arrive": 926, "arrived": 927, "arrow": 928, "ars": 929, "art": 930, "arth": 931, "artic": 932, "ary": 933, "ary,": 934, "as": 935, "as,": 936, "asc": 937, "ascri": 938, "ase": 939, "ased": 940, "ash": 941, "ashed": 942, "ashes": 943, "ashing": 944, "ashore": 945, "ashore,": 946, "aside": 947, "ask": 948, "asked": 949, "ason": 950, "aspect": 951, "aspect,": 952, "ass": 953, "ass,": 954, "assa": 955, "assault": 956, "asser": 957, "associ": 958, "assu": 959, "assure": 960, "ast": 961, "ast,": 962, "ast.": 963, "asted": 964, "aster": 965, "astern": 966, "asting": 967, "aston": 968, "astonishment": 969, "at": 970, "at,": 971, "at-": 972, "at.": 973, "ate": 974, "ate,": 975, "ate.": 976, "ated": 977, "ated,": 978, "ately": 979, "ates": 980, "ates,": 981, "ates.": 982, "ath": 983, "ather": 984, "atic": 985, "ating": 986, "ation": 987, "ation,": 988, "ation.": 989, "ation;": 990, "ational": 991, "ations": 992, "ations,": 993, "ative": 994, "ator": 995, "ats": 996, "att": 997, "attack": 998, "attempt": 999, "attend": 1000, "attended": 1001, "atter": 1002, "attering": 1003, "attle": 1004, "atur": 1005, "ature": 1006, "au": 1007, "aud": 1008, "aught": 1009, "aul": 1010, "author": 1011, "av": 1012, "avast": 1013, "ave": 1014, "aven": 1015, "aves": 1016, "aving": 1017, "aw": 1018, "away": 1019, "away,": 1020, "awe": 1021, "awful": 1022, "ax": 1023, "ay": 1024, "ay,": 1025, "aye,": 1026, "az": 1027, "azz": 1028, "a\u2019s": 1029, "b": 1030, "bab": 1031, "back": 1032, "back,": 1033, "back.": 1034, "bad": 1035, "bag": 1036, "bal": 1037, "bale": 1038, "baleen": 1039, "ball": 1040, "ban": 1041, "band": 1042, "bar": 1043, "barb": 1044, "barbar": 1045, "barbaric": 1046, "bare": 1047, "barrow": 1048, "base": 1049, "bat": 1050, "batros": 1051, "batross.": 1052, "battle": 1053, "be": 1054, "be,": 1055, "be.": 1056, "be;": 1057, "bea": 1058, "beach": 1059, "bear": 1060, "beard": 1061, "bearing": 1062, "bears": 1063, "beast": 1064, "beat": 1065, "beating": 1066, "beaut": 1067, "became": 1068, "because": 1069, "become": 1070, "bed": 1071, "bed,": 1072, "bed.": 1073, "bed;": 1074, "bedfellow": 1075, "beef": 1076, "been": 1077, "before": 1078, "beg": 1079, "began": 1080, "beginning": 1081, "begins": 1082, "behind": 1083, "behold": 1084, "being": 1085, "bel": 1086, "belie": 1087, "believe": 1088, "bell": 1089, "belong": 1090, "below": 1091, "below,": 1092, "below.": 1093, "ben": 1094, "bench": 1095, "bene": 1096, "beneath": 1097, "ber": 1098, "berg": 1099, "berth": 1100, "bes": 1101, "besid": 1102, "besides": 1103, "best": 1104, "bet": 1105, "better": 1106, "between": 1107, "beyon": 1108, "beyond": 1109, "bid": 1110, "bidden": 1111, "big": 1112, "bill": 1113, "bin": 1114, "bing": 1115, "binn": 1116, "bir": 1117, "bird": 1118, "birth": 1119, "bis": 1120, "biscu": 1121, "bit": 1122, "bitter": 1123, "bl": 1124, "black": 1125, "blackness": 1126, "blank": 1127, "blast": 1128, "blaz": 1129, "ble": 1130, "bled": 1131, "blem": 1132, "bles": 1133, "bless": 1134, "blessed": 1135, "blew": 1136, "blind": 1137, "bling": 1138, "blo": 1139, "blood": 1140, "bloody": 1141, "blow": 1142, "blows": 1143, "blubber": 1144, "blue": 1145, "bo": 1146, "board": 1147, "board,": 1148, "board.": 1149, "boat": 1150, "boat,": 1151, "boat.": 1152, "boats": 1153, "boats,": 1154, "boat\u2019s": 1155, "bod": 1156, "bodily": 1157, "body": 1158, "body,": 1159, "bold": 1160, "bolt": 1161, "bon": 1162, "bone": 1163, "bones": 1164, "bones,": 1165, "boo": 1166, "book": 1167, "books": 1168, "boom": 1169, "boots": 1170, "bor": 1171, "bore": 1172, "born": 1173, "bot": 1174, "both": 1175, "bottom": 1176, "bound": 1177, "boundless": 1178, "bow": 1179, "bow,": 1180, "bows": 1181, "bows,": 1182, "box": 1183, "boy": 1184, "boys": 1185, "boys,": 1186, "br": 1187, "bra": 1188, "brain": 1189, "brave": 1190, "braw": 1191, "bre": 1192, "brea": 1193, "bread": 1194, "break": 1195, "breakfast": 1196, "breaking": 1197, "breath": 1198, "bree": 1199, "breed": 1200, "breez": 1201, "bri": 1202, "brief": 1203, "bright": 1204, "brim": 1205, "bring": 1206, "bringing": 1207, "bro": 1208, "broad": 1209, "broken": 1210, "brother": 1211, "brought": 1212, "brow": 1213, "brow,": 1214, "brown": 1215, "bru": 1216, "bu": 1217, "bub": 1218, "buck": 1219, "bucket": 1220, "built": 1221, "bul": 1222, "bulk": 1223, "bulwark": 1224, "bulwarks": 1225, "bulwarks,": 1226, "bump": 1227, "bur": 1228, "burn": 1229, "burst": 1230, "bus": 1231, "busin": 1232, "business": 1233, "business,": 1234, "but": 1235, "but,": 1236, "butter": 1237, "by": 1238, "by,": 1239, "by;": 1240, "c": 1241, "ca": 1242, "cabin": 1243, "cabin,": 1244, "cabin-": 1245, "cabin.": 1246, "cad": 1247, "cal": 1248, "calcul": 1249, "calculated": 1250, "call": 1251, "called": 1252, "calling": 1253, "calls": 1254, "calm": 1255, "came": 1256, "can": 1257, "cand": 1258, "candle": 1259, "cann": 1260, "cannib": 1261, "cannibal": 1262, "cannot": 1263, "cano": 1264, "can\u2019t": 1265, "cap": 1266, "capt": 1267, "captain": 1268, "captain,": 1269, "captains": 1270, "captain\u2019s": 1271, "capture": 1272, "captured": 1273, "car": 1274, "care": 1275, "careful": 1276, "carpent": 1277, "carri": 1278, "carried": 1279, "carries": 1280, "carry": 1281, "cart": 1282, "cas": 1283, "case": 1284, "cases": 1285, "cases,": 1286, "cash": 1287, "cask": 1288, "cast": 1289, "cat": 1290, "catching": 1291, "caught": 1292, "cause": 1293, "caut": 1294, "ce": 1295, "ce,": 1296, "cean": 1297, "ced": 1298, "ceed": 1299, "ceiv": 1300, "ceive": 1301, "ceived": 1302, "cent": 1303, "centre": 1304, "centur": 1305, "cept": 1306, "cer": 1307, "cere": 1308, "ceremon": 1309, "certain": 1310, "certainly": 1311, "ces": 1312, "cess": 1313, "ch": 1314, "ch.": 1315, "cha": 1316, "chan": 1317, "chance": 1318, "chance,": 1319, "change": 1320, "chant": 1321, "chap": 1322, "chapter": 1323, "chapters": 1324, "char": 1325, "charac": 1326, "character": 1327, "charm": 1328, "chart": 1329, "chas": 1330, "chase": 1331, "chat": 1332, "che": 1333, "ched": 1334, "cheek": 1335, "cheer": 1336, "cher": 1337, "cherish": 1338, "ches": 1339, "chest": 1340, "chief": 1341, "chiefly": 1342, "child": 1343, "children": 1344, "chim": 1345, "chimney": 1346, "ching": 1347, "chip": 1348, "cho": 1349, "chool": 1350, "chow": 1351, "chowder": 1352, "church": 1353, "ci": 1354, "cial": 1355, "cially": 1356, "cing": 1357, "circ": 1358, "circle": 1359, "circum": 1360, "circumst": 1361, "circumstance": 1362, "circumstances,": 1363, "city": 1364, "civ": 1365, "civil": 1366, "civilized": 1367, "ck": 1368, "ck,": 1369, "ck.": 1370, "cked": 1371, "cking": 1372, "cks": 1373, "cl": 1374, "claim": 1375, "claimed": 1376, "clam": 1377, "class": 1378, "cle": 1379, "clean": 1380, "clear": 1381, "clim": 1382, "clo": 1383, "close": 1384, "closed": 1385, "closely": 1386, "cloth": 1387, "clothe": 1388, "cloud": 1389, "clouds": 1390, "clud": 1391, "co": 1392, "coast": 1393, "coast,": 1394, "coat": 1395, "coat,": 1396, "cod": 1397, "col": 1398, "cold": 1399, "cold,": 1400, "coll": 1401, "colle": 1402, "colour": 1403, "colour,": 1404, "com": 1405, "come": 1406, "come.": 1407, "come;": 1408, "comes": 1409, "comfor": 1410, "comfortable": 1411, "coming": 1412, "comm": 1413, "command": 1414, "command.": 1415, "commanded": 1416, "commen": 1417, "commer": 1418, "common": 1419, "commonly": 1420, "commun": 1421, "comp": 1422, "compan": 1423, "company": 1424, "compar": 1425, "compass": 1426, "compet": 1427, "competent": 1428, "compl": 1429, "comple": 1430, "complete": 1431, "completely": 1432, "complex": 1433, "compreh": 1434, "comprehens": 1435, "comrad": 1436, "con": 1437, "conce": 1438, "concer": 1439, "concern": 1440, "concerning": 1441, "concl": 1442, "conclud": 1443, "concluded": 1444, "concluding": 1445, "cond": 1446, "conduct": 1447, "conf": 1448, "confess": 1449, "confident": 1450, "confidential": 1451, "confound": 1452, "congreg": 1453, "conne": 1454, "connected": 1455, "conqu": 1456, "cons": 1457, "consc": 1458, "conscience": 1459, "conscious": 1460, "conse": 1461, "consid": 1462, "consider": 1463, "considerable": 1464, "consideration": 1465, "considering": 1466, "cont": 1467, "content": 1468, "contin": 1469, "continu": 1470, "continual": 1471, "contr": 1472, "contrasting": 1473, "conv": 1474, "conve": 1475, "conven": 1476, "convenient": 1477, "conver": 1478, "cool": 1479, "cop": 1480, "copy": 1481, "cor": 1482, "coral": 1483, "cord": 1484, "corn": 1485, "corner,": 1486, "corre": 1487, "cot": 1488, "cou": 1489, "could": 1490, "coun": 1491, "counten": 1492, "counter": 1493, "country": 1494, "cour": 1495, "courage": 1496, "course": 1497, "cover": 1498, "covered": 1499, "coward": 1500, "cr": 1501, "cra": 1502, "crack": 1503, "craft": 1504, "craft,": 1505, "craz": 1506, "crazy": 1507, "cre": 1508, "created": 1509, "creature": 1510, "creatures": 1511, "cred": 1512, "crew": 1513, "crew,": 1514, "crew.": 1515, "crew;": 1516, "crews": 1517, "cri": 1518, "cried": 1519, "cries": 1520, "crit": 1521, "critical": 1522, "croo": 1523, "crooked": 1524, "cross": 1525, "cross-": 1526, "crossing": 1527, "crow": 1528, "crowd": 1529, "crown": 1530, "crow\u2019s": 1531, "crow\u2019s-": 1532, "crow\u2019s-nest": 1533, "cru": 1534, "cruis": 1535, "cruising": 1536, "cry": 1537, "ct": 1538, "ct,": 1539, "ctav": 1540, "cted": 1541, "ctic": 1542, "ction": 1543, "ction,": 1544, "ctions": 1545, "ctly": 1546, "cts": 1547, "cu": 1548, "cul": 1549, "cup": 1550, "cur": 1551, "curi": 1552, "curios": 1553, "curiosity": 1554, "curious": 1555, "cursed": 1556, "custom": 1557, "cut": 1558, "cy": 1559, "d": 1560, "da": 1561, "dam": 1562, "damp": 1563, "dang": 1564, "dangerous": 1565, "dark": 1566, "darkness": 1567, "dart": 1568, "darted": 1569, "dashed": 1570, "day": 1571, "day,": 1572, "day.": 1573, "days": 1574, "days,": 1575, "dden": 1576, "de": 1577, "dead": 1578, "deadly": 1579, "deal": 1580, "dear": 1581, "death": 1582, "death.": 1583, "dec": 1584, "dece": 1585, "deck": 1586, "deck,": 1587, "deck.": 1588, "decks": 1589, "decl": 1590, "ded": 1591, "deem": 1592, "deemed": 1593, "deep": 1594, "deep,": 1595, "deeper": 1596, "degre": 1597, "degree": 1598, "del": 1599, "deli": 1600, "deliber": 1601, "deliberately": 1602, "delic": 1603, "delight": 1604, "deliri": 1605, "deliver": 1606, "dem": 1607, "demand": 1608, "demanded": 1609, "demo": 1610, "demon": 1611, "den": 1612, "denomin": 1613, "dep": 1614, "depart": 1615, "der": 1616, "der,": 1617, "der.": 1618, "deriv": 1619, "des": 1620, "desc": 1621, "descri": 1622, "descript": 1623, "deser": 1624, "design": 1625, "desire": 1626, "desol": 1627, "desper": 1628, "desperate": 1629, "dest": 1630, "destroy": 1631, "destroyed": 1632, "destru": 1633, "det": 1634, "detail": 1635, "deter": 1636, "determin": 1637, "devil": 1638, "di": 1639, "did": 1640, "didn\u2019t": 1641, "didst": 1642, "died": 1643, "dif": 1644, "differ": 1645, "difference": 1646, "different": 1647, "dignity": 1648, "dil": 1649, "dim": 1650, "dim,": 1651, "ding": 1652, "dinn": 1653, "dire": 1654, "direct": 1655, "directly": 1656, "dis": 1657, "disappeared": 1658, "disast": 1659, "discer": 1660, "discern": 1661, "discover": 1662, "dismal": 1663, "dist": 1664, "distance": 1665, "distant": 1666, "distin": 1667, "distinct": 1668, "disting": 1669, "distingu": 1670, "distri": 1671, "div": 1672, "dive": 1673, "diver": 1674, "dle": 1675, "do": 1676, "do,": 1677, "does": 1678, "dog": 1679, "doll": 1680, "dom": 1681, "dome": 1682, "domestic": 1683, "don": 1684, "done": 1685, "done,": 1686, "don\u2019t": 1687, "doom": 1688, "door": 1689, "door,": 1690, "dost": 1691, "dou": 1692, "doub": 1693, "double": 1694, "doubt": 1695, "doubt,": 1696, "doubtless,": 1697, "down": 1698, "down,": 1699, "down;": 1700, "dr": 1701, "dra": 1702, "drab": 1703, "drag": 1704, "draught": 1705, "draw": 1706, "drawing": 1707, "drawn": 1708, "dre": 1709, "dread": 1710, "dreadful": 1711, "dream": 1712, "dress": 1713, "dressed": 1714, "drew": 1715, "dri": 1716, "drink": 1717, "drive": 1718, "driven": 1719, "drop": 1720, "dropped": 1721, "drown": 1722, "dry": 1723, "ds": 1724, "du": 1725, "dum": 1726, "dumb": 1727, "during": 1728, "dusk": 1729, "dust": 1730, "dut": 1731, "duty": 1732, "dy": 1733, "d\u2019ye": 1734, "e": 1735, "e!": 1736, "e,": 1737, "e.": 1738, "e;": 1739, "each": 1740, "eag": 1741, "eager": 1742, "ear": 1743, "earnest": 1744, "earnestly": 1745, "ears": 1746, "earth": 1747, "earth,": 1748, "earthly": 1749, "eas": 1750, "easy": 1751, "easy,": 1752, "eat": 1753, "ech": 1754, "ed": 1755, "ed,": 1756, "ed.": 1757, "ed;": 1758, "eel": 1759, "een": 1760, "ef": 1761, "eff": 1762, "effect": 1763, "eg": 1764, "eh": 1765, "eh?": 1766, "eight": 1767, "either": 1768, "ek": 1769, "eks": 1770, "el": 1771, "el,": 1772, "el.": 1773, "ele": 1774, "element": 1775, "els": 1776, "else": 1777, "em": 1778, "emb": 1779, "embark": 1780, "ement": 1781, "emer": 1782, "emin": 1783, "emp": 1784, "employ": 1785, "employed": 1786, "empt": 1787, "empty": 1788, "en": 1789, "en,": 1790, "enc": 1791, "ence": 1792, "ence,": 1793, "enced": 1794, "ences": 1795, "encounter": 1796, "ency": 1797, "end": 1798, "ende": 1799, "endeav": 1800, "ended": 1801, "ended,": 1802, "ending": 1803, "endless": 1804, "ends": 1805, "ened": 1806, "ener": 1807, "eness": 1808, "eness,": 1809, "eng": 1810, "engaged": 1811, "ening": 1812, "enor": 1813, "enormous": 1814, "enough": 1815, "enough,": 1816, "enough.": 1817, "ens": 1818, "ense": 1819, "ensu": 1820, "ent": 1821, "ent,": 1822, "ent.": 1823, "enter": 1824, "entered": 1825, "ential": 1826, "entire": 1827, "entirely": 1828, "entit": 1829, "entitled": 1830, "ently": 1831, "entr": 1832, "ents": 1833, "enty": 1834, "ep": 1835, "eper": 1836, "equ": 1837, "equal": 1838, "er": 1839, "er,": 1840, "er-": 1841, "er.": 1842, "er;": 1843, "er_.": 1844, "erable": 1845, "ere": 1846, "erect": 1847, "ered": 1848, "erest": 1849, "eries": 1850, "ering": 1851, "erous": 1852, "err": 1853, "ers": 1854, "ers,": 1855, "ers.": 1856, "ers;": 1857, "ery": 1858, "ery,": 1859, "er\u2019s": 1860, "es": 1861, "es,": 1862, "es.": 1863, "es;": 1864, "escap": 1865, "escaped": 1866, "ese": 1867, "esid": 1868, "espe": 1869, "especially": 1870, "ess": 1871, "ess,": 1872, "est": 1873, "est,": 1874, "establ": 1875, "es\u2014": 1876, "et": 1877, "et,": 1878, "et.": 1879, "eter": 1880, "eternal": 1881, "etimes": 1882, "ets": 1883, "ets,": 1884, "ev": 1885, "even": 1886, "evening": 1887, "event": 1888, "eventually": 1889, "ever": 1890, "ever,": 1891, "everlast": 1892, "everlasting": 1893, "every": 1894, "everybody": 1895, "everything": 1896, "evinced": 1897, "ew": 1898, "ex": 1899, "exact": 1900, "exactly": 1901, "exam": 1902, "example": 1903, "example,": 1904, "exas": 1905, "exasper": 1906, "exc": 1907, "exce": 1908, "exceed": 1909, "exceedingly": 1910, "excell": 1911, "except": 1912, "exp": 1913, "expan": 1914, "experi": 1915, "explain": 1916, "express": 1917, "ext": 1918, "extra": 1919, "extre": 1920, "extreme": 1921, "ey": 1922, "eye": 1923, "eye,": 1924, "eyeing": 1925, "eyes": 1926, "eyes,": 1927, "e\u2014": 1928, "f": 1929, "f,": 1930, "fa": 1931, "fab": 1932, "fac": 1933, "face": 1934, "face,": 1935, "face.": 1936, "fact": 1937, "fact,": 1938, "fail": 1939, "fain": 1940, "faint": 1941, "fair": 1942, "fairly": 1943, "faith": 1944, "fal": 1945, "fall": 1946, "fam": 1947, "famili": 1948, "familiar": 1949, "family": 1950, "famous": 1951, "fanc": 1952, "fancy": 1953, "far": 1954, "fare": 1955, "fash": 1956, "fast": 1957, "fast,": 1958, "fat": 1959, "fatal": 1960, "fath": 1961, "father": 1962, "fathom": 1963, "fav": 1964, "fe": 1965, "fear": 1966, "feature": 1967, "fect": 1968, "feed": 1969, "feel": 1970, "feeling": 1971, "feels": 1972, "feet": 1973, "feet,": 1974, "fell": 1975, "fellow": 1976, "felt": 1977, "fer": 1978, "fet": 1979, "fetch": 1980, "few": 1981, "ff": 1982, "ffer": 1983, "fferable": 1984, "fi": 1985, "fic": 1986, "field": 1987, "fier": 1988, "fierce": 1989, "fiery": 1990, "fif": 1991, "fifteen": 1992, "fifty": 1993, "fig": 1994, "fight": 1995, "figure": 1996, "fill": 1997, "filled": 1998, "fin": 1999, "final": 2000, "finally": 2001, "find": 2002, "finds": 2003, "fine": 2004, "fing": 2005, "finite": 2006, "fir": 2007, "fire": 2008, "fire-": 2009, "firm": 2010, "first": 2011, "fish": 2012, "fish,": 2013, "fisher": 2014, "fishermen": 2015, "fishery": 2016, "fishery,": 2017, "fit": 2018, "five": 2019, "fix": 2020, "fixed": 2021, "fl": 2022, "flag": 2023, "flank": 2024, "fle": 2025, "fled": 2026, "fleet": 2027, "fles": 2028, "flew": 2029, "fling": 2030, "flo": 2031, "floated": 2032, "floating": 2033, "flood": 2034, "floor": 2035, "floor,": 2036, "flour": 2037, "flow": 2038, "flu": 2039, "flung": 2040, "flying": 2041, "fo": 2042, "foam": 2043, "fold": 2044, "follow": 2045, "followed": 2046, "following": 2047, "food": 2048, "fool": 2049, "foot": 2050, "for": 2051, "for,": 2052, "forced": 2053, "ford": 2054, "fore": 2055, "forecast": 2056, "forecastle": 2057, "forecastle,": 2058, "forecastle.": 2059, "forehead": 2060, "forget": 2061, "forl": 2062, "forlorn": 2063, "form": 2064, "form.": 2065, "formed": 2066, "former": 2067, "forms": 2068, "fort": 2069, "forth": 2070, "fortun": 2071, "forward": 2072, "found": 2073, "four": 2074, "fow": 2075, "fowl": 2076, "fr": 2077, "frantic": 2078, "fre": 2079, "free": 2080, "frequently": 2081, "fresh": 2082, "fri": 2083, "friend": 2084, "friends,": 2085, "fright": 2086, "fro": 2087, "from": 2088, "front": 2089, "frost": 2090, "frozen": 2091, "ft": 2092, "ft,": 2093, "ful": 2094, "ful,": 2095, "full": 2096, "fully": 2097, "fulness": 2098, "fun": 2099, "fur": 2100, "furi": 2101, "furn": 2102, "furnish": 2103, "furnished": 2104, "further": 2105, "fut": 2106, "fy": 2107, "g": 2108, "ga": 2109, "gain": 2110, "gaining": 2111, "gale": 2112, "gall": 2113, "gallant": 2114, "games": 2115, "gang": 2116, "gard": 2117, "gave": 2118, "gay": 2119, "gaz": 2120, "gazing": 2121, "ge": 2122, "ge,": 2123, "ged": 2124, "gen": 2125, "gener": 2126, "general": 2127, "generally": 2128, "gent": 2129, "gentle": 2130, "gentlemen,": 2131, "ger": 2132, "ges": 2133, "gest": 2134, "get": 2135, "getting": 2136, "gg": 2137, "gh": 2138, "ghast": 2139, "ghost": 2140, "ght": 2141, "gig": 2142, "gigantic": 2143, "ging": 2144, "gir": 2145, "girl": 2146, "giv": 2147, "give": 2148, "given": 2149, "gives": 2150, "giving": 2151, "gl": 2152, "glad": 2153, "glance": 2154, "glancing": 2155, "glass": 2156, "glasses": 2157, "gliding": 2158, "gling": 2159, "glit": 2160, "glo": 2161, "gloom": 2162, "glory": 2163, "gn": 2164, "go": 2165, "go,": 2166, "go.": 2167, "god": 2168, "goes": 2169, "going": 2170, "gold": 2171, "gone": 2172, "good": 2173, "good-": 2174, "got": 2175, "gr": 2176, "gra": 2177, "grad": 2178, "grand": 2179, "grap": 2180, "graph": 2181, "gras": 2182, "grass": 2183, "grave": 2184, "gre": 2185, "great": 2186, "greate": 2187, "greatest": 2188, "green": 2189, "greg": 2190, "grew": 2191, "grey": 2192, "gri": 2193, "grim": 2194, "gro": 2195, "ground": 2196, "grow": 2197, "grown": 2198, "gu": 2199, "gue": 2200, "guess": 2201, "gul": 2202, "gun": 2203, "gy": 2204, "h": 2205, "h,": 2206, "ha": 2207, "hab": 2208, "habit": 2209, "had": 2210, "hail": 2211, "hailed": 2212, "hair": 2213, "hal": 2214, "half": 2215, "half-": 2216, "ham": 2217, "hammer": 2218, "hammo": 2219, "hammock": 2220, "hand": 2221, "hand,": 2222, "handful": 2223, "handk": 2224, "handker": 2225, "handkerchief": 2226, "hands": 2227, "hands,": 2228, "hanging": 2229, "hap": 2230, "happ": 2231, "happen": 2232, "har": 2233, "harb": 2234, "harbor": 2235, "hard": 2236, "hardly": 2237, "harm": 2238, "harpo": 2239, "harpoon": 2240, "harpoon,": 2241, "harpoone": 2242, "harpooneer": 2243, "harpooneer,": 2244, "harpooneers": 2245, "harpooneers,": 2246, "harpoons": 2247, "has": 2248, "hast": 2249, "hat": 2250, "hatch": 2251, "haun": 2252, "have": 2253, "having": 2254, "haw": 2255, "he": 2256, "he,": 2257, "he.": 2258, "hea": 2259, "head": 2260, "head,": 2261, "head.": 2262, "head;": 2263, "heads": 2264, "heal": 2265, "hear": 2266, "heard": 2267, "hearing": 2268, "heart": 2269, "heart,": 2270, "hearted": 2271, "hearts": 2272, "heathen": 2273, "heav": 2274, "heaved": 2275, "heaven": 2276, "heaven.": 2277, "heavy": 2278, "heed": 2279, "heeded": 2280, "height": 2281, "hel": 2282, "held": 2283, "hell": 2284, "helm": 2285, "help": 2286, "helped": 2287, "hence": 2288, "her": 2289, "her,": 2290, "herds": 2291, "here": 2292, "here,": 2293, "here.": 2294, "here;": 2295, "hereafter": 2296, "hered": 2297, "he\u2019s": 2298, "hid": 2299, "hidden": 2300, "hide": 2301, "hideous": 2302, "hig": 2303, "high": 2304, "higher": 2305, "hill": 2306, "him": 2307, "him,": 2308, "him.": 2309, "him;": 2310, "himself": 2311, "himself,": 2312, "himself.": 2313, "hind": 2314, "hint": 2315, "hinted": 2316, "hip": 2317, "his": 2318, "his,": 2319, "his;": 2320, "hist": 2321, "histor": 2322, "history": 2323, "hit": 2324, "hither": 2325, "hitherto": 2326, "ho": 2327, "hog": 2328, "hold": 2329, "holding": 2330, "hole": 2331, "hole,": 2332, "hollow": 2333, "holy": 2334, "hom": 2335, "home": 2336, "home,": 2337, "home.": 2338, "hon": 2339, "honest": 2340, "honor": 2341, "hoo": 2342, "hood": 2343, "hook": 2344, "hop": 2345, "hope": 2346, "hor": 2347, "horiz": 2348, "horizon": 2349, "horizontal": 2350, "horn": 2351, "horr": 2352, "horri": 2353, "horror": 2354, "horse": 2355, "hosp": 2356, "hospit": 2357, "hot": 2358, "hour": 2359, "hours": 2360, "hous": 2361, "house": 2362, "house.": 2363, "how": 2364, "however": 2365, "however,": 2366, "howling": 2367, "hu": 2368, "hue": 2369, "huge": 2370, "hull": 2371, "hum": 2372, "human": 2373, "hump": 2374, "hun": 2375, "hund": 2376, "hundred": 2377, "hung": 2378, "hunt": 2379, "hunted": 2380, "hunter": 2381, "hunters": 2382, "hur": 2383, "hurry": 2384, "hy": 2385, "i": 2386, "ia": 2387, "ia,": 2388, "iac": 2389, "ial": 2390, "ial,": 2391, "ially": 2392, "ian": 2393, "ian,": 2394, "ians": 2395, "iant": 2396, "ib": 2397, "ible": 2398, "ibly": 2399, "ic": 2400, "ic,": 2401, "ical": 2402, "ically": 2403, "ice": 2404, "ice-": 2405, "ices": 2406, "ich": 2407, "icient": 2408, "ick": 2409, "ict": 2410, "iction": 2411, "icture": 2412, "icular": 2413, "id": 2414, "ide": 2415, "idea": 2416, "ided": 2417, "idel": 2418, "idence": 2419, "ident": 2420, "ides": 2421, "iding": 2422, "idol": 2423, "ie": 2424, "ied": 2425, "ief": 2426, "ield": 2427, "ience": 2428, "ient": 2429, "ier": 2430, "ies": 2431, "ies,": 2432, "ies.": 2433, "ies;": 2434, "iest": 2435, "iet": 2436, "iew": 2437, "if": 2438, "if,": 2439, "ife": 2440, "iff": 2441, "ific": 2442, "ified": 2443, "iful": 2444, "ig": 2445, "igh": 2446, "ight": 2447, "ign": 2448, "ignity": 2449, "ignor": 2450, "ignorant": 2451, "igr": 2452, "ike": 2453, "il": 2454, "ilar": 2455, "ild": 2456, "ile": 2457, "iled": 2458, "ili": 2459, "iling": 2460, "ility": 2461, "ill": 2462, "illed": 2463, "illi": 2464, "ills": 2465, "ilo": 2466, "ils": 2467, "ilt": 2468, "ilt,": 2469, "ily": 2470, "ily,": 2471, "im": 2472, "imag": 2473, "image": 2474, "imagin": 2475, "ime": 2476, "ime,": 2477, "iment": 2478, "imes": 2479, "imin": 2480, "immedi": 2481, "immediately": 2482, "immen": 2483, "immortal": 2484, "imp": 2485, "imper": 2486, "imperial": 2487, "import": 2488, "importance": 2489, "important": 2490, "impossible": 2491, "impress": 2492, "impressions": 2493, "in": 2494, "in,": 2495, "in.": 2496, "inated": 2497, "inc": 2498, "ince": 2499, "inced": 2500, "inch": 2501, "inches": 2502, "incident": 2503, "incl": 2504, "includ": 2505, "included": 2506, "including": 2507, "incre": 2508, "inct": 2509, "ind": 2510, "inde": 2511, "indeed": 2512, "indeed,": 2513, "independ": 2514, "indif": 2515, "indiffer": 2516, "indire": 2517, "indirectly": 2518, "indis": 2519, "indiv": 2520, "individ": 2521, "individual": 2522, "indu": 2523, "induce": 2524, "ine": 2525, "ine,": 2526, "ine.": 2527, "ined": 2528, "ines": 2529, "iness": 2530, "inf": 2531, "infall": 2532, "infallibly": 2533, "infer": 2534, "inferior": 2535, "infernal": 2536, "influ": 2537, "influences": 2538, "ing": 2539, "ing,": 2540, "ing-": 2541, "ing.": 2542, "ing;": 2543, "inging": 2544, "ingly": 2545, "ings": 2546, "ings,": 2547, "ings.": 2548, "ining": 2549, "ink": 2550, "inn": 2551, "inning": 2552, "inno": 2553, "inquir": 2554, "ins": 2555, "inser": 2556, "inside": 2557, "inst": 2558, "instance": 2559, "instances": 2560, "instant": 2561, "instead": 2562, "instinct": 2563, "insu": 2564, "insult": 2565, "int": 2566, "intel": 2567, "intelli": 2568, "intens": 2569, "intense": 2570, "intent": 2571, "inter": 2572, "interest": 2573, "interl": 2574, "interval": 2575, "intervals": 2576, "into": 2577, "intolerable": 2578, "inv": 2579, "invest": 2580, "invested": 2581, "invisible": 2582, "invol": 2583, "involuntarily": 2584, "iny": 2585, "in\u2019": 2586, "io": 2587, "ion": 2588, "ion,": 2589, "ion.": 2590, "ion;": 2591, "ional": 2592, "ioned": 2593, "ions": 2594, "ions,": 2595, "ior": 2596, "ious": 2597, "ious,": 2598, "iously": 2599, "iousness": 2600, "ip": 2601, "ir": 2602, "irc": 2603, "ird": 2604, "ire": 2605, "ired": 2606, "irg": 2607, "irgin": 2608, "irit": 2609, "iron": 2610, "irst": 2611, "irt": 2612, "is": 2613, "is,": 2614, "is.": 2615, "is;": 2616, "ise": 2617, "ise,": 2618, "ised": 2619, "isel": 2620, "ises": 2621, "ish": 2622, "ish,": 2623, "ish.": 2624, "ished": 2625, "ishing": 2626, "ishment": 2627, "ising": 2628, "isk": 2629, "island": 2630, "island,": 2631, "ism": 2632, "iss": 2633, "issu": 2634, "ist": 2635, "isted": 2636, "ister": 2637, "isting": 2638, "isto": 2639, "ists": 2640, "it": 2641, "it!": 2642, "it,": 2643, "it.": 2644, "it;": 2645, "it?": 2646, "itable": 2647, "itary": 2648, "itch": 2649, "ite": 2650, "ited": 2651, "item": 2652, "iter": 2653, "ites": 2654, "ith": 2655, "ith,": 2656, "ither": 2657, "ities": 2658, "ities,": 2659, "ition": 2660, "ition,": 2661, "itions": 2662, "itive": 2663, "itle": 2664, "its": 2665, "itself": 2666, "itself,": 2667, "itt": 2668, "itted": 2669, "itting": 2670, "itud": 2671, "itude": 2672, "itude,": 2673, "itudes,": 2674, "ity": 2675, "ity,": 2676, "ity.": 2677, "ity;": 2678, "it\u2019s": 2679, "iv": 2680, "ive": 2681, "ively": 2682, "iven": 2683, "iveness": 2684, "iver": 2685, "ives": 2686, "ivory": 2687, "ix": 2688,
[...]
