{"name": "10000 Vocab Size BPE Model", "vocabulary": ["ence.", "know,", "dusting", "wait", "fabulous", "lookest", "spell;", "specimens", "notice", "Pra", "ghost", "emer", "glory", "might,", "legs.", "uch", "embalmed", "away?\u201d", "clud", "hereditary", "_you_,", "hours", "compass", "Bosom", "berg", "ago", "lingering", "Ceti", "warning", "till", "becoming", "dif", "WHA", "imput", "threw", "punishment", ".\u2014It\u2019s", "-hearted", "Can", "prints", "Ven", "amazement", "ine", "seeks", "lived", "long", "nervous", "conceiv", "a!", "latest", "plaster", "awa", "Herman", "miserable", "cking", "morning;", "eBook", "ally,", "etimes", "bene", "gamesome", "idence", "Gay-Head", "wake,", "Asiatic", "tell", "French", "grand", "grasping", "American", "room.", "stream", "mate", "tropic", "snort", "Usher", "token", "ponderous", "retre", "light.", "within,", "expensive", "\u201cBut", "jacket", "Hu", "Secondly:", "-minded", "Hop", "bitter", "lifted", "old-fashioned", "F", "dropping", "ls", "bed-", "eh?", "tar", "contempl", "Coll", "extingu", "authentic", "Ow", "attend", "voyage.", "mem", "whiteness", "ict", "incor", "gods", "other;", "corner;", "ills", "curi", "very", "see;", "height", "pages", "last;", "ed.", "\u2014_R", "ful;", "conclusion", "oftentimes", "ensed", "18", "intens", "Knights", "-like,", "to", "stranded", "invent", "must", "himself,", "laz", "s", "ered", "Sp", "profess", "aded", "b", "happen", "like,", "Pri", "shape", "whom", "rup", "vag", "crowds", "compare", "disappeared.", "Another", "cost", "castaway", "chapter", "(_A", "him,", "cause", "Over", "resist", "ssed", "line.", "phantom", "ven", "AG", "FOL", "dden", "become", "feels", "ets,", ";\u201d", "profane", "horse", "ceas", "declare", "opened", "tumult", "usage,", "dem", "person.", "\u201cOh,", "grunt", "scarce", "may,", "ship.", "sacrific", "though,", "Euroc", "plank", "over.", "decent", "ling-", "repast,", "ia", "terri", "sequent", "coral", "prejudices", "outward", "pack", "upwards", "universal", "Hunter", "stamped", "commonly", "OC", "so,", "Six", "ower", "Him", "inland", "Sunday,", "ow.", "earnest", "next", "Leviathan.", "\u2014_Gold", "Throw", "driven,", "connex", "expan", "whale!\u201d", "soo", "consciousness", "bel", "retiring", "pir", "old-fash", "tern", "dreamy", "replied", "lips.", "sister,", "involuntarily", "mentioned.", "roy", "air.", "side,", "taffrail", "Inn.", "Laz", "God,", "ities,", "circumstances", "practical", "setting", "mind\u2014", "all\u2014", "paced", "standers", "thinking", "tou", "m", "advent", "fierce", "exasperated", "yards", "they", "This", "affection", "schoon", "_h", "mortals", "supp", "presid", "hooded", "snow-", "simp", "stopped", "full", "up", "approach", "correct", "fury", "logger", "seen;", "Bildad.", "Iceland", "Mem", "whel", "owners", "bolted", "straight", "Spouter", "people", "aho", "EXTRACT", "Pil", "paint", "ame", "above", "books", "quick", "third", "wid", "Mediterranean", "cetology.", "alarm,", "Martha\u2019s", "ises", "blended", "Massa", "quiet", "mar", "leg.", "dand", "-stricken", "dreary,", "Mid", "shop", "many", "sepulch", "lerably", "reasons", "bur", "currents", "Vers", "formidable", "set.", "\u201cMast", "on\u2014", "orn", "sir!", "boat.", "corner", "ilar", "long-", "regal", "passage,", "ouse", "rigging,", "striding", "candle", "mean", "\u201cI\u2019ll", "\u2014so", "acquain", "winter", "It\u2019s", "-ho", "ep", "see.", "Fedallah", "ied", "tem", "t,", "hanging", "min", "su", "ued", "catastrop", "\u201cF", "Whaleman\u2019s", "uzz", "knots", "See", "\u201cQueequeg", "own", "ruins", "perhaps", "t.", "jun", "strain", "lays", "glances", "Better", "True,", "cattle", "saun", "gig", "It", "key", "deriv", "Linn", "soever", "diabo", "isle", "lashed", "es\u2019", "ives", "pound", "forgot", "commercial", "soldi", "cash", "surprise", "apped", "ifying", "accounted", "invari", "stark", "nels", "open", "salv", "promise", "swimming,", "-of", "cannibal", "steering", "selves,", "humbug", "wice", "Hall", "howl", "ally", "serene", "backs", "slight", "specially", "stru", "venge", "ol", "vac", "I;", "headway,", "mates,", "Pequod,", "stained", "sleep,", "bow", "feet,", "forget", "slou", "reign", "_here", "maz", "Daniel", "market", "largely", "during", "Emperor", "admit", "Pir", "crushed", "chief-", "oo", "go,", "Advocate.", "woods", "cheerfully", "terra", "Magn", "ore", "cially", "harmless", "seeking", "bright", "outland", "draught", "instant,", "after,", "crew;", "perpend", "peculiarity", "to.", "cross-trees", "akes.", "side.", "inct", "God\u2019s", "Huzza", "powder", "ually", "book,", "purple", "Ship", "ily", "terrible", "following", "business", "turning", "ancient", "ans", "manu", "\u2014who", "I", "deep,", "vi", "adap", "I\u2019ll", "strang", "Steelkilt,", "schooner", "55.", "\u201cIn", "steered", "interl", "owner", "Fife", "ma", "model", "Gothic", "Joh", "isles", "trag", "Moby", "arm,", "vicissitudes", "spir", "probab", "\u201cIf", "MEMORY", "streng", "serves", "solitary", "flying", "dinner,", "ence,", "ck,", "Tashtego,", "official", "\u201cSo", "seaman", "doub", "mark,", "tapping", "taken", "somewhere", "bit,", "address", "Carpenter.", "breez", "doing", "gue", "preced", "ught", "een", "177", "sovere", "subject", "fif", "1839.", "iant", "curiously", "uf", "expans", "\u201cthou", "Rom", ":", "peaceful", "ting", "38.", "high", "censu", "asting", "ied,", "endom", "added,", "foundered", "born", "Starbuck.", "Bed", "brut", "EE-NU", "ine.", "pen", "aco", "mizzen", "pocket", "chair.", "craft,", "mine,", "limbs", "Won", "wide", "ale,", "properly", "approaching", "induce", "dogs", "gregar", "n", "wark", "ilt,", "mounted", "shoo", "selling", "colon", "tr", "Ahab?\u201d", "murm", "ometimes", "Ice", "hard,", "idel", "goat", "truck", "ents", "advancing", "exists", "sense", "_.\u201d", "learn", "abandon", "No!", "descried,", "ato", "manifested", "Watch.", "Tim", "Al", "streets,", "flo", "boy!", "incred", "flitting", "Deacon", "ended,", "lit", "duty", "sentiment", "revealed", "sally", "Allegh", "ye.\u201d", "ubber", "Fee", "batross.", "touched", "ion.", "theless", "floor,", "Gen", "comrad", "sunrise", "pile", "on,", "-", "being", "\u201cthe", "olog", "stoo", "betoken", "floor", "intention", "case", "July", "cunning", "hinted", "hatches,", "aug", "ashore", "mechanically", "sleeping.", "res", "ancing", "laugh", "circle", "say\u2014", "scanning", "sw", "together,", "y!", "haw", "passage", "Henry", "U.", "fic", "Oh", "King", "shake", "royal", "baleen,", "circumstance,", "pump", "adie", "1,", "forbear", "Mast-Head.", "coco", "flames", "New", "\u201cHo", "tic", "wish", "resol", "to,", "fy", "bachel", "Kill", "ing-", "counsel", "Christendom", "nut", "gre", "loose", "dolph", "ff", "eleph", "descried", "dazz", "etext", "th", "\u2014_Edmund", "counter", "pursu", "stones,", "darkness", "hint", "la", "thri", "foot,", "pro", "billow", "treacherous", "intelligence", "Dan.", "enough.", "calmly", "Talk", "country", "fire,", "unconscious", "you", "anc", "wrenched", "stri", "Who\u2019s", "body.", "50.", "tone", "majestic", "villanous", "nigh", "ged", "Mer", "\u2014that\u2019s", "sublim", "\u2014_H", "Parli", "latter", "CHA", "white-", "intro", "somehow", "try.", "volume", "merry", "splintered", "Take", "oes", "ro", "jack-", "J.", "man;", "Tales", "navy", "System", "Jonah", "blue,", "before.", "this;", "ANISH", "hump,", "mask", "\u201cThou", "learned", "amazingly", "ranged", "dy", "like", "spent", "ty,", "cele", "shipmates", "ubb", "Sur", "hast", "question,", "Aff", "gunw", "coat", "distrust", "VI.", "Midnight,", "pick", "Stubb;", "quant", "ears,", "kn", "sleep", "feroc", "understand", "seamen", "conscience", "salms_.", "wondering", "usually", "Er", "silently", "ceive", "age,", "shall", "retreat", "incorpor", "top-sail", "espe", "1828.", "ining", "mend", "Lakeman.", "creation", "beam", "frightened", "You", "assured", "\u201c\u2018What", "\u201cFor", "extreme", "Albino", "ugn", "bul", "Nay,", "Langsdorff", "spiral", "icament", "uddenly", "forehead.", "6.", "relieved", "Quar", "twenty", "foot", "deck.", "million", "di", "melted", "s,", "fferable", "cannon", "whalemen;", "invests", "tig", "Dutch", "pas", "between", "re-", "aware", "peri", "ha!", "below", "cial", "Methinks", "Sperm", "Spirit", "thee.", "ashing", "Starting", "AND", "bubbles", "sir,\u201d", "busin", "hook", "ul", "Starbuck;", "rocked", "kings", "degree.", "Sir", "sensible", "reminded", "\u2014", "pell", "usual", "merid", "oot", "edges", "ign", "s.\u2014", "During", "whis", "spic", "Pequod\u2019s", "sail", "ited", "surre", "distance", "count", "inexp", "shri", "scolding", "molass", "wise", "ultimate", "melanch", "crawl", "Greenland", "Gre", "ity", "iteness", "respects", "\u2014at", "slipped", "my", "prairie", "answer.", "he", "Sal", "so.", "deem", "wood", "command", "ray", "bones,", "yo", "inn", "lord", "modern", "\u201cLandlord", "plunging", "However,", "II.", "turned", "done,", "daring", "cheery,", "THIS", "retired", "Taking", "vigilance", "language,", "incessant", "gged", "death.", "dreaming", "different", "as,", "awed", "stret", "ground-", "over", "discover", "shout", "_).", "mark.", "ese", "broom", "prolong", "isen", "turns", "everywhere", "ings?", "discovery", "fatality,", "ident", "qui", "leviathans,", "force", "marching", "worm", "fresh", "see", "brow,", "clothe", "Burke", "pid", "dam", "Webster", "quar", "solemnly", "landlord\u2019s", "chain", "ames", "obvious", "u,", "32.", "description", "awe", "uring", "vindict", "breezes,", "said\u2014\u201c", "mountain", "conden", "ried", "xt", "haun", "4.", "ph", "viv", "purpose.", "Supper", "fish", "tambourine", "re", "ipe", "Te", "ale", "sor", "fatal", "Prop", "Pass", "don", "feeding", "untarily", "adop", "lled", "25.", "velocity", "-T", "suit,", "Stubb.", "Narr", "within.", "ool", "Dough", "\u2019st", "iously", "whale.", "head;", "er-", "prud", "Whether", "eagerness", "leads", "commanding", "gee", "med", "winding", "aspect,", "Prair", "distinguish", "Satur", "OCTAVO", "navigation", "steak", "human", "fiery", "clear,", "achel", "prospect", "lay_", "steel", "Canall", "them", "?\u2014", "majest", "_No", "beck", "Spouter-Inn.", "water.", "he.", "Pulp", "minister", "schoolmast", "erson", "ively,", "devil\u2019s", "Wherefore", "divers", "repose", "thickly", "gathering", "Cape", "confident", "ened", "Elij", "ideas", "joint-", "ship;", "\u2014but", "surface,", "everlast", "intimate", "trees", "quickly", "ret", "running", "neck", "ap", "of,", "der", "uated", "negro.", "thoughts,", "nest", "button", "gate", "18.", "crowd", "layer", "well-", "spap", "transom", "ern", "therefore,", "ETYMOLOGY", "climb", "sm", "warp", "saw", "mischief", "stic", "cherish", "his,", "Beale\u2019s", "finished", "King-", "Again", "utenberg", "Spermaceti", "EE-NUEE-NU", "Ber", "dismal", "whale-boat", "too;", "Melville", "Blood", "sof", "years\u2019", "beast", "grasshopper", "swallow", "Hope,", "ineff", "winds", "wash-", "where", "ilt", "fashioned", "watch-coat", "sounding", "\u2018but", "-b", "ww", "dire", "nearer", "mine", "removed", "leaving", "intellectual", "no;", "ances.", "Stubb\u2019s", "savage,", "neighbor", "vin", "pillar", "aggreg", "ased", "(_Re", "sickle-", "represent", "knocking", "May,", "destruction", "ter,", "dog,", "wall", "seren", "time;", "ugust", "els", "ined", "varying", "ving,", "pleased", "\u2019re", "to-morrow", "took", "IL", "Though", "magnitude", "tumbled", "knife", "CO", "omb", "amb", "attacked", "y,", "awake", "glass", "elev", "ants,", "mong", "enable", "orean", "correspon", "details", "boundless", "believe", "infall", "ar-", "\u03bf", "ult", "here,", "away;", "boats.", "rock", "lads", "t\u2019", "maintain", "Thomas", "cetolog", "confidential", "wards", "dare", "mysteries", "ich", "46.", "vigil", "lander", "loud", "shav", "braw", "angelical", "puzzled", "cram", "locked", "ranging", "broad", "que", "casks", "esid", "Japanese", "intolerable", "Duodec", "wrote", "harbors", "smoke.", "previ", "thy", "marvel", "wilt", "respect", "lads,", "column", "pr", "company,", "\u201c\u2018I", "Labrador.", "most", "Right", "flask", "E", "hand;", "or", "heads", "could,", "vor", "Towards", "there.", "l;", "ils", "trait", "iss", "soul;", "interested", "ism", "oring", "counterpane,", "\u2014what", "Colnett", "acing", "bowl", "were", "frozen", "flourish", "unning", "used", "Goth", "hearts", "striving", "proceeding", "tomahaw", "Lakeman", "condition", "geon.", "ss", "chat", "companion", "patent", "Lazar", "remor", "feast", "demo", "Rather", "sleeper,", "cups", "crimin", "atur", "ubs", "compreh", "time", "scar", "EE-N", "guilty", "mere", "hideous", "rearing", "one\u2019s", "antial", "Queequeg!\u201d", "Loomings.", "inscrut", "FRENCH", "game", "usage", "plates", "Dick", "earli", "sacrificial", "seas", "ends", "Le", "5.", "Thras", "ment,", "attent", "MOBY", "this?", "desperate", "Q", "En", "perhaps,", "lph", "land,", "now,\u201d", "ure.", "creatures,", "himself;", "slide", "Ah!", "invisible", "DAGGOO", "length,", "thee;", "best", "fighting", "woollen", "Christmas", "sight.", "soft,", "cred", "blunder", "do", "Coffin", "LE", "rest.", "There", "good-by", "company.", "per,", "Com", "blade", "ation;", "gra", "Char", "hue,", "miles,", "anch", "\u201cT", "boldness", "itt", "tells", "hardly", "and,", "seat", "bar-", "God.", "round,", "Au", "marked", "snow", "painted", "insom", "against", "untutored", "stam", "more;", "baby.", "island.", "Chin", "....", "happily", "Wood", "tomb", "death-", "il,", "\u201cIt\u2019s", "suspicions", "misgiv", "ief", "wil", "ver", "Edmund", "flood-", "steam", "usions", "knife,", "sideways", "Mel", "float", "indis", "marsh", "betr", "travel", "consc", "wave", "Perhap", "individual", "subst", "ice-", "Whalebone", "Dagg", "showed", "exceeding", "thou", "pleas", "fast,", "Langsd", "pool", "directions", "Circum", "gir", "blasted", "Next", "Purch", "greg", "try,", "helped", "rus", "pin", "rolls", "shivering", "Grampus", "vary", "ir", "iness", "Inn,", "fetching", "supper,", "Wat", "leagu", "circular", "pair", "washed", "philoso", "ye,", "anning", "th;", "ison", "ck", "fact", "main-mast.", "cut", "Song_.", "main-", "rever", "chamber", "hunt,", "called,", "e,", "_", "ion", "golden", "Mapp", "proof", "lun", "terr", "Bedford", "scrut", "hereby", "ulate", "gentleman", "heard,", "Spaniard", "largest", "intervals", "ags", "tes", "convinced", "figure,", "parts", "\u201cGod", "gling", "whitt", "ity\u2014", "SACRED", "Pipe", "qual", "Most", "sting", "dark,", "eat", "cling", "chant", "Tr", "astonishment", "shoulders.", "NANTUCKET", "heaving", "Rad", "double", "ight", "merchant", "by,", "day;", "circul", "reason", "squall", "i;", "near", "sum", "40", "fort", "priv", "bet", "tribe", "carpent", "wreck", "counterpane", "end", "sil", "shaped,", "knot", "mutine", "book", "ignorance", "ately", "crucif", "(_Folio_),", "authors", "blind", "box", "sharks", "Islanders", "cat", "ETYMOLO", "Cer", "fourth", "disast", "last", "wake", "wand", "language", "Pagan", "enchant", "perhap", "usages", "roaring", "judgment.", "party", "courses", "member", "surrender", "Queequ", "uary", "days", "Bildad\u2019s", "pisto", "mou", "chance", "Pe", "narrow", "coast.", "heads,", "cabin,", "slept", "patch", "kicking", "Persian", "THE", "appet", "stor", "things", "irgin", "laid", "brute", "pays", "circumst", "cof", "floated", "ship,", "dom", "\u0152", "cket", "parcel", "iti", "instant", "mate,", "beat", "ment", "brain", "ooper", "ience", "toss", "reference", "pry", "Because", "smal", "Consider", "flound", "angu", "else.", "fab", "sound", "Forecastle.", "millions", "ion,", "Horn", "dreadful", "waist,", "achie", "heav", "done", ".*", "learning", "hy", "perfor", "beards", "body,", "Didn\u2019t", "feather", "hoops", "vers", "rom", "od,", "amount", "style", "Dick,", "(for", "inmates", "fier", "foam", "walking", "Cabin-T", "-spout", "adm", "view", "race", "dived", "***", "execut", "\u201cDinner,", "demand", "doing,", "Sl", "Ramad", "abash", "?\u2014but", "midst", "load", "captain,", "Egyptians", "things.", "drawn", "Mean", "ster", "moon", "illed", "equ", "cul", "Lim", "smell", "eff", "frighten", "pallor", "Bal", "witness", "pitched", "Radney", "by;", "et", "activ", "ities", "ue", "tree", "home.", "ionary", "endure", "ow,", "theirs;", "wicked", "ond", "worse", "ishment", "icted", "corre", ",00", "powers", "clean", "precise", "whaleman", "ps", "ape", "-p", "barbed", "...", "moment", "duly", "started", "Your", "ked,", "tru", "taste.", "carpet", "breast,", "tri", "ney,", "Duodecim", "away.", "pondered", "step,", "me,", "!\u2019", "truth,", "Siber", "sea", "floating", "passenger.", "ladder,", "Top", "row", "measure", "del", "series", "thorough", "om", "-Fish", "thrusting", "ople", "desolate", "\u00e9", "\u2014he", "indiffer", "raging", "salted", "it?", "harpo", "cho", "Fish", "bank", "tal", "ier", "sing", "store", "face;", "au", "ow", "particular", "Em", "battery,", "rig", "tight", "sallied", "urn", "you\u2019ll", "restri", "ations.", "cere", "evil", "Bulkington!", "remark", "Crew.", "Head\u2014", "place,", "maddened", "\u2014though", "increasing", "apprehens", "visit", "goble", "habits", "Steelkilt", "Cross", "express", "brid", "\u201cS", "Rev", "abode", "gleam", "escap", "brown", "bale", "blows", "Meets", "itted", "imminent", "leviathan,", "wives", "ad", "gained", "sleeping", "years,", "stiffly", "stead", "anywhere", "rude", "poets", "Fl", "rigg", "aband", "dang", "driven", "replenished", "gy", "eyes", "old.", "heightened", "looking", "luck", "glit", "Chace", "example", "anting", "vocation", "across", "simple", "ger", "escaped", "hind", "date", "ality", "Web", "orous", "thought,", "advance", "unalterable", "hammock,", "ide", "flew", "phrens", "important", "vice", "Jap", "place;", "ant,", "track", "ship-", "also", "ile", "ship", "wro", "shoulders,", "shaggy", "Sleet", "ge", "furthe", "beha", "rules", "breath", "Ocean", "issu", "chapters", "merely", "Cetolog", "-head", "published", "275th", "ri", "ping", "heavens", "uncertain", "haul", "nearest", "oe", "ili", "berth", "EE-NUEE-NUEE", "visible;", "DAG", "brief", "chewed", "prepar", "susp", "ved", "direction", "eness", "monum", "reli", "birth", "ienc", "Eli", "grave", "peculi", "dex", "char", "rapid", "wound", "hats", "vicinity", "sore", "dusky", "system", "popularly", "troop", "fol", "5", "more!", "nature", "exceed", "benef", "personally", "town", "Sebastian,", "whiff", "\u2014_F", "lo", "hospitable", "cu", "CHAPTER", "en,", "souls", "starting", "orphan", "\u201cQuick,", "open.", "pal", "porpo", "whipping", "veins", "Did", "metaphy", "watch-", "judiciously", "harpooned", "conv", "monster,", "monster\u2019s", "Erroneous", "az", "ons", "rust", "recur", "ear", "know;", "axe!", "comforters,", "hist", "cataract", "Counter", "write", "gulf", "it,\u201d", "iv", "marin", "pract", "interval", "picture", "urely", "last.", "spark", "proper", "does", "lonely", "terrific", ",\u201d", "fairly", "knows,", "gudge", "looked", "Twice", "ter", "\u201cIm", "\u2014_Holl", "foo", "fool", "sailors", "crew.", "deepest", "untuto", "metap", "!\u2014", "state", "agged", "excited", "rum", "Then", "Japan,", "jeopard", "desp", "seap", "ac", "them\u2014", "neither", "independ", "lodged", "atic", "sun-lit", "agod", "Pul", "parmacetti", "\u201cQu", "early", "ian,", "bestir", "well;", "over,", "Mark.", "benefit", "level", "travell", "stick", "value", "gall", "burden", "ances,", "Meanwhile,", "observed", "bru", "boots", "smaller", "question", "tra", "ner", "39.", "oop", "door;", "unt", "Lazarus", "grin", "pass", "idge", "alien", "ulations", "cept", "engaged", "poten", "distri", "shepherd\u2019s", "entr", "mag", "hope.", "hearse", "dead", "aul", "confin", "life", "seless", "that_", "Mart", "rag", "agon", "the-", "vigorous", "Moluccas", "philo", "whales,", "summ", "bed;", "\u2014\u201c_Narrative", "Bel", "superflu", "avoid", "astern,", "Line.", "Rev.", "je", "position,", "eter", "instinct", "exampl", "live", "sto", "belongs", "-coloured", "reality", "man,", "Do", "try", "change", "prophet", "ceed,", "\u201cCome", "ades,", "Div", "became", "themselves,", "blaz", "mer", "directly", "seld", "hard", "clear", "whatever", "Mat-M", "portent", "vap", "Dam", "totally", "Pulpit.", "deform", "mystical", "wrapped", "wharf", "A.", "nights", "inform", "_this_", "Ross", "articles", "ity,", "heavy", "canoes,", "light,", "Ahab\u2019s", "mph", "welded", "ashes", "bringing", "afterno", "Deuter", "nightm", "e.", "Elijah.", "\u2014yet,", "!", "mutter", "officers,", "anced", "there\u2014", "pretty", "o!", "assault", "medi", "ten", "plumb", "bland", "Peter", "drown", "leather", "rowed", "bird", "Very", "whalem", "dome", "conceal", "fed", "Globe,", "\u201cWhile", ";", "giving", "changing", "ick", "clinch", "wharf.", "seat,", "d\u2019ye", "Atlantic,", "led,", "pantalo", "ignor", "incre", "san", "armed", "wing", "vil", "ists", "Therefore,", "ther", "mund", "extre", "opard", "sailors,", "patient", "clen", "17", "-of-war", "noo", "a-", "yourself", "space", "start", "lau", "retched", "commander", "bells", "pecu", "45.", "boots,", "post", "vengeance.", "Ev", "ny", "bes", "doubtless,", "scales", "pan", "\u2014\u201cit", "there!", "Men", "pictures", "abed", "maritime", "ALL.", "point,", "possib", "crossed", "spermaceti", "anat", "bulwarks,", "truly,", "great,", "Johnson", "art.", "Congregational", "number", "dut", "huge", "centuries", "dinner", "remem", "ocean", "respon", "surren", "appointed", "aps", "waves", "Quaker", "Was", "shoals", "marks", "forecastle,", "sed", "news", "pallid", "bat", "herds", "seated", "detail", "representing", "swerve", "rocks", "elusive", "summon", "sea-captains", "belted", "ground.", "maketh", "ots,", "grande", "Blank", "it.", "spouts", "doze", "accum", "ga", "cle", "getting", "unnecessary", "simply", "along", "chance,", "healthy", "yourselves!", "90.", "them,", "presently", "bend", "sick", "mult", "trou", "cup", "Webster\u2019s", "lat", "comfort", "ber", "dined", "r", "chase", "living", "s!\u2019", "resolved", "Gam", "throws", "seize", "Tahiti", "other\u2019s", "onest", "faces", "3.", "lean", "stool", "fee", "pet", "diffic", "into", "ction,", "ceiv", "lab", "spires,", "Ho", "ity;", "ives.", "Sub-Sub-", "woo", "[", "Hist", "savage\u2019s", "torment", "corporeal", "are.", "seems,", "sadness", "ch.", "bury", "12", "er,", "rows", "Af", "separately", "shif", "a\u2019", "canoe", "leaped", "chim", "Thus", "linen", "fright", "1.", "much,", "SA", "mistaken", "better,", "hint,", "ian", "Nor", "burst", "tattoo", "answered", "avan", "lid", "ooke", "toil", "hunters", "iring", "haust", "moreover", "devils", "bold", "possession", "lice", "icorn", "itudes", "neg", "contemptible", "suspect", "symbol", "reality,", "err", "Ele", "them.\u201d", "quity", "come", "established", "hands", "Down", "odd", "boats", "Medit", "Bildad", "conduct", "\u201cVery", "ations", "pad", "sociable", "hence", "brawn", "infernal", "iest,", "underneath", "ensive", "Commod", "ordinary", "plate", "bench,", "script", "dict", "bird\u2019s", "imagination", "penc", "ETYMOLOGY.", "Prophet.", "itated", "Ex", "allusion", "substit", "GU", "premat", "scarcely", "ha", "crews", "needle", "inner", "mir", "casual", "consort", "sleeper", "open,", "since.", "scud", "sock", "strength", "Perse", "embark", "er;", "starboard", "tried", "transfer", "morning", "encounter,", "craw", "legs", "iful", "tow", "Moluc", "manag", "least,", "Lion", "all,", "ared", "irregular", "pose", "devil", "absol", "Aust", "off\u2014", "entrance", "private", "Squire", "prote", "unalter", "including", "round.", "crew", "ife", "miles", "o", "cham", "might", "nice", "aged", "Scri", "_,\u201d", "inked", "C\u00e6", "stuffed", "incidentally", "giv", "stately", "pl", "harpooneers", "\u2018What", "salut", "withdraw", "four", "surrounded", "meanwhile.", "182", "we", "Nightgown.", "_,", "never", "str", "roll", "e!", "ances", "K", "\u201cHe\u2019s", "\u201cHe", "heeded", "Other", "bread", "ness,", "compl", "penn", "Queequeg!", "serious", ".\u2019", "holiest", "Out", "lie", "knob", "least", "possibly", "milk", "blew", "acklu", "ance,", "pedestrian", "deserted", "ves,", "seized", "as!", "says,", "(_Foli", "handkerchief", "dissem", "ish.", "Aye,", "smith,", "Evangelist", "devi", "VO", "coward,", "movable", "Once", "uri", "loath", "solic", "soon.", "poles,", "housings", "assu", "adv", "Enter", "courtes", "ca", "no,", "angl", "ed", "influ", "sober", "inated", "D", "ster,", "above,", "watches", "moun", "Whe", "trembling", "pture", "ds", "steady", "unceas", "sure", "sent", "ency", "derived", "den", "curs", "temper", "resp", "col", "sted", "Egyptian", "display", "sle", "life;", "round", "oil", "ying", "Or", "Ship.", "ay;", "peering", "reveries", "chief", "thereby", "come,", "true.", "sudden", "borrowed", "avo", "interrup", "ast", "civilized", "entit", "meaning.", "astic", "salm", "arr", "is;", "aling", "vital", "teen", "ctic", "hospit", "lu", "icular", "Europe", "drawings", "hover", "\u201cMorning", "In", "doubt,", "about", "morn", "boat\u2019s", "heard;", "sur", "Err", "fortitude,", "h", "awakened", "kitch", "seas,", "majesty", "colum", "3", "diligently", "an\u2019t", "chan", "inscrutable", "disappeared", "his.", "besides", "\u201cWho", "shipped", "y", "mildly", "aboriginal", "\u2014_Sir", "sort", "sharp", "suspected", "imple", "het.", "thin", "land.", "if", "ches", "craft.", "shock,", "cies,", "Advoc", "stit", "favour", "ch", "Hind", "repe", "iled", "uss", "bottomless", "54.", "Dough-Boy", "deliverance", "\u201cLike", "pi", "faith", "ye;", "Squ", "grief", "stayed", "play", "-faced", "steps", "received", "let\u2019s", "northern", "Jack", "Hand", "them;", "Far", "Summer", "Priest", "\u201cIt", "your", "night-", "competent", "\u201cNantucket", "social", "dar", "quarter-deck", "windward", "weigh", "itude,", "treat", "tw", "Shore.", "able;", "circumnavig", "ity.", "boys,", "profound", "here.", "\u2014the", "gaz", "Scripture", "landlord,\u201d", "prophe", "Des", "blending", "mistake", "throwing", "heaven\u2019s", "repugnance", "possible,", "whiteness,", "pasture", "city", "tier", "sid", "monsters", "Squires.", "act", "iet", "9.", "ALL", "turb", "knows", "accursed", "meet", "ichard", "avail", "Brit", "uo", "Specksny", "muttered", "passed,", "shroud,", "hugging", "June,", "der,", "forbad", "aid", "y;", "din", "within;", "melancholy", "off;", "undressed", "top", "limb", "ieth", "deal", "behind", "theless,", "idolat", "sight,", "lungs,", "rew", "breathe", "wind,", "ative", "pistol", "iron,", "49.", "possessed", "milky", "general", "drew", "wakes", "mystery", "num", "-Head", "longitudes,", "too.", "TER", "cit", "streets", "man-", "After", "pop", "ement,", "latitudes,", "jud", "ort", "spot", "Deuteronom", "John", "arb", "counterpan", "conse", "por", "soot", "uplifted", "fare", "tres", "-and-", "harpoone", "boys", "manife", "queer", "mat", "\u2014yes,", "Bay", "cracked", "reput", "Its", "wom", "hug", "run", "pipes", "pear", "phantoms", "hear", "famous", "ref", "storm", "windward,", "ified", "concernment", "horri", "damp,", "Canallers", "devilish", "dock", "se", "mount", "ice", "pol", "agre", "hold", "a", "Turn", "came", "back.", "incess", "own.", "are,", "earthqu", "morning.", "Japan", "judic", "I\u2014", "Sub-Sub-Librarian)", "by", "dim,", "deli", "ges", "cable", "verb", "whale-ship,", "sold", "via", "feat", "py", "co", "nar", "keeper", "hav\u2019", "fur", "Starbuck", "ships;", "oun", "(S", "inward", "Hen", "mould", "id.", "continent", "sect", "\u2014\u201c", "able", "second", "lof", "condemned", "Even", "furnish", "ban", "visited", "omin", "Mogul", "foundering", "Him,", "fields", "indol", "Sou", "Cru", "bell-", "Wheelbarrow", "night\u2019s", "ctav", "ks,", "vit", "ineffable", "head.", "asked", "Roko", "shroud", "occas", "pen,", "Duo", "s\u2019", "tied", "ible.", "indiv", "fishermen\u2019s", "Spitzber", "archite", "spilled", "humor", "scuttle,", "Pacific.", "ahead,", "afternoon", "excitement", "sadly", "fault", "devote", "landlord", "curiosity.", "ourselves", "Ridge", "orphans.", "morbid", "to-", "aloft", "nature.", "fifteen", "ous", "lear", "\u201cSteelkilt", "sis", "mumbling", "pled", "Browne", "men,", "potent", "waters,", "Dut", "TEN", "dread", "\u2014a", "ever-", "jam", "solemn", "Arctic", "toiling", "water-", "ue,", "spher", "blue.", "Pull,", "cruis", "Mol", "half", "wan", "unimagin", "Still,", "each", "Pictures", "thee,", "whale_.", "world!", "arm.", "An", "plored", "beef", "grou", "Spe", "image", "cases,", "school", "So", "ade", "crow\u2019s-nest", "\u201cC", "bab", "Lowering", "fanc", "lay,", "ts,", "instances", "given", "mit", "tong", "meal", "eg", "percept", "unicorn", "instance", "ve,", "grac", "soul.", "tempor", "restricted", "Plin", "moth", "begin", "kno", "Cap", "Poll", "telling,", "drink", "wilful", "inno", "stubb", "affr", "Queequeg,", "Globe", "parce", "wed", "corn", "right;", "cross-", "ways", "fift", "satis", "TE", "prime", "answered,", "using,", "mas", "pulpit,", "south", "visible", "right,", "bese", "Story.", "alive", "hunters,", "asleep", "pe,", "scient", "which,", "stove", "self-", "carrying", "interesting", "bows,", "]", "kind", "mon", "loc", "leeward,", "bulwarks", "ren", "ents,", "batros", "ters", "unite", "deformed", "raw", "noises", "intense", "ll", "experi", "ite", "thousand", "character", "satisfy", "remembered", "mid", "town,", "spring,", "itself.", "ure", "stubborn", "uncommonly", "tress,", "Indian\u2019s", "tom", "meth", "nal", "shoulders", "perpendicular", "inde", "emerged", "accompl", "gen", "figured", "revelry", "pret", "idated", "hest", "mur", "Errone", "further", "lingly", "charge", "Would", "erman", "windl", "beget", "ago,", "it", "periodically", "tro", "scorching", "tran", "Span", "moon,", "icic", "invar", "oblique", "up.", "washing", "Washing", "hands.\u201d", "bamboo", "advant", "ulated", "stern", "left,", "pockets,", "found,", "excit", "cruising-ground", "wretched", "fail", "nel", "chuck", "Gabri", "import", "blo", "Grand", "Those", "incar", "pleasant", "bent", "ky", "species", "active", "romantic", "\u2014_P", "clouds", "comple", "fugitive", "-tail", "snugness", "They", "perish", "aye!", "misty", "rent", "binn", "anatom", "position", "barri", "Black", "Me", "numerous", "conf", "ory", "iceberg", "ward.", "oward", "bamb", "penet", "length", "allowed", "AR", "written,", "Quarter-Deck.", "Starbuck\u2019s", "superiority", "Cuvier", "handle", "gable-ended", "find", "domestic", "secut", "referred", "mist", "arrive", "-fish,", "whale-ship", "ract", "Cuvier,", "bi", "folks", "udding", "inquiry", "fut", "brood", "Linn\u00e6us", "tokens", "then", "Pot", "CT", "mov", "independent", "lect", "\u201cWHALE.", "pity", "coils", "igr", "14.", "\u2018what\u2019s", "itions", "open-mouthed", "ne", "horror", "ans,", "E.", "National", "aves", "dram", "tallow", "spoken", "kill-e", "First:", "malicious", "slee", "Presbyter", "sights", "face.", "Congo", "queer;", "marvels", "ent.", "bow,", "Nar", "gulp", "silver", "quietly", "rolling", "watch", "contrast", "fancied,", "Z", "loit", "able,", "Fishery,", "vault", "depart", "nap", "new-", "ara", "N.", "privilege", "univer", "ence", "pencil", "Lost", "tamb", "conver", "Bible", "that,", "gging", "natural", "intellect", "51.", "terrify", "connected", "cand", "ropic", "keep", "fix", "stuff", "Pequod", "\u201cNo,\u201d", "urned", "glist", "an!", "el", "metro", "eating", "Bear", "owed", "pall", "sole", "ath", "eas", "dream", "narrative", "Version", "stone,", "agen", "Starbuck,", "Sus", "These", "rot", "shore,", "Belsh", "coach", "oul", "anal", "es,", "cted", "image,", "animal", "side-", "panic", "indifferent", "viathan", "gird", "gid", "consider", "Propont", "whether", "thered", "fearless", "horns", "destruction,", "mystic", "Cuvi", "inkling", "I\u2019", "cloth", "6", "furn", "drive", "vapor", "make", "Well,", "clas", "something,", "compared", "SP", "honorable", "ory.", "inst", "asted", "Tom", "middle", "shown", "carpet-bag", "tained", "N", "vol", "Elijah,", "Whaling", "cence", "supre", "stop", "spending", "shirr!", "eats", "sin", "touching", "America", "\u201c_", "old", "plung", "\u2014which", "ached", "receiving", "promont", "fied", "brand", "harpoon,", "lamp,", "beings", "table,", "then.", "\u201cDo", "bon", "nur", "foul", "pressed", "unwonted", "ountain", "Mast-Head", "ISH", "noble", "tip", "hun", "minutes,", "ishing", "be,", "erve", "blank", "*", "island,", "ry,", "\u201cAt", "waist", "ane", "thought.", "che", "gn", "deemed", "cried,", "Round", "timate", "irg", "stock", "sinful", "preserve", "fifty", "spread", "sens", "scul", "barre", "\u2018I", "mate\u2019s", "angelist", "whatso", "interest", "har", "shining", "whaleman,", "stiff", "grasshop", "lording", "\u201cThere", "oars", "at.", "Cachal", "Ramadan,", "iff", "harpooneer,", "pious", "applic", "bea", "swart", "multip", "Voy", "whisper", "liness", "puzz", "showing", "voyage;", "Spermacetti", "countenance.", "Mab.", "hum", "on", "arth", "either", "prow.", "fishery", "holding", "object", "bleached", "random", "article", "fold", "gable-", "gro", "\u2014_U", "itional", "*The", "dart", "thor", "several", "wouldn\u2019t", "mac", "day,", "Presby", "\u2019t", "\u00e8", "Day.", "40.", "ate", "ose", "little,", "fowl", "Sermon.", "Nightg", "ever.", "dismasted", "stand", "meals", "whale\u2019s", "sele", "tambour", "than", "minute", "Peleg", "Men,", "provided", "wheel", "wal", "set,", "thither", "imp", "sol", "overboard", "latitud", "oy", "ank", "me", "Pur", "cope", "support", "life-", "Narwhale", "humorous", "s,\u201d", "everybody", "pewter", "snuff", "laughed", "ve", "as", "us", "Judgment", "malic", "vessel,", "corn-", "ctions", "Es", "ather", "nurt", "located", "absolute", "sides", "Devil-", "towering", "belong", "landsmen", "nails", "aming", "cob", "when,", "scept", "ay,", "prev", "go", "good,", "takes", "Dani", "ess", "feet", "whose", "fath", "systemat", "before", "passing", "ham", "light", "19.", "dressed", "really", "old-f", "butter", "mouth.", "restless", "gest", "profan", "final", "unbroken", "supplied", "clearing", "pra", "professional", "cr", "obeying", "street", "limit", "\u2014however", "attitudes,", "rate,", "use", "shadows", "west", "ome", "occupied", "moved", "mn", "Judg", "Jopp", "crow\u2019s-", "savage", "(_Octavo_),", "valley", "concluding", "hoo", "sperm", "\u201d", "ince", "lass", "twitched", "principal", "lands", "road", "mouthed", "skill", "below.", "there?\u2019", "moment;", "Dick.", "nate", "pri", "hurrying", "Czar", "behind,", "recently", "sets", "whirled", "true", "congreg", "built", "concluded", "(_Duodecim", "With", "heaved", "addressed", "now;", "solid", "less", "flung", "also,", "Spou", "letter", "ing,", "clock", "somehow,", "air,", "phan", "ming", "cruising-", "away", "llo", "ast,", "iousness", "immediate", "superstition", "prejud", "perdition", "ivory", "perceived", "short,", "too,", "Thunder", "Head\u2014Con", "igu", "him!\u201d", "som", "Parad", "Golden", "Though,", "home", "ever,", "Affidav", "world.", "yield", "subordinate", "roo", "woodlands", "cano", "aye,", "seemed,", "Whal", "owned", "jack-knife,", "affectionate", "\u2014_", "whole", "lower", "thought", "peep", "cess", "triangular", "own,", "ages;", "sover", "pains", "bl", "resu", "friend,", "chair,", "flash", "serpent", "vengeance", "Coun", "ong", "Ar", "y_.", "magnitude,", "northward", "warm", "silence,", "curious,", "soul,", "stant", "killed", "jer", "gradually", "var", "blazing", "choose", "squat", "ly,", "shuddering", "knowing", "FRE", "secrets", "sixty", "Seb", "sympath", "nes", "good", "child", "been.", "gold.", "milk-white", "ics", "I\u2019d", "work,", "ites", "non", "formid", "ibr", "surface", "io", "artist", "belief", "ido", "virtue", ".\u201d", "soft", "beg", "embal", "dog", "Chief", "apartment", "ann", "Tarshis", "Antarctic", "whaling;", "kin", "rest;", "am\u2019s", "green", "common", "reg", "pare", "bodies", "come;", "seasons", "nor", "it\u2019s", "poured", "\u201cLower", "infer", "forth", "\u201cHe\u2019ll", "mostly", "enc", "hatche", "top-", "Vine", "\u2018", "press", "mers", "\u201cDinn", "pray", "unch", "magnificent", "develo", "riveted", "neck.", "settled", "Fo", "ades", "Spit", "Daggoo,", "recognised", "secret", "brawny", "Histor", "found", "ax", "forests,", "mountains", "se,", "ers;", "Tars", "Had", "fares", "un", "illi", "Being", "share", "inc", "EE", "whalers", "gaze", "ye?\u201d", "erable", "prof", "shark", "Cape-", "First", "observ", "Lab", "well,", "Pers", "passengers", "\u2019Tis", "raises", "nautical", "vicin", "Rok", "calling", "Horn,", "\u201cMy", "captured", "them.", "based", "join", "mow", "marked,", "pocket,", "ould", "knock", "added", "ively", "\u201cWith", "pursuit", "ring", "ignity", "ced", "ute", "vile", "benevolent", "lost", "ies", "darting", "vult", "oud", "simil", "part,", "swims,", "-water", "reminis", "27.", "corn-cob", "thieves", "ump", "deliver", "certain", "palms.", "Whale)", "forbearance", "superstit", "anded", "slightest", "distingu", "cha", "comrades.", "memories", "process", "word.", "believed", "lines;", "wisdom", "y.", "jolly", "accustom", "Cabin.", "according", "Pacific", "sleet", "leagues", "Try", "dull", "glancing", "17.", "guil", "lion", "cont", "bub", "hav\u2019n\u2019t", "DICK", "Har", "heavens!", "bor", "Which", "bumpk", "comrade", "toilet", "yarn", "observing", "letters", "perm", "needed,", "ious,", "wrong", "ive", "Seas,", "plunged", "recent", "itud", "tore", "batt", "Flask", "Afri", "peculiarities", "Mo", "our", "voy", "hearing", "distance,", "laws", "port", "Sle", "opinion", "mis", "anean", "produ", "ud", "damn", "pest", "father\u2019s", "whereas,", "such", "tags", "DUO", "21.", "tram", "aptain", "water", "rascal", "manner.", "grown", "problem", "twit", "incline", "depths", "graph", "ye!", "dented", "upper", "deck", "thread", "ictor", "lt,", "term", "desk,", "biscuit", "ye.", "fear,", "the", "forms", "week", "ield", "ET", "Gree", "exist", "continu", "azz", "intel", "voyage,", "larger", "look", "vinegar-cru", "eyeing", "pent", "those", "cer", "guttural", "ut", "plane", "noiseless", "because", "sixteen", "ag", "teeth.", "2.", "feeding-", "ave", "hood", "public", "instance,", "amid", "nett", "vo", "concern", "gent", "-headed", "emp", "meant", "gul", "gladly", "special", "sided", "SH", "tattooed", "ictions", "no", "8.", "dropped", "ascri", "score", "ER", "voc", "Ishma", "bodily", "ine,", "else", "classific", "polished", "garden", "destin", "moder", "ye\u2014", "distin", "condemning", "16.", "bows", "lights", "William", "known.", "fle", "sailor", "tled", "anything", "obedience", "included", "cheeks.", "ifully", "WHALE", "abo", "civil", "women", "handk", "ric", "itude", "access", "leviathanic", "issued", "izings", "savages", "missed", "Dece", "der.", "That\u2019s", "hypo", "St", "leave", "cleared", "Krus", "obe", "history,", "pyramid", "downwards", "tail,", "pass,", "symbo", "chap", "Mountain", "genteel", "Lake", "mass", "religion", "guest", "Adam", "marvell", "mor", "memor", "unob", "centuri", "discer", "deser", "side;", "Night-Watch.", "Chap", "ent,", "ti", "heat", "loss", "altar", "Chow", "outline", "kes.", "Jonah\u2019s", "inks", "_.)", "thoughts", "hair,", "Tash", "Pollard", "mam", "uncommon", "indu", "Linn\u00e6", "bless", "True", "think", "eighteen", "dou", "sullen", "life,", "quarters", "care", "cold,", "Besid", "rising", "shut", "pregnant", "cursed", "umble", "shirt.", "then;", "land", "bump", "bottom.", "liber", "design", "marvellous,", "ous,", "comp", "ition", "commod", "vind", "head.\u201d", "bind", "quarter-deck,", "ject", "containing", "conge", "nothing,", "pie", "-up", "conspic", "weeks", "moored", "exic", "naturally", "er\u2019s", "particularly", "Stubb", "reck", "equator", "ulph", "inding", "Con", "tribul", "Re", "closed", "sight", "accident", "burnt", "ating", "ens", "Constantin", "motives", "magnetic", "scen", "requires", "Mat-Mak", "ft,", "Pilot", "?\u2019", "proceed", "asleep.", "ers", "decept", "it!", "whalers;", "ime", "Who,", "Peleg,\u201d", "too", "Instantly", "here\u2019s", "reviv", "plent", "Town-", "\u2014you", "arking", "sand", "Natur", "taining", "loy", "\u201d\u2014", "dil", "example,", "ght", "_by", "bestowed", "insect", "sigh", "carelessly", "Sup", "when", "plagu", "view,", "central", "strong", "pant", "-B", "ures", "tinkling", "age", "saved", "after", "famili", "larboard", "good-", "inn,", "return", "finest", "vessels,", "three,", "Procopi", "tle,", "how,", "shr", "anchor,", "exam", "her\u2014", "th,", "horse-", "bed", "myst", "e;", "sun-", "insur", "squall!", "yard", "stood,", "consist", "win", "liest", "Tit", "it?\u201d", "Hebrew", "insufferable", "wards.", "resurrection", "ness", "seas;", "trapp", "itary", "planted", "string", "oppos", "scattered", "dreadfully", "sails,", "Such", "presented", "stepping", "exact", "unobserv", "traged", "\u201cH", "disd", "weal", "story.\u2019", "Counterpan", "far", "dashed", "seat.", "eye,", "finite", "Th", "ound", "aries", "discre", "dollar", "prospects", "Phil", "steep", "night", "ival", "in-", "A.D._", "Indian", "carries", "Death", "dre", "exas", "ridic", "end,", "Jop", "ix", "Thom", "\u201cStop", "ocean-", "Dough-Bo", "art,", "evinced", "lengthwise", "answ", "wis", "iest", "Fin-B", "Fed", "Inst", "contr", "vest", "his;", "History", "velo", "shelf", "!_", "View.", "wail", "hump.", "Crew", "Bot", "Chapel.", "Christians", "fate", "orning", "ies;", "remotest", "appar", "\u2014_M", "lying", "tremendous", "pay", "over;", "knives", "ahaw", "created", "ains", "ated", "since,", "drun", "monkey", "parl", "times", "Don", "tally", "ayed", "Broad", "Mab", "comment", "alle", "nation", "jerking", "arms.", "blanket,", "acted", "eyes,", "ob", "plainly,", "fearful", "183", "Deut", "hel", "kindled", "Hur", "driving", "Consid", "comparatively", "latitude", "horr", "ge\u2019s", "May", "boat,", "pure", "below;", "aw", "Red", "strong,", "Guine", "whal", "Don\u2019t", "tormented", "Besides,", "prair", "peculiar", "\u201cOh!", "everlasting", "philosoph", "cal", "fishermen,", "enter", "Sunset.", "gang", "confidence", "div", "tains", "look,", "need", "humming", "actually", "from", "dignity", "hea", "blem", "rens", "curiosity", "tall", "terms", "keen", "earth", "est", "vessels", "afloat,", "declared", "comfortable", "polite", "inferred", "akened", "course,", "OO", "magnet", "Just", "Soon", "comprehended", "dam-", "Diction", "weap", "shel", "whi", "down.", "du", "hour", "cean", "fe,", "Were", "ar,", "warrant", "entry", "NA", "maj", "ising", "III.", "match", "-fold", "smith", "distant", "medit", "consideration", "uls", "jumped", "corner,", "tus", "Lee", "Joppa,", "sy", "cher", "chances", "Flask,", "itious", "shepherd", "lot", "summoned", "suddenly", "arily", "shores", "previous", "rolled", "form.", "slo", "says", "north", "fit", "Jonas", "where\u2019s", "Brow", "Why", "leak", "round\u2014", "\u201c\u2018A", "leader", "seam", "king", "ot", "sailing", "immin", "irst", "impression", "appellation", "rain", "monstrous", "loung", "form,", "legant,", "fro", "seeing", "hig", "revolving", "Forecast", "wol", "distinct", "right-", "shove", "often", "Job", "less,", "taffr", "maul", "atmo", "angel", "Pipe.", "ished,", "tim", "fe", "said:", "sympathe", "!\u201d", "plac", "As", "hurried", "abounding", "Perhaps", "contempt", "Peleg.", "discovered,", "curious", "mast-heads.", "meanwhile", "brim", "intellig", "shell", "_this", "Gam.", "hue", "come.", "harpooneer\u2019s", "Oh!", "pew", "colour,", "step", "B", "said,", "rumors", "root", "key-", "IV.", "large", "hunt", "using", "clut", "hermit", "don\u2019t", "br", "affair", "Low", "down;", "ter-", "well", "digest", "morrow", "quantity", "tee", "Patagon", "ring-", "aflo", "airley", "rigging", "Africa,", "packed", "istic", "falling", "invest", "Well", "plan", "let", "ing;", "occasion", "determined", "rous", "clim", "o,", "arn", "_By", "tering", "dancing", "speaking", "wrink", "wooden", "aking", "Whales", "\u201cAy", "main", "begins", "person\u2019s", "even", "-in-", "yonder", "Peleg.\u201d", "daw", "isted", "IS", "sub", "frequent", "produced", "same", "Here", "zza", "persons", "shand", "ke", "free;", "ever", "J", "Beach", "appe", "pilot", "les,", "lerable", "gunwal", "ists,", "seaman,", "bread,", "handfuls", "grazed", "sall", "heal", "Sebastian", "whar", "instinctively", "singing", "show", "cottage", "ions", "perv", "ight,", "bluff", "shrouds,", "Folio", "G", "scores", "shrouded", "ascending", "narrow,", "sa", "lungs", "safely", "consu", "friends", "Paul", "Oft", "pos", "class", "sel", "obser", "mundane", "knew", "calcul", "fire.", "chapel", "z", "ominous", "ace,", "notic", "etern", "twent", "\u2014_S", "lin", "lance", "Shet", "ves", "deep", "been", "wharves", "nomin", "tomahawk!", "av", "mast-heads", "uni", "SE", "pock", "stone", "carefully", "cabin", "Libr", "was", "strick", "spoil", "Pequ", "waters.", "reasons,", "Hun", "ty.", "venture", "Antar", "hur", "fected", "erect,", "dumplings", "Radney,", "iling", "Krusenstern", "so", "dandy", "departed,", "kick", "ation", "Patagonian", "lted", "rare", "delicacy,", "aced", "report", "brimming", "shiver", "satisfied", "uttered", "te", "beating", "service", "confined", "Fe", "acon", "stand,", "barbarous", "vibr", "guess", "amph", "fa", "Sub-Sub-Librarian).", "lightning", "time,", "ized,", "Nothing", "L", "malign", "pil", "fav", "remin", "puffs", "Dan", "leading", "dost", "edd", "district,", "Whale;", "68.", "holy", "coast,", "icture", "barnac", "illing.", "Captain", "shriek", "improve", "\u2014_I", "and", "toge", "vic", "ary,", "y-", "wigwam,", "hund", "Nantucket.", "Ni", "ugg", "taking", "please", "badly", "orig", "amp", "tink", "(_Octav", "through", "likes", "thrice", "departed", "mad", "l", "mom", "generally,", "Hob", "pertaining", "Ph", "signific", "escape", "gs", "throw", "-of-", "EX", "proverb", "BOOK", "Sabb", "tail", "bottom", "emot", "meas", "districts", "incident", "encounter", "DUODECIMO", "his", "Ere", "_hval", "left", "illy", "stopping", "anybody", "lord,", "hugest", "places", "37.", "ushered", "scientific", "visibly", "immortal", "warrior", "seen,", "extens", "Sam", "ium", "limbs,", "proceeded", "cool,", "finds", "exhibiting", "lose", "refle", "\u201cSt", "icy", "regarded", "quit", "contri", "pyr", "bag,", "wherefore", "forbade", "additional", "claim", "collected", "bec", "self", "Fre", "coin", "Or,", "C\u00e6sar", "DU", "kill", "asle", "V.", "h,", "ching", "descri", "nightmare", "beach,", "Friend.", "extra", "opposite", "reef", "fash", "phal", "sensations", "Americ", "es;", "name,", "ors.", "flame", "man", "enough;", "calculating", "whites", "long,", "oil.", "Queequeg,\u201d", "OLD", "Cook", "j", "considered", "mood", "cur", "shir", "holds", "-e", "sat", "ning", "society,", "helm", "tur", "ral", "sheet", "to-night", "Convers", "ations,", "ys", "altogether", "drop", "unwarrant", "necess", "warm,", "kicked", "refer", "iety", "associ", "rebel", "resem", "white,", "none", "gal", "School", "Scoresby,", "Platon", "putting", "Senor", "subl", "thing,", "aken", "death,", "26.", "lively", "hearted", "ree", "tremend", "an", "happ", "hole,", "uggling", "carry", "theory", "fr", "log", "ts", "mast-heads,", "ged,", "Street.", "pring,", "men;", "ision", "shabby", "gri", "fore-", "inexplicable", "Nantucketer,", "\u201cOn", "ashed", "More", "oh!", "Dives,", "alo", "impossible", "voyages", "Think", "Ishmael.", "quarrel", "fine,", "Sebast", "either,", "ike", "usk", "continual", "seems", "A", "lounging", "authen", "harpoons", "Elephant", "impuls", "off", "appare", "attack", "imperial", "life!", "is_.", "hammer", "abomin", "boot", "Thus,", "sea-", "23.", "Ac", "ropes", "sultan", "priority", "(_S", "Foli", "acqu", "inexplic", "brave", "met", "prelim", "odds", "arches", "sunset", "(Sperm", "vessel", "I.", "antique", "air", "servator", "unless", "morning,", "furnished", "immedi", "es", "sabbee", "concentr", "ain", "weight", "Hindoo", "_).\u2014This", "whaling", "perd", "enjoy", "Mat-Maker.", "wind", "Steed", "well.", "Bildad,", "among", "universe", "chas", "\u2014there,", "uncomfortable", "rose", "spite", "sab", "(", "croo", "announ", "nostrils", "fully", "resides", "sir", "struck", "speaking,", "ering", "serve", "why", "command.", "search", "sit,", "Spirit-Spout.", "captains,", "sty", "ink", "daring,", "parm", "hollow", "levelled", "months", "hunch", "combin", "he,", "heaven,", "Every", "eness,", "irc", "Quohog", "item", "orious", "Ze", "hair", "essay", "whales.", "author", "ghastly", "\u2018The", "litt", "year", "slanting", "(_Aside", "whit", "perilous", "steadfast", "St.", "ate,", "ere", "Boat", "heard", "am,", "-N", "Louis", "attending", "pilo", "enormous", "\u2014I", "mighty", "at-", "ake", "anxious", "privile", "police", "nevertheless,", "night;", "colt", "BLE", "satisfactory", "title", "bles", "its", "stern,", "indic", "tame", "TU", "ised", "seamen,", "person", "stop,", "Seas", "ladder", "handkerchief,", "shed", "profit", "propri", "heaven", "smallest", "she", "entered", "nine", "rait", "tempest", "seas.", "Steady,", "fet", "wall,", "-room", "Steel", "levell", "Eight", "admon", "everything", "lied,", "seen.", "cor", "Mrs.", "Ishmael", "tically", "critical", "stones", "deed", "bespe", "get", "three-", "Queequeg", "tears", "aneous", "sides,", "Paradise", "Saturday", "Spitz", "further,", "Lowering.", "ward,", "\u2018wise", "Alf", "alleg", "aster", "nav", "ible", "application", "Lon", "me!\u2014", "countenance", "break", "Why,", "cot", "ors,\u201d", "phr", "seventy-", "it\u2014", "FOLI", "butt", "decl", "ioned", "glided", "hop", "horn", "hull", "Polynes", "another", "degree,", "once,", "borne", "Our", "spo", "Yes,", "fat", "sauntering", "No:", "flukes", "Bedford.", "manufactured", "verse", "-West", "NANTU", "yea,", "wo", "insular", "noisel", "Pl", "mitt", "ran", "Ah", "ahoy!", "read", "sweeping", "compet", "hath", "..", "ed;", "ledge,", "naturalists", "these,", "-she", "dra", "sou", "fin", "eral", "Their", "inserted", "events", "thirteen", "since", "ending", "-fish", "in", "respective", "inch;", "sleeves", "inquire", "thern", "prevail", "safet", "tides", "20.", "fisher", "substanti", "needles", "superlat", "tomahawk,", "op", "see,", "diff", "He", "cock", "W", "Engl", "dust", "forty", "Cor", "complexioned", "A.D", "rear", "Col", "funeral", "Isol", "shaped", "slip", "weed", "Because,", "Che", "ascribe", "contem", "guess;", "shape,", "sublime", "Hussey", "Constant", "umped", "feet.", "High", "assigned", "viol", "male", "whole,", "empt", "o\u2019clock", "stage", "vitality", "concent", "Cut", "indirectly", "depth", "you.", "extended", "e", "grow", "cent", "busy", "crucifix", "2", "bree", "in\u2019", "exter", "boiling", "Y,", "shipmate", "weather,", "Tran", "hour,", "one", "planing", "argu", "chiefly,", "CHAP", "Harr", "churches.", "pap", "wet", "weaving", "happened", "hooked", "determin", "temporarily", "ork", "f,", "writt", "overwhel", "EE-NUEE-NUEE,", "having", "Eng", "H", "Toward", "refill", "RE", "barbar", "identical", "deliber", "Cod", "outrage", "breaking", "their", "impress", "belt", "you;", "son", "mates", "ded", "bas", "sug", "naut", "concerning", "whispered", "whirl", "warri", "avast", "barrow", "planks.", "trip", "lantern", "iting", "without", "therein", "wat", "Lay", "degre", "eventually", "\u201cTo", "pumps,", "ce", "hitherto", "Bet", "Emper", "Can\u2019t", "true,", "afraid", "leg,", "mariner,", "irregularly", "whatsoever.", "various", "ently", "ub", "absent-minded", "omn", "tree,", "ill", "sh", "temporary", "colt,", "twelve", "thirty", "TAI", "tossed", "age;", "descending", "\u201cSir", "tain", "contrad", "Coll_.", "Gom", "nailed", "fingers", "glim", "transition", "this,", "unmethodically", "bus", "arts", "ness.", "apparition", "ende", "produce", "Fates,", "hang", "V", "man.\u201d", "MAN", "statement", "sitting", "44.", "awful", "us;", "bring", "Ramadan", "MEMOR", "coast", "go.", "watching", "Ad", "Present", "eager", "ibly", "Meantime,", "rushed", "ev", "-mast", "erous,", "probably", "Med", "ackluy", "Lord", "butch", "refuge", "buffalo", "being,", "madness", "reminiscences", "sepul", "colour", "forlorn", "dism", "forgotten", "her,", "conc", "dub", "rob", "together.", "sust", "For", "judging", "Wal", "only", "marshal", "office", "teeth,", "first,", "embell", "call", "business;", "bin", "painting", "Queequeg.", "always", "strove", "sir.\u201d", "present", "steer", "life.", "high,", "glistened", "ye?", "perman", "Genes", "detached", "Bul", "king,", "\u201cShipmates,", "silvery", "jib", "WAL,", "truth", "again.", "sea;", "Sea", "cannibals", "wor", "vast", "Ha!", "motive", "archangel", "conversed", "Merry", "(Supplied", "hal", "S.", "English", "ikin", "plain.", "entirely", "plainly", "times,", "priest", "Pre", "accompanied", "mast,", "alter", "card", "\u2019T", "fellow,", "\u201cHollo", "whir", "harpooneers,", "wigwam", "whip", "whales;", "homeward", "held", "standing,", "adventur", "Glo", "?\u201d", "shadow", "fled", "eries", "Chas", "cheerless", "copestone", "ise", "hatch", "Natural", "Fedallah.", "gable", "oured", "newly", "Yet,", "Steelkilt.", "Se", "coolly", "prob", "oftent", "enough", "wild,", "rapidly", "pushed", "Shark", "glaz", "rents", "ext", "wear", "Start", "da", "shelf,", "yon", "Say", "Goney", "enraged", "united", "descript", "Project", "contrasting", "sake", "trans", "bucket", "feel", "ers.", "Congreg", "applied", "Polar", "boom", "strike", "besid", "The", "pot", "His", "princip", "urb", "beside", "anted", ",000", "creature", "slave", "spiritual", "thar", "sailed,", "perpendicularly", "shirt", "look-", "profoundest", "activity", "swiftness", "mine;", "stay", "IST", "oil-", "reminisc", "Par", "eternal", "MA", "there.\u201d", "wi", "sc", "silent", "pat", "clothed", "papers", "sized", "34.", "seamen.", "fumbling", "\u201cAye,", "ess,", "satisfa", "subsequent", "surprise,", "ungod", "of;", "shoes,", "tle", "boys!", "\u2014and", "cave", "me;", "Alle", "way\u2014", "ake,", "\u201cL", "blast", "ground", "arp", "out.", "hs", "Man", "ours,", "udden", "swell", "el,", "barricade,", "Letter", "enor", "success", "utmost", "ers!", "increased", "polit", "who", "Roman", "Whiteness", "uc", "al.", "u", "ass", "faint", "check", "dismast", "midnight", "boldly", "combination", "ies,", "uel", "introdu", "convenient", "Fishery", "inser", "n\u2019t", "should", "throne", "telling.", "vent", "attached", "fish;", "assure", "mole", "yellow", "36.", "shot", "docks,", "Cha", "good.", "here.\u201d", "occup", "leaves", "body", "Pacific,", "me?", "unspeak", "punch", "owing", "Let", "ustom", "venerable", "endeavored", "al", "terrific,", "went", "vivid", "story", "grove", "interior", "dusk", "crew.\u201d", "dinn", "sical", "night.", "arried", "grammar", "wedded", "ior", "literally", "both", "crossing", "ceiving", "ci", "crow", "then,", "piece", "within", "ments", "OL", "extant", "TH", "darted", "destru", "ark", "Quarter-", "doze,", "Like", "entitled", "Gu", "Long", "Town-Ho", "ities.", "ronom", "jeal", "lashing", "careful", "port,", "is", "hand,", "fishery,", "shipmates,", "acetti", "southern", "therefore", "suffice.", "crooked", "Hump", "compan", "ashore.", "tending", "terror", "aft.", "ninet", "scatter", "ched", "-po", "in_", "hunted", "upright", "includ", "expressive", "ceed", "murmured", "essential", "captain", "Whale_.", "gard", "perceive", "there,", "afford", "gras", "stronger", "Ori", "ceremon", "l,", "gush", "FREN", "thunder", "springs", "noted", "lings", "s.\u201d", "unnatural", "fleet", "allow", "immemor", "day", "(Sup", "T,", "lip,", "bra", "quite", "Astir.", "window,", "yet", "bay", "silly", "thump", "liken", "select", "eld", "race,", "wonder,", "blocks", "dro", "hurri", "hopelessly", "ser", "perfect", "maxim", "pots", "exce", "man\u2019s", "manned", "ks.", "us.", "stro", "preach", "anx", "tell,", "11.", "dark", "intelli", "ic", "Proco", "now", "Owen", "Hyena.", "de", "south,", "ors", "case.", "barren", "SAC", "baleen", "rap", "iction", "-f", "trem", "Africa", "packet", "howling", "speech", "Baron", "\u201c\u2018S", "gle", "ado", "palm", "judg", "rope", "there;", "gress", "\u05d7", "superstitions", "feeling", "shuttle", "-like", "passion", "Pr", "shaking", "rep", "six", "sounds,", "rian", "sun", "ech", "ke,", "democra", "name", "answer", "excellent", "lan", "gone", "former", "Stre", "passenger", "experiment", "upwards,", "ulating", "WHALE,", "spl", "ross", "voyages,", "loading", "generally", "aked", "pull", "complied,", "substantial", "harm", "skin.", "et,", "utterly", "ily,", "surve", "strangers", "mone", "tufted", "Sleet\u2019s", "denomin", "Nantucket,", "ce,", "ters,", "Trap", "placed", "splice", "correctly", "belly", "\u2014as", "craft", "down", "robes", "origin", "hem", "isol", "unex", "aps,", "\u2019s,", "o_)", "object,", "hands,", "y!\u201d", "demon", "shavings", "pointing", "seaport", "ho", "pom", "doubtless", "possibility", "sounds", "att", "\u201cR", "ang", "sl", "\u2014to", "wrought", "stripped", "AL", "you?\u201d", "po", "drab", "stricken", "compliment", "madden", "desires", "already", "sen", "by.", "mock", "Flask\u2019s", "symptoms", "pulpit", "was,", "Errom", "stud", "tings", "likeness", "ental", "explain", "oung", "Stand", "ting,", "unbidden", "aving", "ly.", "taw", "orders,", "\u201cCan\u2019t", "es.\u201d", "ific", "mo", "attempts", "wildness", "bright,", "capture", "fast", "sim", "counten", "shortly", "swinging", "Jonah,", "cord", "bloody", "Cet", "faithful", "rough", "hate", "absent", "Romish", "Orig", "bone", "suspended", "quis", "proc", "ient", "exhaust", "thus", "sar", "Harris", "census", "Remember", "rage", "dear", "why,", "-side", "aspect", "Cab", "claimed", "ske", "confess", "decided", "Egy", "witch", "glar", "remo", "worthy", "diver", "conscious", "moving", "afterwards", "self,", "padd", "!\u2014there", "earth\u2014", "instead", "begged", "emin", "coat,", "belonged", "flank", "Stead", "surround", "survived", "ixed", "\u201cBy", "omit", "cry", "und", "pered", "CK", "gentlemen", "higher", "dumb", "power", "jour", "look-outs", "\u201cAll", "shipping", "finger", "intrep", "fli", "circumstance", "supper?", "fixed,", "forced", "\u201cYou", "aint", "head", "us.\u201d", "text", "stooped", "Deuteronomy", "grounds,", "natur", "ou", "\u2014when", "a\u2019s", "poss", "hat", "ines", "\u2019em.", "unched", "subt", "sk", "feature", "Certain", "tempestuous", "bri", "latent", "concer", "mean,", "OR", "pave", "inced", "appears", "river", "standing", "fir", "ball", "patched", ".\u2014", "Sag", "Sun", "ambition,", "abhor", "inevit", "grim", "sink", "ings,", "\u201cis", "only,", "hab", "India,", "superior", "Jove", "forces", "company", "unconquerable", "Atl", "Meant", "Si", "striking", "pedest", "offic", "How", "wholly", "st", "hope", "called", "Ju", "encountered", "ians", "ct,", "\u201cAnd", "whereas", "turbaned", "invo", "complete", "el.", "Atlantic", "bed.", "obed", "minds", "hopeless", "wondered", "hunted.", "methodically", "honest", "celer", "landed", "Mountains", "cannibal,", "damp", "North", "remembr", "tranqu", "constern", "se.", "rop", "impart", "weep", "worth", "forehead", "seven", "-ship", "reliable", "few", "ele", "ided", "heart", "ates.", "rest", "guard", "wonders", "Oriental", "swe", "salt,", "Loom", "lurked", "aft", "pulling", "will", "trouble", "dash", "Counterpane.", "pirates", "buck", "prodig", "if,", "dece", "ces", "Gl", "houses", "nurtured", "burn", "itable", "fancied", "out", "foot-", "crow\u2019s", "\u2014in", "capable", "les", ".", "Day", "cart", "tomahawk", "ite,", "form", "father", "HA", "ast.", "purpose", "so;", "usu", "Virginia", "made", "Ter", "external", "permitted", "gunwale", "sufferable", "Hence,", "ado,", "tum", "objections", "ceived", "board.", "King-Post,", "lar", "cannib", "more.", "secre", "rib", "fits", "waves,", "Bulking", "monoman", "moody", "settle.", "told", "resurre", "breakfast,", "gently", "hump", "\u201cMast-head", "sweet", "coward", "\u201cB", "spend", "charitable", "belie", "nerv", "ful,", "flag", "differ", "will,", "black", "pumps", "shades", "metaphysical", "omed", "bot", "sinn", "Chil", "Nantucket_.", "wont", "hero", "WHALE.", "ides", "obsc", "objects,", "AN", "lips", "grandeur", "peace", "penny", "with", "31.", "habit", "ust", "struct", "commotion", "thir", "endless", "bursting", "divided", "Only", "bred", "Inde", "reasonable", "d", "agu", "SAIL", "Biographical", "what?\u201d", "towing", "planks", "tel", "tooth", "whereby", "cru", "haz", "physical", "piled", "arched", "bear", "ire", "hom", "desir", "waters", "crying", "days.", "almost", "clo", "ford", "defy", "mum", "ial", "catast", "prolonged", "moments", "invited", "\u2014_Holland", "bold,", "Be", "mind", "lurks", "window", "knee", "crowning", "beautiful", "inter", "o_),", "uel,", "(Supp", "around", "exclam", "forecast", "broiled", "Ha,", "it;", "Mediterr", "vell", "Christian", "Ce", "Leviathan,", "partic", "nam", "heaven.", "e.\u201d", "sn", "eternally", "Spouter-", "occur", "jump", "better", "Fin", "ings;", "intent", "thr", "fellow", "indeed,", "s!", "\u2019ll", "lowly", "repugn", "absence", "gas", "denominated", "commen", "truly", "ants", "fire-", "fo", "DICK;", "\u201che", "bount", "M", "room,", "God", "pretend", "vel", "ual", "ages", "appall", "ggy,", "is,", "rant", "consciously", "16", "bowels", "Hard", "Labrad", "entially", "democracy", "storm.", "sway", "tens", "dam-me,", "ost", "blood", "supposed", "Flound", "chool", "71.", "popul", "spi", "Whale\u2019s", "accompany", "days\u2019", "sympa", "DI", "mother", "Gramp", "up,", "Gold", "speed", "De", "Sm", "mean?\u201d", "cabin.", "sports", "encer", "true;", "contrary,", "art", "lt", "one,", "ken", "Sub-Sub-Libr", "sounded", "She", "generations,", "\u201cAvast", "abundant", "him?", "section", "isted,", "tarp", "swells", "occurred", "corrup", "thing.", "fellow\u2019s", "downright", "melancho", "offing", "aver", "red-", "all-", "sabbe", "Langsdor", "fain", "way", "concl", "elapse", "lied", "strange,", "spring", "has", "consid", "path", "cutting", "rubb", "repeated", "are", "1", "rings", "Cast", "vember", "lowered", "Un", "ores", "llow", "grey", "original", "reverie", "wants", "acres", "Lima,", "chimney", "seizing", "name.", "presently,", "migr", "nostr", "ice,", "girls", "For,", "regular", "pers", "attering", "\u2014aye,", "facing", "crew,", "probability", "certainly", "bo", "remained", "aring", "contract", "scri", "mast", "Porpoise", "gun", "ween", "sorts", "hands.", "law", "ros", "wrath", "command,", "oar", "\u201cCaptain", "13", "stands", "steward", "whales.\u201d", "wedding", "glimp", "unin", "ped", "Delight", "cy", "chorus", "gallant", "\u201cNo", "Peleg,", "ange", "vert", "corpo", "Ishmael,", "laying", "dressed,", "batter", "under", "gale", "wealth", "ebon", "Water", "fitted", "shap", "adventurous", "sun;", "intrepid", "riot", "Cad", "rubbing", "attling", "Whale_;", "\u201cNo,", "bowed", "thro", "le,", "o\u2019clo", "Oh,", "\u201cNow", "ize", "le", "bro", "cles", "Chace,", "Carpet", "orders", "Tail", "possessing", "infli", "seemed", "myster", "firm", "incl", "Bennett", "ure,", "ood", "pred", "abel", "guise", "dev", "chaps", "tragic", "fore-castle", "princ", "cott", "hammo", "York", "apt", "dumpl", "front", "rise", "itive", "Surmises.", "houses,", "des", "bug", "skrim", "completely", "false", "vinegar-", "sleeping-", "fig", "god", "secur", "ra", "7.", "blows!", "ocean.", "Melvil", "endeavor", "offering", "ak", "enem", "wrinkled", "ring,", "paw", "furiously", "Pro", "arest", "hearty", "\u2019tis", "stout", "Who", "succeed", "monomaniac", "superstitious", "informed", "ing,\u201d", "words,", "pronoun", "cool", "Spain", "Cl", "cheeks", "soon", "discovered", "which", "ableness", "stan", "thing", "a,", "papers.", "tickled", "fal", "brow", "ude", "towards", "Greek", "Ben", "R", "reconciled", "cold", "chart", "whalemen.", "oint", "inquir", "shab", "persu", "Thou", "fishes", "Christians,", "puff", "Woe", "cop", "paused", "acco", "iam", "Postscript", "ct", "had", "amoun", "Shipwreck", "rip", "estim", "Marth", "Virgin", "word", "impressions", "pagan", "asc", "sufficient", "ton", "brain,", "fun", "infallibly", "ise,", "brig", "ained", "evening", "indispens", "unerring", "tail.", "succeeded", "EL", "apparent", "sea,", "ason", "Her", "himself", "While", "ships,", "Cadiz", "uding", "Biographical.", "ailed", "Father", "imagin", "splinter", "help", "snowy", "suggest", "ETYMOLOG", "star", "Now", "hence,", "forecastle", "con", "alt", "fid", "t", "ator", "Tit-b", "longest", "performan", "attention", "pale", "gallow", "ana", "ye", "desol", "look-out", "faltering", "Bl", "org", "occasion,", "emotions", "continued", "primal", "Str", "sevent", "far-", "whale-hunter", "bled", "loft", "\u2014there", "gaining", "birds", "constit", "cords", "ay", "Daggoo", "bal", "aft,", "pre-", "irt", "prove", "\u2014an", "disappointed", "saying,", "unwon", "authority", "elab", "pected", "Chart.", "phantoms,", "aston", "Per", "consternation", "steers", "completed", "One", "hail", "ex", "heathen", "yourself;", "Harpoone", "Surely", "uck", "north,", "jacket,", "fellows", "mild", "\u201cMr.", "cour", "valu", "inf", "\u2014(", "haunts", "Again,", "worn", "angle", "matter", "picked", "creaking", "pens", "Mor", "Dick;", "oper", "alco", "antly", "copy", "im", "sorry", "mel", "rul", "nose,", "reconc", "onom", "tat", "Dictionary._", "innocence", "ye\u2019ve", "ag.", "ning,", "Qu", "uct", "revel", "vessel;", "friends,", "looks", "ocean,", "assign", "fishery.", "man!", "purely", "twain", "pa", "00", "sweep", "acle,", "When,", "tolog", "history", "Freder", "trump", "plaguy", "intently", "ago.", "sacri", "Co", "ers,", "feed", "principle", "whale!", "Bennett\u2019s", "relig", "aboard", "attle", "uously", "limber,", "brace", "stuck", "insisted", "pron", "Dusk", "induced", "room;", "customary", "swi", "monster", "trust", "meeting", "Midnight", "af", "bit", "creatures", "ammar", "wash-stand", "ison.", "pals", "three", "couldn\u2019t", "fore", "shoal", "I\u2019m", "appear", "udg", "dimly", "earthly", "ft", "ull", "acet", "30.", "replen", "mat,", "ace", "gave", "s;", "Beale", "dance", "regularly", "prayers,", "utter", "le-", "drunken", "\u2014all", "landlad", "knees", "expanse", "alone", "Yanke", "difference", "motioned", "order.", "Harb", "handed", "lighted", "of.", "gigantic", "BOO", "beyon", "-looking", "Night", "I\u2019ve", "door", "Monstr", "prey,", "pulled", "dangerous", "Affid", "ways,", "sleep.", "abin", "ard", "property", "beaut", "best.", "sher", "pipe,", "usion", "exasper", "known,", "treach", "Islands", "slid", "what\u2019s", "warr", "\u2014was", "ensu", "Post", "chasing", "\u2019em;", "desired", "tatters", "volu", "Ahab.", "\u201call", "hu", "PE", "_)", "part", "seldom", "safe", "gled", "angs", "fum", "doll", "Ram", "didn\u2019t", "noticed", "smile", "em", "satisfact", "vain", "inning", "hosp", "mark", "pain", "dive.", "52.", "Spirit-Sp", "Thy", "Second", "nt", "(_Reclining", "arms", "Starb", "TA", "mankind", "lance,", "fectly", "him;", "ces.", "ease", "considerable", "exhib", "bagg", "At", "recall", "Ano", "\u2019ve", "jaw", "aped", "not.", "scut", "slightly", "commun", "immense", "nameless", "out,", "#", "doz", "Bre", "that;", "you\u2019d", "ious", "that.", "contracted", "converted", "voice,", "whittling", "fair", "respectable", "surprising", "capt", "couple", "ic,", "Carpent", "curbstone", "pe", "cre", "considering", "whaling,", "mod", "sign", "il", "es\u2014", "merc", "cheek", "Mag", "ubi", "shipmate,", "this:", "superst", "employ", "Dusk.", "arian", "withdrawn", "children", "cas", "unspeakable", "spire", "Wheel", "rainbows", "attained,", "face,", "poet", "lowering", "Sebastian;", "hinting", "\u2014\u201d", "aceti", "forward", "Old", "carpenter\u2019s", "meanest", "counting", "repl", "current", "reading", "refu", "arrival", "fish,", "off,", "rushing", "young", "beard", "And,", "communic", "ascribed", "craft;", "ears", "Lakeman,", "\u201cthat", "gr", "mid-", "Carp", "subaltern", "ordin", "swims", "rest,", "east", "fountain", "Tashtego", "tolerably", "me!", "cra", "als", "Az", "conven", "BER", "Aboard.", "12.", "whales", "rand", "stories", "erest", "me?\u201d", "men?\u201d", "permanent", "indifference", "coun", "soul", "could", "\u201cShip", "overbearing", "wanting", "world,", "pin,", "loved", "fail,", "ilit", "Nor\u2019", "iven", "ebook", "\u201cSing", "Sir,", "comm", "mention", "ows", "degree", "punct", "throat", "good-bye", "beneath", "revenge", "Thinks", "Whale", "chich", "advanced", "Gay", "withdrew", "Hark!", "Lat", "\u201cWhat", "quiver", "objection", "Less", "\u2014_A", "may", "purporting", "uten", "blowing", "muf", "furthest", "lical", "un.", "day.", "mariners", "fears,", "24.", "Sabbath", "Call", "chair", "chest", "weather", "ucket", "portrait", "Rokovo", "especially", "afore", "\u2019d", "imes", "lift", "isel", "still,", "similar", "artic", "Queequeg\u2019s", "project", "jaws", "From", "save", "research", "convey", "sun,", "consequent", "\u201cWell,", "valiant", "\u201cQueequeg,\u201d", "wise,", "Eri", "?", "infinite", "rudely", "entire", "fear", "jet", "inches", "conscientious", "accountable", "rather", "bumpkin", "wife", "conqu", "loitering", "head,", "selves", "palsied", "decks,", "quo", "ascend", "pres", "y,\u201d", "ured", "ug", "blackness", "marit", "other", "Give", "earth.", "urch", "\u201cThat", "smoo", "dum", "content", "Steelk", "hundredth", "(_", "DUODE", "King,", "rushes", "BY", "insomuch", "bag", "were,", "ber,", "elap", "direful", "naught", "lic", "roc", "actively", "va", "skir", "isk", "prom", "miss", "Jun", "beheld", "lung", "uded", "um", "follow.", "agreed", "nose", "carpet-b", "got", "er.", "phrase", "Bildad;", "occasionally", "bis", "apart", "primitive", "vineg", "red,", "slipper", "obey", "al,", "vis", "dee", "move", "thous", "keeps", "pacing", "hoisted", "red", "itch", "ition,", "stepmother", "touch", "ter.", "bound", "ship\u2019s", "charts", "hip", "ith", "liter", "nations", "48.", "pale,", "ail", "always,", "lieu", "smoke,", "barricad", "Cach", "umbling", "fling", "together;", "bust", "dri", "Cachalot", "how", "aggy", "presume", "rejoind", "terrors", "gold", "lessly", "back", "ra,", "Arch", "seal", "single", "bears", "iless", "anoint", "steadfastly", "lest", "coff", "intelligent", "beyond", "row!", "plant", "Coff", "propriet", "Washington,", "silken", "serv", "Life", "canv", "Mark", "imin", "Devil", "exp", "atter", "easy,", "ha,", "immen", "int", "ord", "work;", "pig", "desire", "quest", "SPANISH", "trun", "hog", "money", "follow", "Commodore", "degrees", "jewell", "oft", "wakened", "Where", "Amer", "separate", "papered", "o\u2019clock,", "carried", "posed", "joke", "tanning", "eyed", "Killer_.", "navig", "ledge", "dilig", "inv", "late,", "Kings", "conviv", "small", "jumping", "od", "jo", "Ever", "cherished", "HAN", "Dough-B", "\u2014don\u2019t", "does,", "swimm", "arri", "pilgrim", "officers", "summer", "Whale.", "gliding", "A.D.", "rench", "\u201cGood", "storied", "choice", "uniform", "wrist", "hardy", "death", "tap", "known", "partly", "disposition", "mil", "ambitious", "ignorant", "yes,", "?_", "27", "fra", "-backed", "Nantucketer", "altogether,", "Specksnyder.", "bowspr", "sap", "hams", "aspect.", "adapted", "wight", "bod", "child,", "No", "Sh", "brought", "stash", "Bedford,", "after-", "swimming", "latitudes", "again,", "a;", "obliged", "empty", "athirst", "Mr", "peddling", "foolish", "Indeed,", "ors,", "Hark", "sprang", "band", "sky", "ling", "ney", "Whence", "pull,", "pine", "snugly", "demanded", "wit", "runs", "Specksn", "Elijah", "iz", "acious,", "appearance", "magnific", "cratic", "word-Fish", "undress", "aches", "ount", "cks", "flitt", "shirr", "connexion,", "eag", "now,", "eagerly", "reported", "please,", "Cabaco", "Voyage", "present,", "e\u2014", "anim", "works", "not,", "two", "down,", "chor", "mariner", "rive", "_;", "preserving", "X", "indispensable", "\u2014_Ho", "li", "scene.", "nd", "na", "while,", "carved", "Now,", "chow", "By", "who,", "ry", "Alleghan", "ias", "miz", "Yojo", "world;", "sad", "fles", "blance", "finding", "\u201cQueequeg,", "affe", "comparison.", "thie", "destroy", "frost", "include", "Mich", "circum", "bethinking", "smelt", "swept", "chiefly", "points", "quality", "secure,", "simult", "usurp", "vocation,", "Three", "whale;", "mast-head,", "unlike", "Whales.", "Yo", "ull,", "politely", "pulpit.", "breeze", "par", "Whaling.", "projecting", "CH", "reng", "reel", "cts", "Ed", "Bio", "DUODECI", "lee", "door,", "Chowder.", "require", "friendly", "ME", "earlier", "calculated", "field", "portion", "immemorial", "conceits", "storm-", "aled", "ation,", "stra", "orpoise", "outlandish", "ilo", "myself,", "Zeal", "stair", "anchor", "filed", "appearing,", "windlass,", "whale,", "Young", "thence", "here;", "\u2014that", "things,", "-deep", "spr", "boat;", "pantaloons", "Going", "manner", "dig", "wr", "adieu", "deck,", "pervading", "shrieks", "unaccountable", "sat,", "I,", "poor", "There,", "argued", "chaos", "filled", "rested", "stroke", "What", "Ah,", "Gab", "cap", "v", "intervals,", "plug", "thrown", "sometimes", "despair", "king\u2019s", "went,", "islands,", "umph", "absurd", "ib", "ibbald", "ior,", "time!\u201d", "big", "Back", "trad", "pausing", "Asi", "Nantucket", "agencies,", "ement", "course", "kept", "mate.", "set", "prehens", "Scotch", "acy,", "Danish", "one;", "house,", "Ahab;", ",\u2019", "related", "Quak", "Heaven,", "pip", "grate", "an,", "cing", "clining", "fire-place,", "obliquely", "honor", "War,", "gentle", "harpoon", "is.", "refuse", "Pedro", "loving", "liked", "Christ", "clam", "bu", "smoke", "ent", "enjo", "idol", "hide", "\u201cM", "Ann", "homage", "Bulkington", "Cle", "mercy", "stal", "point", "itting", "ermon", "fri", "prince", "\u2014not", "weltering", "umber", "ish,", "\u2014_Holland\u2019s", "Town-Ho\u2019s", "interest.", "swim", "erected", "signs", "swam", "mad,", "questions", "hands;", "posing", "lodge", "line", "thick", "mutineer", "harpooneer.", "assa", "right", "anon", "Spitzbergen", "MATE", "swore", "ne\u2019s", "ordered", "outer", "eye.", "tick", "hereafter", "ugitive", "Gutenberg", "offered", "pedition", "FOLIO", "ential", "Are", "prov", "Pequod.", "\u201cQueequeg!\u2014", "aught", "racted", "jealous", "split", "ack", "All", "Tashte", "seek", "29.", "corresponding", "conce", "sails", "\u201cyou", "say.\u201d", "eh", "x", "umb", "hissed", "Ch", "pher", "decks", "Besides", "vessel.", "wra", "tumble", "captains", "locker", "ask", "portentous", "closely", "visits", "victor", "entertain", "but,", "trees,", "wh", "line,", "symboli", "igh", "eye", "globe,", "globe", "ction", "comes", "naked", "Scen", "happens", "til", "Breakfast.", "stave", "ed,", "respons", "acious", "muffled", "\u2014_Ibid", "to-night,", "experiences", "listen", "lofty", "Lord,", "mous", "Steelkilt\u2019s", "definition", "sheeted", "table;", "eel", "\u201cWe", "anity", "flint", "teaches", "or,", "pur", "strange", "gene", "substance", "matters", "street,", "buil", "head-peddling", "bed,", "Whale-ship", "underne", "chip", "leaders", "darkness,", "said", "him\u2014", "magnanim", "recklessly", "jured", "dist", "modified", "disastrous", "inch", "skull", "great", "back;", "enough,", "manufact", "whale\u2014", "Never", "ia,", "meaning", "Albin", "hell", "then?", "perched", "chosen", "Pac", "turban", "id", "fancies", "Some", "upon", "handker", "ians,", "sail,", "inordinate", "horse,", "desper", "ready", "deline", "Im", "were;", "mouth", "assuming", "gu", "ek", "\u201cThis", "sudden,", "\u201cand", "redden", "mouth,", "ats", "qu", "house", "ions,", "know", "robust", "entering", "South", "ically", "crock", "necessary", "ruin", "whalebone", "precisely", "charac", "DE", "bedfellow", "Spirit-", "clos", "cuse", "order,", "Sermon", "Eu", "wind.", "ase", "endeav", "tarpaul", "smells", "lovely", "eye;", "leg", "ey", "church", "ither", "spout", "lur", "version", "Whales,", ")", "glimpse", "udge", "ation.", "coming", "DAGG", "aud", "branch", "sea.\u201d", "alike", "sult", "much", "Third", "compr", "f", "hints,", "airth", "wonder", "concerned", "Sen", "unfathom", "jaw;", "Scoresby", "honor,", "errors", "quarter-deck.", "53.", "her.", "(the", "order", "paid", "features", "tuf", "grew", "vibration,", "ature", "bell", "hulls", "aping", "plum", "ies.", "wondrous", "ascended", "idol,", "there\u2019s", "super", "substitut", "not", "exting", "ung", "\u2019ye", "push", "q", "wash", "41.", "Whale,", "iding", "eng", "_R", "hen", "face", "hangs", "Fri", "table", "harpooneers.", "_S", "would,", "a.", "indire", "purse,", "direct", "et.", "strange.", "crack", "me.", "Meanwhile", "due", "bearded", "s_.", "fill", "Tarshish", "frantic", "rel", "way.\u201d", "furious", "sumpt", "home,", "bulk", "Ahab", "IP", "ough", "new", "aim", "twenty-", "\u2014_C", "sir,", "resulting", "fire", "future", "ye!\u201d", "denied", "tok", "be", "astern", "y\u2019s", "here?", "strained", "-handed", "boat", "gather", "Inn", "lim", "whale", "ary", "Thrasher", "ont", "mind,", "calm,", "RO", "state,", "_).\u2014", "imper", "still", "usive", "Stubb,", "manage", "fer", "Tur", "pu", "cannot", "centre", "vague", "emotion", "enrolled", "fiercely", "harvest", "Poly", "\u2014this", "custom", "mast.", "man.", "read,", "canvas", "ohog", "able.", "aining", "returned", "defin", "dle", "list", "-devil", "musk", "slouched", "acy", "belonging", "rejo", "uner", "had,", "gaunt", "\u201cJust", "say.", "girl", "heed", "Sub-Sub", "glanced", "pressure", "whatsoever", "fall", "whe", "sit", "bolts,", "favourite", "cann", "appalling", "led", "greate", "importance", "quee", "rist", "mast-head.", "agg", "Slave", "silence", "zz", "van", "turn", "viewed", "trick", "ment.", "knowledge", "greater", "cheap", "i,", "Charley", "however,", "wield", "delight", "scorn", "arch", "hovering", "inging", "task", "uno", "England", "condem", "stairs,", "Porpoise.", "simultaneously", "die", "\u2019S", "traditions", "conne", "fatality", "suff", "ass,", "Bildad,\u201d", "rec", "tucked", "le;", "prosecution", "insane", "),", "handled", "prelimin", "ab", "surpass", "-ee", "Damn", "s?", "seen", "did", "familiar", "mater", "plumed", "Fin-Back", "Good-", "cask", "watch,", "ulphur", "fashion,", "tightly,", "pling", "keeping", "Emir", "prow", "of", "hered", "benevol", "inal", ");", "Will", "Cabin-Table.", "anguish", "ople,", "histor", "joy", "doubt", "games", "Ty", "Octav", "withstand", "wide,", "logy", "ice.", "inhabit", "resting", "ley", "coupled", "whalemen", "plenty", "belonged.", "ery", "hunting", "wav", "glad", "pepper", "oceans.", "Presbyterian", "comparative", "Albatross.", "When", "broad-", "To", "pep", "Hyen", "conclud", "comprehension.", "walked", "fell", "mort", "ding", "imag", "would", "arrived", "-st", "ld", "board,", "Br", "mine.", "two,", "flinging", "strictly", "Ten", "\u2014\u201c_", "ague", "Have", "vig", "put", "goin\u2019", "tun", "cent.", "except", "burn,", "here", "others,", "flow", "attack.", "weapons.", "chaplain", "Fore", "slain", "snat", "per", "closer", "there", "IC", "gentleman,", "per-", "bloom", "brother", "shud", "Po", "voice", "quently", "leaping", "agger", "harpooneer", "fron", "awo", "phantom,", "mber", "or.", "twice", "iment", "distinction", "enty", "Flask.", "Scot", "for,", "won", "ved,", "itself", "more", "sooner", "Chase\u2014", "ze", "So,", "bench", "wonderful", "aint;", "0.", "Look", "credit", "gazing", "profession", "bidden", "hither", "guttur", "goes", "agent", "\u0153", "desc", "main-mast", "strength,", "subtle", "left;", "worship", "depicted", "ening", "threatening", "Affidavit.", "volume,", "arms,", "marvellous", "ance.", "ships", "anging", "whaling-", "cts,", "_The", "salt-", "December", "That", "itle", "bid", "revol", "somewhat", "prow,", "selected", "dip", "superfluous", "Nantucketers,", "joined", "ger,", "easy", "grad", "cad", "secured", "so?", "Rock", "divis", "k,", "sav", "sword,", "beasts", "ks", "dexter", "13.", "Among", "Holy", "served", "knif", "himself.", "Latin", "And", "nominally", "ach", "rid", "telling", "send", "peculiarly", "on.", "icament.", "Queen", "athed", "board", "coming.", "motion", "chanced", "Wheelbarrow.", "Wall", "captain.", "blubber", "ge,", "preserved", "dusty", "trowsers", "conclude", "absur", "slow", "alas!", "fowls", "flu", "white", "lting", "sir;", "apople", "blow", "century", "scho", "gut", "ably", "constant", "mut", "at,", "one.", "out;", "Ange", "llen", "height,", "w", "pt", "magic", "oman", "account", "scre", "Angel", "remote", "threat", "Mat-", "43.", "previous,", "allel", "\u201c\u2018Nay,", "room", "individ", "rah,", "accompan", "Belshazz", "figure.", "grass", "lesson", "isto", "swords,", "broken", "dry", "resumed", "dictator", "jets", "blue", "exasperating", "island", "immediately", "dive", "virt", "Deck.", "cooper", "ain\u2019t", "sul", "producing", "15.", "Gomor", "Seeing", "ular", "chased", "once;", "me\u2014", "ste", "orpo", "insu", "sailed", "previously", "Langs", "T", "Icelandic", "this", "anti", "Hebre", "Ye", "fetch", "s\u2014", "S", "fine", "_you_", "Porpo", "forest", "ful", "radi", "typ", "did.", "boarders", "performing", "Ind", "ates", "whale.\u201d", "August", "settle", "instantly", "dress", "themselves", "too\u2014", "tre", "ish", "auth", "pipe.", "you,", "side", "makes", "castle", "Willi", "ing", "announcing", "My", "harb", "recip", "hung", "place.", "hurry", "commerce", "nameless,", "vill", "Tech", "east,", "22.", "singular", "Lou", "oil,", "kes", "sailor,", "spon", "caut", "Sub-", "symptom", "native", "ility,", "mutually", "Song", "United", "hurry,", "together", "working", "spe", "hints", "affright", "enlist", "oning", "whist", "last,", "hot", "icient", "U", "seem", "Porpoise,", "enlar", "readily", "saying", "caps", "am", "bull", "acquaint", "wel", "boisterous", "oh", "confounded", "Sub-Sub-Librarian", "first", "ffer", "OCTA", "Bottom", "ate.", "State", "arrow", "suppose", "O", "weld", "moods,", "Still", "be;", "quiet,", "witnessing", "once", "dollars", "expanded", "milli", "attempt", "torn", "say;", "aven", "foremost", "Nature", "\u201c", "sort,", "abs", "Fair", "horizontal", "world-", "say,", "candid", "overboard;", "iac", "accosted", "lessness", "hauled", "bore", "OF", "prec", "billows", "noon", "commanded", "experienced", "Something", "blessed", "savages,", "ized", "PIP", "elsewhere", "fable", "ets", "lied.", "bulwark", "remain", "caught", "going,", "excell", "cting", "Gr", "yet,", "thousands", "itself,", "civ", "period", "compar", "uous", "cons", "descend", "spec", "walk", "mast-head", "delirium", "invariably", "hilar", "commenced", "anut", "-o", "ving", "o\u2019", "siz", "ip", "ener", "free", "yourselves", "Ahab?", "\u2014it", "buy", "unk", "unreason", "pour", "squ", "joint", "out!", "\u2014_Ibid_.", "shouted", "stood", "straightway", "hunter", "moonlight", "have", "Night-", "\u2014_D", "particulars", "Cu", "psalmod", "craz", "\u201cQuick", "making", "coloured", "tling", "States,", "isting", "\u201cHow", "instances,", "gay", "commended", "insult", "mysterious", "talk", "fing", "5th", "bleak", "ouching", "Poor", "ime,", "deadly", "there,\u201d", "covered", "all;", "fac", "not;", "seemingly", "accordingly", "leviathan", "unearthly", "legs,", "But", "-o-", "fixed", "eenth", "shock", "door.", "impat", "to!", "Ped", "be.", "gunwale,", "pier", "whale-ships", "v\u2019", "ones", "ble", "cabin-", "through.", "memory", "popular", "hidden", "beginning", "fact;", "Southern", "eks", "woe", "g", "\u2019", "prim", "fin,", "ilded", "avenu", "base", "watery", "surmis", "bald", "Scores", "battle", "ron", "ses", "seethe", "skin", "aved", "cruising", "domin", "Author", "war", "daily", "\u201cWhere", "gif", "heave", "-box", "narr", "sp", "rope,", "Swain", "engra", "profoun", "possess", "logg", "coron", "revenge.", "comprehens", "complex", "spear", "before,", "every", "pub", "allusions", "sees", "long.", "abb", "marchant", "ETYMO", "deliberately", "WAL", "le.", "ingly", "linked", "swift", "trod", "stretched", "local", "teeth;", "behold", "originally", "whale-", "View", "hit", "lull", "sloop", "Sub", "fect", "anged", "(_Duodecimo_),", "lod", "youth", "pulp", "._", "method", "roared", "ant", "extracted", "surprised", "pre", "\u201cLandlord!", "ing.", "10.", "that", "timber", "hundreds", "\u2014for", "queerest", "Spanish", "sword-fish", "Then,", "stairs", "iard", "ister", "scalding", "short", "-house", "forl", "ist", "bolt", "bre", "broke", "bleed", "irit", "C", "horrid", "Nantucket.\u201d", "\u03c2", "remains", "exer", "boys;", "bir", "monst", "iron", "wigw", "half-", "Voyages", "er", "thed", "eight", "wast", "dreary", "horiz", "peak", "Manhat", "cries", "benches,", "night,", "while;", "ational", "Washingt", "mot", "\u201cbut", "s.", "exc", "complexion", "establ", "Led", "ingl", "significantly", "Chinese", "significant", "_.", "Dictionary", "proposed", "Head\u2014Contrasted", "ctly", "give", "0", "widow", "jaw.", "for", "fortun", "ant.", "oc", "crazy", "naturalist", "words", "do.", "wrap", "leaning", "opening", "cattle;", "hon", "edge", "enr", "substitute", "disting", "42.", "stranger,", "say", "\u00a3", "\u201cThat\u2019s", "began", "rupt", "growing", "disorder", "pipe", "soci", "Ramadan.", "five", "water;", "grap", "\u2014how", "tob", "batross", "queer,", "highest", "past", "bapt", "ages,", "minutes", "MO", "x.", "trunk", "$", "Ab", "os", "plank,", "dest", "flee", "scor", "calls", "prudent", "Rokovoko,", "oney", "cross", "\u201cWhat\u2019s", "Postscript.", "him,\u201d", "centur", "strip", "ig", "nay,", "dared", "colle", "28.", "seventy-seven", "Buffalo", "conscient", "Hosea", "ain,", "ves.", "_you", "perils", "White", "ictory", "n,", "hob", "ableness,", "means", "Cetology.", "?\u201d\u2014", "frequently", "Esse", "izing", "pow", "Island", "47.", "apping", "remember", "sme", "33.", "anyways", "prepared", "thumb", "print", "Y", "\u201cCap", "influence", "pitching", "symp", "him.\u201d", "ked", "extracts", "gathered", "phys", "quick,", "sits", "_),", "fow", "finally,", "men.", "exactly", "unknown", "ty", "masts", "cast", "boo", "Heaven", "fl", "keel,", "square", "ented", "remarkable", "officer", "yaw", "some", "capstan", "Mast", "open-", "presence", "sung", "study", "whoever", "idea,", "stre", "shot,", "bar", "obli", "annual", "ar", "metropolitan", "supper", "leng", "London", "brain;", "on;", "obst", "below,", "backed", "indefinite", "jol", "hatches", "want", "Log", "renched", "Leviathan?", "Quaker,", "Crossed", "tumbl", "solely", "breed", "surpr", "fulness", "Sperma", "ises,", "No,", "xim", "while", "with,", "punchbowl", "fam", "modif", "sporting", "shudder", "moment,", "distended", "ility", "ur", "fight", "dedic", "ial,", "prep", "breakfast", "\u00e6", "mus", "\u201cSp", "dec", "sharing", "jaw,", "made,", "introduced", "pard", "ler", "ild", "chimney,", "caused", "ridiculous", "whatsoever,", "11", "family", "Tah", "graphical", "Stubb,\u201d", "swung", "suspic", "angular", "breadth", "hill", "retain", "We", "rises", "Upon", "exclaimed", "ideal", "lain", "coll", "picking", "sea-monster", "arro", "ars", "pect", "Much", "aghast", "Euroclydon", "person,", "accord", "Hus", "needs", "Come", "sho", "wrig", "days,", "iew", "erous", "circumstances,", "8", "marble", "pul", "add", "fight,", "\u201cG", "what", "proud", "comfor", "can\u2019t", "years", "sucking", "ously", "reflections", "coal", "horizon", "Reg", "twisted", "tossing", "Sum", "roar", "gain", "business,", "King-Post", "hid", "ly:", "nothing", "ones,", "deliri", "hundred", "chief-mate,", "though", "uses", "infallible", "landlord,", "ship-board", "frosty", "unworthy", "won\u2019t", "plank.", "monstr", "There\u2019s", "barb", "commer", "pill", "dyspe", "now?", "pping", "Dou", "furi", "house.", "villan", "Mir", "Fedall", "doom", "But,", "ru", "sno", "Parliament", "stir", "Mon", "large,", "master", "swayed", "creak", "pilot-", "hall", "scr", "SACRE", "formed", "ices", "\u201c\u2018Turn", "iveness", "Cz", "emigr", "\u2019em", "temp", "spur", "fearfulness", "athe", "real", "cl", "thrust", "beaver", "ali", "attain", "ired", "tested", "ard-", "Ir", "Scenes.", "waters;", "ponder", "talking", "ilies", "squares", "cod", "appro", "Jon", "fly", "page", "Lima", "Head\u2014Contr", "indif", "smoking", "TO", "Essex", "Mapple", "foreign", "power;", "funn", "56.", "Church", "gar", "world", "strangely", "bones", "nin", "lines", "pursued", "boats,", "acle", "tend", "wa", "Obed", "peril", "effect", "agent,", "Bild", "others", "pun", "seaman\u2019s", "filling", "gale,", "forehead,", "earth,", "awake,", "Quohog,", "another;", "inferior", "Pip!", "aside", "fins", "suming", "fi", "war-", "-stone,", "proved", "gallons", "abound", "NG", "conveys", "sticking-", "hammock", "periodical", "bill", "object.", "saith", "specific", "other.", "clad", "9", "processions", "placing", "cli", "cakes", "cked", "drag", "bethink", "purplish", "pend", "tobacco", "humanity", "spare", "salt", "lex", "more,", "understanding", "\u2014\u2018", "ordinate", "Carpet-Bag.", "destroyed", "wore", "sunny", "exceedingly", "Yet", "enced", "grinning", "magn", "exe", "reve", "waste", "lies", "Ro", "time.", "Ish", "sacred", "now.", "neigh", "Up", "os,", "cloud", "do,", "(like", "curved", "preh", "seeming", "Captain,", "\u201cMay", "Vineyard", "tast", "glittering", ";\u2014", "troubled", "steaks,", "murder", "draw", "Great", "\u201cNow,", "apo", "-e,", "wondr", "eper", "fancy", "pitch", "gg", "wine", "clothes", "contin", "ie", "backing", "ional", "fre", "Sunday", "ance", "specim", "acquainted", "Therefore", "thre", "Stra", "fullest", "hous", "barbaric", "accoun", "lly", "softly", "ush", "k", "app", "ical", "air;", "itudes,", "dis", "staring", "mead", "Jonah.", "castor", "He\u2019s", "kneel", "shone", "\u201c\u2018", "did,", "ences", "willing", "sym", "Good", "dismally", "fish.", "wild", "in.", "deeply", "purport", "200", "calm", "sal", "tid", "suspe", "MEM", "anchored", "map", "absor", "tor", "ging", "scuttle", "Dav", "Fr", "deter", "hatchet", "ck.", "Ste", "noise,", "wasn\u2019t", "ated,", "wearing", "away,", "-sk", "Cong", "aneously", "\u2014_Thomas", "equal", "untu", "ially", "quire", "suc", "artific", ",000,000", "record", "nevertheless", "prod", "cook", "pon", "amaz", "malice", "oned", "Sw", "spray,", "Harpo", "bambooz", "carri", "zen", "\u2014_Richard", "idea;", "Mr.", "LO", "suppose;", "spar", "twitch", "influences", "car", "Leg", "noise", "it,", "back,", "contour", "porpoise", "close", "forecastle.", "ram", "dream,", "\u201cwe", "usur", "comical", "employed", "psal", "zing", "idea", "sought", "ished", "bosom", "craven", "4", "paying", "announced", "ove", "tear", "nearly", "dr", "cover", "fathom", "lifting", "spel", "sup", "kne", "nat", "unconqu", "olding", "opin", "ings", "scal", "Picture", "little", "whaleman.", "ind", "hurrican", "impet", "Rokovok", "es:", "Nevertheless,", "bracing", "slowly", "entat", "stepped", "oath", "complain", "ple", "poo", "ted", "this.", "praying", "chips", "expression", "lingered", "Tal", "month", "abund", "omen", "sea.", "action", "spell", "delic", "receiv", "tion", "strongly", "wherever", "host", "beech", "names", "swiftly", "ins", "Head", "fact,", "Tell", "Tru", "whenever", "strand", "bare", "beholding", "milk-", "generous", "entry,", "(as", "trows", "ras", "for.", "again;", "greatest", "passed", "way,", "sell", "way;", "goblet", "sett", "wards,", "any,", "gregarious", "ornament", "love", "Husse", "us,", "spaper", "afr", "quir", "devo", "rack,", "leap", "waking", "Tart", "Sc", "ly", "him", "Ret", "cruc", "written", "thinks", "circ", "_that_", "didst", "c", "Christmas.", "Egypt", "Starbuck!", "boy", "launched", "that\u2019s", "full-", "snow-white", "greatly", "uffalo", "afterwards,", "ucked", "rat", "haven", "violent", "acc", "reco", "genial", "dral", "shakes", "food", "unwarrantable", "friend", "charm", "handspi", "weapon", "adequ", "flowing", "work", "det", "bing", "Cabin", "admir", "scrap", "dint", "ery,", "les.", "shun", "planks,", "regard", "manner,", "ading", "uff", "NAN", "wildly", "pre-emin", "crown", "carpet-bag,", "matter,", "murderous", "screw", "cond", "cheer", "mann", "ashore,", "cri", "curios", "\u2014why", "West", "weary", "**", "affect", "EXTR", "canoe,", "at", "lone", "in;", "enh", "\u03b7", "flood", "screwed", "warn", "ended", "swallowed", "travelled", "going", "Plat", "purpl", "Green", "such,", "God!", "downward", "glo", "Zealand", "teeth", "whaling.", "lead", "stem", "barn", "ith,", "iver", "fishers", "invol", "grego", "felt", "minded", "indeed", "that?", "risk", "song", "derive", "nor,", "On", "\u201cA", "heart,", "-bound", "ash", "wood,", "ws", "bedstead", "bad", "contemplation,", "touches", "separ", "will.", "writer", "voices", "toi", "oose", "El", "spouting", "hor", "hailed", "shepher", "followed", "ah", "bling", "Pip", "way.", "fru", "pable", "earnestly", "beach", "net", "com", "inside", "glasses", "these", "bearing", "chowder", "encountering", "reveries\u2014", "ghast", "just", "skelet", "Eurocly", "but", ",", "Lo", "EXTRACTS.", "figure", "gives", "crit", "val", "gloom", ":\u2014", "lamp", "es.", "hand", "wre", "\u201cwhat", "-and", "dreams", "Krusen", "take", "end.", "thine", "ETY", "observe", "acity", "\u201cLook", "sheep", "we\u2019ll", "tide", "carted", "sleepy", "prior", "ion;", "he\u2019s", "phe", "catching", "glance.", "Frederick", "him.", "about,", "conceit", "Light", "artificial", "ird", "extraordinary", "idol;", "shook", "oured,", "SAILOR", "pieces", "cannot,", "Sy", "possible", "lives", "boister", "own-", "low,", "loudly", "emb", "speak", "trying", "barrels", "hunks", "exper", "p", "sake,", "\u201cI", "something", "gentlemen,", "gener", "word,", "snug", "abl", "fishermen", "seventy-seventh", "\u201cYes,", "can", "MANX", "other,", "7", "inclined", "quent", "accustomed", "alluded", "late", "akes", "assem", "pointed", "Him.", "mates.", "comrades", "hap", "stooping", "moral", "Bar", "lad", "discern", "lances", "brea", "Breakfast", "ef", "NANTUCK", "Wh", "vious", "elbow", "harbor", "Hy", "sure;", "longer", "ahead", "ates,", "whaler", "sleeps", "finally", "exh", "Surmis", "hearts;", "\u05d5", "case,", "whence", "heart;", "er_.", "named", "If", "conve", "\u2019s", "antic", "low", "invested", "ribs", "\u201cThe", "binnacle", "al;", "music", "jack", "EXTRA", "interven", "sport", "perform", "zed", "ew", "glance", "freely", "remove", "Nor,", "dim", "otherwise", "continually", "deeper", "presu", "ore.", "twel", "haunted", "world\u2019s", "Of", "people\u2019s", "pread", "collect", "appeared", "prodigious", "arm", "ragged", "Speck", "reaching", "whereby,", "iter", "previous;", "viciss", "creature,", "s\u2014I", "orial", "convivial", "\u2014never", "ense", "Ahab,", "valuable", "body;", "land;", "port;", "quarter", "hole", "reach", "What\u2019s", "captain\u2019s", "iny", "anks", "handful", "myself", "along,", "(by", "died", "Que", "i", "asser", ",\u2014", "meat", "indefin", "courage", "ored", "waving", "Pres", "stroll", "self.", "almighty", "constrain", "10", "ward", "Moss", "hopeless,", "smo", "what,", "lock", "promontory", "ware", "\u201cD", "erect", "whet", "reached", "langu", "landsc", "gh", "element", "sword", "dividing", "rad", "cases", "est,", "pit", "born,", "\u2014\u201c_Narr", "scene", "cell", "sever", "surviv", "(that", "end;", "supernatural", "Is", "ought", "chest,", "place", "unseen", "rim", "voyage", "Monstrous", "likewise", "experience", "gl", "in,", "mortal", "dismember", "en", "spect", "thank", "worshipping", "hammock.", "Pat", "behavi", "relie", "retained", "boil", "sure,", "Any", "\u201cLandlord,\u201d", "dragged", "rush", "onor", "companions", "Go", "heathenish", "however", "bly", "imposing", "spirit", "men,\u201d", "cannibals,", "love,", "resid", "stranger", "attended", "passeng", "cou", "wears", "came,", "ings.", "any", "increas", "peddl", "recogn", "catar", "lay", "all.", "tiller", "Bur", "stab", "shad", "purpose,", "P", "sec", "gazed", "minut", "mechan", "raised", "skeleton", "identity", "celebr", "ook", "ulous", "head-", "Circ", "unpleasant", "agree", "pike", "deceit", "Astir", "water,", "unusual", "mixed", "philosopher", "Break", "veil", "all", "plain", "a!\u201d", "prosecut", "shore", "quills", "thee", "Stop", "sail.", "subalter", "lip", "20", "Yan", "ned", "test", "spoke", "idly", "\u03c4", "confound", "wherein", "CI", "grounded", "oars,", "meditation", "looke", "mal", "a-whaling,", "depend", "Leviathan", "calabash", "drawing", "distinguished", "Bo", "her", "dep", "sem", "rah", "baleen.", "ament", "Carpet-B", "curb", "lif", "Eleph", "ge.", "landlady", "changed", "publ", "Jonah.\u201d", "\u201cLand", "bert", "biscu", "EXT", "quarter-", "another,", "event", "offer", "events,", "prevent", "done!", "appell", "landscape", "metropolit", "speak,", "agan", "stat", "flour", "whalemen,", "als_.", "infidel", "bidding", "frosted", "pane", "pregn", "Not", "preser", "men", "again", "pedd", "bandaged", "T.", "wig", "cried", "Nant", "oceans", "\u03f0", "repent", "negro", "Book", "ladies", "rate", "mat.", "sufficiently", "liver", "societ", "35.", "deliberate", "intended", "receive", "SAILOR.", "hears", "ben"], "merge_rules": [["t", "h"], ["i", "n"], ["th", "e"], ["a", "n"], ["e", "r"], ["a", "t"], ["r", "e"], ["o", "n"], ["o", "u"], ["e", "d"], ["i", "s"], ["e", "n"], ["in", "g"], ["a", "l"], ["an", "d"], ["o", "f"], ["s", "t"], ["o", "r"], ["a", "r"], ["t", "o"], ["e", "s"], ["a", "s"], ["i", "t"], ["w", "h"], ["s", "e"], ["h", "e"], ["l", "e"], ["o", "m"], ["o", "w"], ["l", "y"], ["c", "h"], ["b", "e"], ["i", "l"], ["a", "d"], ["th", "at"], ["i", "m"], ["g", "h"], ["h", "is"], ["u", "t"], ["al", "l"], ["v", "er"], ["n", "o"], ["c", "e"], ["i", "d"], ["s", ","], ["l", "d"], ["v", "e"], ["s", "h"], ["w", "i"], ["en", "t"], ["l", "i"], ["c", "k"], ["a", "y"], ["a", "b"], ["wi", "th"], ["f", "or"], ["u", "n"], ["m", "e"], ["i", "r"], ["a", "in"], ["w", "as"], ["er", "e"], ["e", "t"], ["gh", "t"], ["a", "p"], ["l", "l"], ["r", "o"], ["s", "u"], ["m", "o"], ["a", "g"], ["r", "i"], ["\u2019", "s"], ["e", ","], ["i", "on"], ["t", "er"], ["k", "e"], ["o", "o"], ["d", "e"], ["wh", "al"], ["h", "im"], ["s", "o"], ["i", "c"], ["q", "u"], ["ou", "t"], ["no", "t"], ["s", "a"], ["on", "e"], ["ou", "n"], ["a", "m"], ["u", "r"], ["u", "p"], ["b", "y"], ["the", "r"], ["th", "is"], ["p", "o"], ["a", "st"], ["om", "e"], ["b", "ut"], ["w", "e"], ["p", "er"], ["f", "r"], ["es", "s"], ["y", "ou"], ["il", "l"], ["c", "t"], ["m", "an"], ["b", "o"], ["p", "e"], ["h", "a"], ["u", "l"], ["c", "on"], ["fr", "om"], ["ou", "s"], ["n", "e"], ["ar", "d"], ["e", "m"], ["ow", "n"], ["ou", "ld"], ["i", "p"], ["an", "t"], ["f", "e"], ["a", "re"], ["r", "a"], ["the", "re"], ["W", "h"], ["wh", "i"], ["T", "he"], ["ar", "t"], ["u", "s"], ["es", ","], ["s", "ome"], ["n", "ow"], ["i", "f"], ["c", "om"], ["h", "ad"], ["m", "y"], ["i", "ght"], ["on", "g"], ["y", "e"], ["o", "re"], ["th", "ou"], ["sh", "ip"], ["t", "ain"], ["ha", "ve"], ["oun", "d"], ["is", "h"], ["l", "o"], ["p", "re"], ["o", "ld"], ["e", "ver"], ["th", "ing"], ["B", "ut"], ["p", "l"], ["se", "l"], ["in", "d"], ["w", "ere"], ["s", "."], ["whal", "e"], ["a", "k"], ["a", "c"], ["ed", ","], ["t", "e"], ["d", "er"], ["ou", "r"], ["w", "ay"], ["wh", "o"], ["li", "ke"], ["u", "e"], ["whi", "ch"], ["d", "o"], ["or", "t"], ["b", "l"], ["g", "e"], ["o", "ver"], ["the", "n"], ["the", "y"], ["the", "ir"], ["e", "x"], ["u", "m"], ["wh", "at"], ["wh", "en"], ["T", "h"], ["is", "t"], ["up", "on"], ["w", "or"], ["u", "st"], ["o", "ther"], ["e", "qu"], ["en", "d"], ["ab", "le"], ["g", "o"], ["s", "p"], ["e", "l"], ["mo", "re"], ["v", "en"], ["oo", "d"], ["i", "g"], ["u", "re"], ["t", "r"], ["mo", "st"], ["oo", "k"], ["f", "ore"], ["the", "m"], ["a", "ck"], ["t", "im"], ["sel", "f"], ["g", "re"], ["er", "s"], ["an", "y"], ["ap", "tain"], ["at", "e"], ["it", "t"], ["in", "to"], [".", "\u201d"], ["it", "e"], ["w", "ould"], ["u", "ck"], ["o", "d"], ["at", "ion"], ["al", "ly"], ["y", ","], ["i", "ve"], ["n", "d"], ["H", "A"], ["se", "em"], ["T", "E"], ["st", "r"], ["th", "an"], ["S", "t"], ["a", "f"], ["h", "ab"], ["p", "ro"], ["l", "and"], ["s", "s"], ["ing", ","], ["m", "en"], ["TE", "R"], ["h", "er"], ["s", "c"], ["e", "p"], ["se", "a"], ["he", "ad"], ["C", "HA"], ["CHA", "P"], ["CHAP", "TER"], ["c", "o"], ["ou", "gh"], ["be", "en"], ["d", "own"], ["an", "ce"], ["b", "le"], ["A", "hab"], ["e", "g"], ["sa", "id"], ["a", "ke"], ["c", "l"], ["a", "v"], ["i", "ous"], ["s", ";"], ["id", "e"], ["in", "t"], ["g", "r"], ["Q", "ue"], ["o", "p"], ["su", "ch"], ["c", "an"], ["of", "f"], ["i", "v"], ["the", "se"], ["al", "e"], ["A", "nd"], ["ab", "out"], ["f", "a"], ["w", "ill"], ["ar", "k"], ["c", "re"], ["Que", "equ"], ["Queequ", "eg"], ["it", "y"], ["l", "ong"], ["H", "e"], ["sa", "il"], ["h", "ow"], ["e", "st"], ["ag", "ain"], ["s", "ay"], ["o", "se"], ["h", "and"], ["p", "r"], ["w", "ard"], ["h", "ar"], ["m", "at"], ["on", "ly"], ["in", "k"], ["c", "a"], ["ag", "e"], ["il", "d"], ["thou", "gh"], ["ur", "n"], ["p", "art"], ["i", "re"], ["re", "e"], ["l", "ess"], ["l", "ook"], ["it", "s"], ["f", "ul"], ["i", "es"], ["ver", "y"], ["w", "at"], ["\u2019", "t"], ["v", "o"], ["th", "ose"], ["l", "itt"], ["i", "ck"], ["or", "n"], ["u", "d"], ["litt", "le"], ["in", "e"], ["C", "aptain"], ["se", "e"], ["as", "s"], ["th", "r"], ["s", "pe"], ["f", "l"], ["t", "w"], ["er", ","], ["g", "l"], ["you", "r"], ["gre", "at"], ["I", "t"], ["d", "id"], ["a", "ch"], ["bo", "at"], ["y", "et"], ["at", "ed"], ["t", "ed"], ["an", "c"], ["wh", "ere"], ["h", "as"], ["d", "ay"], ["n", "ess"], ["b", "r"], ["I", "n"], ["m", "on"], ["i", "e"], ["u", "ch"], ["h", "ere"], ["le", "g"], ["it", ","], ["be", "fore"], ["an", "g"], ["h", "o"], ["af", "ter"], ["seem", "ed"], ["u", "b"], ["st", "ill"], ["en", "ce"], ["li", "ght"], ["l", "ast"], ["c", "ould"], ["ne", "ver"], ["p", "t"], ["es", "."], ["com", "p"], ["u", "ll"], ["i", "an"], ["tim", "e"], ["har", "po"], ["him", "self"], ["m", "ad"], ["ever", "y"], ["thou", "ght"], ["to", "o"], ["as", "h"], ["Wh", "ale"], ["m", "ust"], ["t", "urn"], ["c", "oun"], ["m", "ight"], ["or", "d"], ["ir", "st"], ["we", "ll"], ["s", "w"], ["c", "r"], ["ed", "."], ["m", "ent"], ["r", "ound"], ["f", "ish"], ["ig", "n"], ["m", "uch"], ["tw", "o"], ["?", "\u201d"], ["m", "er"], ["d", "is"], ["s", "ort"], [",", "\u201d"], ["b", "er"], ["is", "e"], ["re", "d"], ["k", "now"], ["per", "m"], ["a", "ce"], ["n", "ight"], ["st", "and"], ["m", "ay"], ["a", "w"], ["v", "ing"], ["c", "er"], ["e", "ven"], ["wh", "ite"], ["be", "ing"], ["him", ","], ["g", "ood"], ["F", "or"], ["_", "."], ["ul", "ar"], ["th", "ree"], ["s", "er"], ["t", ","], ["ri", "ght"], ["!", "\u201d"], ["t", "ing"], ["a", "th"], ["o", "b"], ["b", "ack"], ["ll", "ow"], ["v", "i"], ["th", "ink"], ["ar", "m"], ["whi", "le"], ["d", "es"], ["c", "ri"], ["ap", "p"], ["a", "h"], ["re", "ad"], ["c", "u"], ["wor", "ld"], ["f", "irst"], ["h", "un"], ["or", "y"], ["as", "k"], ["v", "es"], ["s", "id"], ["i", "gh"], ["ar", "b"], ["thr", "ough"], ["me", ","], ["v", "ed"], ["ar", "s"], ["l", "ow"], ["c", "all"], ["s", "ent"], ["m", "ast"], ["t", "y"], ["d", "en"], ["sa", "me"], ["un", "der"], ["c", "ome"], ["a", "ir"], ["s", "he"], ["n", "ing"], ["sh", "ould"], ["k", "n"], ["es", "s,"], ["i", "al"], ["ar", "y"], ["uck", "et"], ["p", "h"], ["man", "y"], ["ly", ","], ["k", "ing"], ["i", "ble"], ["f", "er"], ["be", "t"], ["de", "ck"], ["ion", "s"], ["s", "m"], ["e", "ar"], ["st", "e"], ["wat", "er"], ["n", "at"], ["l", "ar"], ["mad", "e"], ["then", ","], ["ub", "b"], ["o", "t"], ["Th", "ere"], ["i", "z"], ["s", "le"], ["al", "most"], ["N", "ant"], ["n", "a"], ["\u2014", "_"], ["am", "ong"], ["s", "ide"], ["c", "lo"], ["harpo", "one"], ["Nant", "ucket"], ["m", "ar"], ["se", "en"], ["ak", "ing"], ["s", "ou"], ["p", "ed"], ["te", "ll"], ["it", "."], ["f", "t"], ["j", "o"], ["he", "art"], ["with", "out"], ["p", "ass"], ["y", "e,"], ["whal", "e,"], ["f", "ound"], ["a", "way"], ["bo", "ard"], ["st", "er"], ["G", "od"], ["t", "en"], ["in", "ter"], ["p", "ort"], ["d", "on"], ["f", "in"], ["su", "r"], ["vo", "y"], ["l", "ed"], ["c", "aptain"], ["le", "t"], ["Wh", "at"], ["at", "t"], ["i", "ce"], ["u", "se"], ["ch", "ed"], ["ca", "me"], ["b", "ro"], ["an", "ge"], ["er", "s,"], ["B", "ild"], ["Bild", "ad"], ["c", "he"], ["St", "ubb"], ["l", "ing"], ["to", "m"], ["i", "b"], ["d", "ist"], ["P", "e"], ["th", ","], ["g", "en"], ["S", "o"], ["at", "ing"], ["w", "ind"], ["I", ","], ["f", "f"], ["wor", "d"], ["or", "s"], ["man", ","], ["f", "ar"], ["se", "t"], ["St", "arb"], ["Starb", "uck"], ["whal", "es"], ["en", "s"], ["p", "ur"], ["w", "on"], ["ic", "al"], ["r", "y"], ["c", "as"], ["again", "st"], ["cre", "w"], ["b", "ow"], ["on", ","], ["Pe", "leg"], ["P", "equ"], ["Pequ", "od"], ["m", "ed"], ["e", "y"], ["ward", "s"], ["f", "o"], ["J", "on"], ["ra", "w"], ["i", "ly"], ["su", "b"], ["me", "an"], ["um", "p"], ["whal", "ing"], ["j", "e"], ["b", "re"], ["ing", "s"], ["sm", "all"], ["a", "z"], ["bo", "d"], ["i", "ed"], ["con", "t"], ["b", "ed"], ["in", "st"], ["pre", "sent"], ["com", "m"], ["kn", "own"], ["m", "ind"], ["a", "ct"], ["some", "thing"], ["M", "o"], ["Jon", "ah"], ["ch", "ing"], ["d", "r"], ["en", "g"], ["c", "ed"], ["re", "g"], ["h", "old"], ["h", "ap"], ["er", "ing"], ["c", "ar"], ["j", "ust"], ["re", "n"], ["\u201c", "\u2018"], ["p", "ut"], ["er", "."], ["ic", "t"], ["F", "l"], ["t", "ake"], ["se", "as"], ["m", "ain"], ["v", "ent"], ["(", "_"], ["him", "."], ["men", ","], ["or", ","], ["a", "ve"], ["cer", "tain"], ["d", "re"], ["e", "ach"], ["h", "al"], ["ne", "w"], ["g", "et"], ["v", "al"], ["ro", "ll"], ["i", "x"], ["li", "fe"], ["fa", "ce"], ["su", "p"], ["t", "re"], ["l", "t"], ["s", "un"], ["no", "thing"], ["t", "ill"], ["c", "i"], ["sou", "l"], ["o", "l"], ["it", "ion"], ["ow", ","], ["that", ","], ["u", "g"], ["Fl", "ask"], ["if", "ic"], ["in", "de"], ["p", "le"], ["N", "o"], ["c", "ra"], ["w", "ild"], ["pl", "ace"], ["an", "k"], ["m", "ake"], ["there", ","], ["on", "ce"], ["po", "se"], ["er", "ed"], ["je", "ct"], ["st", "ri"], ["ing", "."], ["h", "ard"], ["fe", "el"], ["op", "en"], ["sle", "ep"], ["ir", "c"], ["n", "or"], ["be", "g"], ["ar", "r"], ["ab", "in"], ["whale", "-"], ["l", "ay"], ["ce", "an"], ["at", "ure"], ["m", "om"], ["mom", "ent"], ["h", "igh"], ["so", "on"], ["es", ";"], ["y", "."], ["na", "me"], ["gen", "er"], ["e", "ye"], ["f", "ull"], ["to", "wards"], ["s", "perm"], ["A", "t"], ["d", "raw"], ["c", "ap"], ["po", "ss"], ["hal", "f"], ["c", "irc"], ["s", "il"], ["don", "\u2019t"], ["we", "en"], ["oun", "g"], ["C", "h"], ["a", "il"], ["ar", "ing"], ["a", "u"], ["t", "ou"], ["v", "is"], ["sa", "w"], ["ca", "use"], ["he", "ard"], ["bet", "ween"], ["m", "ark"], ["Queequeg", ","], ["are", "d"], ["s", "!"], ["is", ","], ["r", "un"], ["o", "ve"], ["or", "der"], ["mat", "ter"], ["t", "able"], ["I", "."], ["ro", "om"], ["who", "le"], ["e", "."], ["ro", "p"], ["A", "s"], ["lar", "ge"], ["i", "ther"], ["thing", "s"], ["str", "ange"], ["I", "\u2019"], ["c", "abin"], ["ing", "ly"], ["W", "e"], ["h", "or"], ["ct", "ed"], ["s", "in"], ["w", "r"], ["po", "s"], ["and", ","], ["per", "hap"], ["k", "en"], ["g", "ent"], ["bl", "ack"], ["al", "ong"], ["S", "perm"], ["i", "th"], ["he", "l"], ["way", "s"], ["vi", "a"], ["ne", "ar"], ["ro", "ss"], ["po", "int"], ["-", "head"], ["t", "s"], ["p", "ing"], ["th", "y"], ["tim", "es"], ["u", "al"], ["T", "his"], ["call", "ed"], ["s", "ign"], ["s", "on"], ["via", "than"], ["f", "ri"], ["er", "y"], ["o", "cean"], ["a", "ther"], ["S", "te"], ["pe", "cu"], ["pecu", "li"], ["peculi", "ar"], ["c", "or"], ["in", "ess"], ["en", ","], ["so", "l"], ["su", "per"], ["oo", "l"], ["S", "e"], ["i", "ent"], ["f", "our"], ["for", "m"], ["c", "ur"], ["say", ","], ["m", "in"], ["con", "sid"], ["e", "w"], ["all", ","], ["et", ","], ["ag", "e,"], ["st", "ood"], ["look", "ed"], ["ag", "g"], ["t", "ra"], ["s", "k"], ["\u201c", "I"], ["pl", "ain"], ["ship", ","], ["spe", "ct"], ["as", "on"], ["w", "ent"], ["cri", "ed"], ["c", "ast"], ["to", "ge"], ["toge", "ther"], ["wh", "e"], ["re", "st"], ["r", "u"], ["h", "u"], ["co", "l"], ["my", "self"], ["_", ")"], ["sa", "v"], ["me", "."], ["do", "es"], ["an", "other"], ["d", "ark"], ["Mo", "by"], ["D", "ick"], ["ie", "f"], ["p", "i"], ["al", "so"], ["c", "al"], ["sp", "r"], ["Th", "at"], ["de", "ad"], ["ac", "coun"], ["go", "ing"], ["s", "l"], ["y", "oung"], ["bo", "th"], ["nat", "ur"], ["en", "ess"], ["m", "is"], ["ish", "ed"], ["st", "re"], ["sh", "all"], ["sea", ","], ["ak", "en"], ["The", "y"], ["d", "ou"], ["ct", "ion"], ["il", "t"], ["ou", "d"], ["l", "at"], ["ic", "ular"], ["s", "ight"], ["l", "ord"], ["en", "c"], ["re", "ason"], ["v", "il"], ["s", "om"], ["Wh", "al"], ["qu", "e"], ["con", "d"], ["t", "ri"], ["be", "st"], ["un", "g"], ["b", "en"], ["M", "r"], ["s", "ing"], ["anc", "es"], ["in", "n"], ["comp", "le"], ["comm", "and"], ["g", "ive"], ["r", "ow"], ["pr", "of"], ["c", "le"], ["on", "e,"], ["\u201c", "A"], ["s", "at"], ["H", "ow"], ["su", "re"], ["h", "at"], ["Wh", "ite"], ["f", "am"], ["Ahab", ","], ["E", "n"], ["D", "e"], ["su", "m"], ["s", "y"], ["ey", "es"], ["him", ";"], ["le", ","], ["li", "e"], ["pre", "ss"], ["ak", "es"], ["fo", "llow"], ["now", ","], ["s", "qu"], ["it", ";"], ["ed", ";"], ["tr", "y"], ["c", "ent"], ["ch", "ief"], ["ation", "s"], ["ap", "pe"], ["f", "ind"], ["how", "ever"], ["is", "ing"], ["fe", "ar"], ["he", "ar"], ["end", "ed"], ["N", "ew"], ["a", ","], ["s", "we"], ["won", "der"], ["b", "us"], ["s", "po"], ["m", "orn"], ["O", "R"], ["e", "as"], ["tr", "ue"], ["de", "ep"], ["k", "ed"], ["it", "y,"], ["f", "lo"], ["c", "over"], ["o", "c"], ["N", "or"], ["l", "ad"], ["en", "ough"], ["me", "m"], ["Ste", "el"], ["Steel", "k"], ["Q", "u"], ["k", "ill"], ["li", "c"], ["who", "se"], ["l", "ess,"], ["\u201c", "S"], ["an", "e"], ["c", "ut"], ["m", "ate"], ["voy", "age"], ["turn", "ed"], ["fe", "w"], ["m", "a"], ["s", "mo"], ["d", "den"], ["bo", "y"], ["circ", "um"], ["c", "ess"], ["ou", "se"], ["ch", "ap"], ["qu", "est"], ["on", "s"], ["ast", ","], ["a", "ven"], ["al", "s"], ["ves", "sel"], ["in", "s"], ["k", "s"], ["fe", "et"], ["pl", "ac"], ["gr", "ound"], ["m", "il"], ["cu", "ri"], ["B", "e"], ["il", "ed"], ["whal", "em"], ["wh", "it"], ["O", "n"], ["harpoone", "er"], ["O", "h"], ["look", "ing"], ["g", "g"], ["coun", "ter"], ["th", "us"], ["su", "dden"], ["ra", "ther"], ["ke", "ep"], ["w", "ise"], ["se", "am"], ["h", "am"], ["to", "p"], ["gent", "le"], ["ar", "p"], ["H", "is"], ["G", "re"], ["to", "w"], ["u", "de"], ["m", "ort"], ["ance", ","], ["p", "ain"], ["po", "or"], ["fri", "end"], ["st", "or"], ["with", "in"], ["day", "s"], ["dou", "b"], ["them", ","], ["f", "ire"], ["ion", ","], ["ant", "ic"], ["s", "ound"], ["ou", "s,"], ["mast", "-head"], ["p", "ar"], ["C", "ap"], ["ship", "s"], ["part", "icular"], ["N", "ow,"], ["t", "al"], ["com", "mon"], ["\u2014", "the"], ["n", "\u2019t"], ["f", "ur"], ["us", "ed"], ["go", "t"], ["S", "A"], ["et", "s"], ["of", "t"], ["av", "ing"], ["ous", "ly"], ["ent", "ly"], ["I", "nd"], ["whal", "es,"], ["whe", "ther"], ["sea", "-"], ["ex", "ce"], ["li", "ving"], ["cre", "ature"], ["j", "aw"], ["k", "ind"], ["u", "ff"], ["l", "es"], ["can", "not"], ["sh", "o"], ["i", "es,"], ["ye", "ars"], ["fe", "llow"], ["ow", "s"], ["m", "id"], ["ow", "ing"], ["ci", "ally"], ["be", "cause"], ["off", "ic"], ["read", "y"], ["p", "ri"], ["c", "ord"], ["p", "ull"], ["of", "ten"], ["I", "L"], ["b", "ook"], ["cl", "ud"], ["u", "s,"], ["o", "st"], ["b", "ur"], ["on", "."], ["x", "t"], ["l", "in"], ["o", "il"], ["ear", "th"], ["man", "n"], ["p", "it"], ["A", "mer"], ["Amer", "ic"], ["it", "ud"], ["es", "pe"], ["bet", "ter"], ["i", "et"], ["cr", "u"], ["er", "able"], ["al", "ways"], ["con", "cer"], ["h", "ouse"], ["natur", "al"], ["who", ","], ["str", "ang"], ["ste", "ad"], ["h", "int"], ["ship", "\u2019s"], ["it", "ed"], ["r", "ist"], ["L", "e"], ["H", "o"], ["ict", "ure"], ["ic", "ally"], ["am", "p"], ["im", "es"], ["m", "ou"], ["ag", "es"], ["s", "ir"], ["de", "ath"], ["ul", "t"], ["im", "p"], ["W", "ith"], ["op", "le"], ["boat", "s"], ["it", "self"], ["d", "ire"], ["wat", "ch"], ["p", "an"], ["Ch", "rist"], ["de", "vil"], ["s", "al"], ["b", "ul"], ["sin", "ce"], ["ar", "n"], ["head", ","], ["to", "ld"], ["u", "ght"], ["sel", "ves"], ["a", "id"], ["g", "u"], ["gr", "and"], ["ha", "ving"], ["h", "our"], ["ve", "st"], ["ation", ","], ["con", "sc"], ["ful", "ly"], ["bod", "y"], ["e", "f"], ["so", ","], ["et", "er"], ["it", "\u2019s"], ["tr", "u"], ["fa", "ct"], ["f", "le"], ["le", "ft"], ["t", "le"], ["that", "\u2019s"], ["id", "ent"], ["i", "ven"], ["Bildad", ","], ["SA", "IL"], ["SAIL", "OR"], ["as", "e"], ["y", "ing"], ["m", "ere"], ["bo", "t"], ["l", "eng"], ["ce", "iv"], ["T", "o"], ["in", ","], ["\u2014", "\u201c"], ["w", "ood"], ["\u2014", "a"], ["ab", "ly"], ["whalem", "en"], ["perhap", "s"], ["ne", "ed"], ["be", "ar"], ["Th", "ough"], ["v", "ar"], ["per", "il"], ["st", "art"], ["this", ","], ["tim", "e,"], ["stand", "ing"], ["s", "ed"], ["ure", "d"], ["he", "\u2019s"], ["he", "av"], ["deck", ","], ["?", "\u2019"], ["Steelk", "ilt"], ["l", "ine"], ["y", "-"], ["M", "e"], ["?", "\u2014"], ["i", "ver"], ["mort", "al"], ["Ind", "ian"], ["mo", "t"], ["ster", "n"], ["be", ","], ["f", "re"], ["ter", "s"], ["re", "p"], ["per", "son"], ["gre", "en"], ["an", "sw"], ["Mr", "."], ["it", "ies"], ["le", "ad"], ["ob", "ject"], ["b", "ound"], ["d", "if"], ["vo", "l"], ["espe", "cially"], ["k", "new"], ["sh", "ad"], ["itt", "ing"], ["ar", "ri"], ["bus", "iness"], ["do", "or"], ["fa", "ir"], ["bre", "ak"], ["c", "our"], ["b", "ra"], ["SAILOR", "."], ["f", "ast"], ["all", "ow"], ["em", "pt"], ["at", "ive"], ["w", "ant"], ["ab", "ove"], ["spe", "c"], ["fish", "er"], ["is", "land"], ["ere", "st"], ["em", "p"], ["t", "or"], ["reg", "ular"], ["harpo", "on"], ["oo", "t"], ["too", "k"], ["ne", "xt"], ["li", "ve"], ["re", "main"], ["lo", "g"], ["s", "n"], ["ir", "d"], ["at", ","], ["i", "le"], ["_", ","], ["the", "e"], ["str", "ong"], ["et", "imes"], ["es", "id"], ["b", "on"], ["f", "if"], ["t", "aken"], ["no", "ble"], ["-", "f"], ["m", "ag"], ["spe", "ak"], ["ay", ","], ["bl", "ood"], ["end", "ing"], ["sh", "ort"], ["h", "ome"], ["st", "ra"], ["way", ","], ["er", ";"], ["con", "f"], ["ious", "ly"], ["s", "now"], ["u", "ally"], ["c", "old"], ["sav", "age"], ["sail", "or"], ["inter", "val"], ["comple", "te"], ["A", "ll"], ["night", ","], ["A", "l"], ["ter", "ing"], ["some", "how"], ["ate", "ly"], ["wh", "om"], ["cont", "in"], ["av", "es"], ["te", "e"], ["ye", "ar"], ["o", "y"], ["l", "ly"], ["Gre", "en"], ["un", "d"], ["hun", "d"], ["hund", "red"], ["ck", ","], ["pe", "ople"], ["which", ","], ["n", "ess,"], ["man", "\u2019s"], ["e", "v"], ["m", "ut"], ["inst", "ant"], ["ve", "l"], ["qu", "ar"], ["gener", "al"], ["c", "are"], ["s", "im"], ["wh", "y"], ["circum", "st"], ["Cap", "e"], ["too", ","], ["hand", ","], ["C", "an"], ["c", "ross"], ["mat", "es,"], ["fe", "lt"], ["ter", "r"], ["be", "low"], ["en", "se"], ["ter", "-"], ["ie", "w"], ["g", "one"], ["Le", "viathan"], ["som", "etimes"], ["go", "es"], ["\u201c", "The"], ["ou", "ght"], ["p", "on"], ["f", "ix"], ["sw", "im"], ["clo", "se"], ["l", "im"], ["k", "e,"], ["ben", "e"], ["w", "ide"], ["ent", "ire"], ["tr", "an"], ["ri", "ed"], ["th", "ous"], ["thous", "and"], ["se", "ver"], ["Americ", "an"], ["!", "\u2019"], ["turn", "ing"], ["pre", "c"], ["in", "c"], ["ib", "ly"], ["h", "app"], ["p", "icture"], ["om", "in"], ["hand", "s"], ["fl", "u"], ["re", "mo"], ["m", "al"], ["f", "ine"], ["ck", "ed"], ["I\u2019", "ll"], ["whale", "."], ["en", "ed"], ["D", "on"], ["per", "i"], ["!", "\u2014"], ["li", "f"], ["pe", "ct"], ["Stubb", ","], ["i", "fe"], ["un", "t"], ["bot", "tom"], ["wor", "k"], ["sh", "ore"], ["v", "ast"], ["seem", "s"], ["sp", "out"], ["ter", "ri"], ["an", "ch"], ["accoun", "t"], ["f", "ree"], ["d", "iv"], ["ob", "ser"], ["pre", "t"], ["ag", "ed"], ["n", "al"], ["ct", "ly"], ["le", "ast"], ["roll", "ed"], ["p", "ow"], ["pre", "v"], ["Wh", "o"], ["voy", "age,"], ["te", "st"], ["qu", "ick"], ["mat", "es"], ["bro", "ad"], ["can", "n"], ["land", "lord"], ["j", "ack"], ["beg", "an"], ["ay", "e,"], [".", "\u2019"], ["as", "pect"], ["Starbuck", ","], ["en", "counter"], ["I", "I."], ["R", "ad"], ["O", "O"], ["it", "ude"], ["p", "il"], ["de", "li"], ["tou", "ching"], ["v", "iew"], ["ple", "as"], ["ro", "y"], ["he", "aven"], ["\u201c", "L"], ["might", "y"], ["h", "ind"], ["f", "i"], ["ch", "ar"], ["doub", "t"], ["e", "ither"], ["r", "ing"], ["de", "st"], ["ru", "sh"], ["poss", "ible"], ["g", "ed"], ["st", "ep"], ["qu", "iet"], ["stra", "ight"], ["y", "on"], ["ch", "ant"], ["m", "oun"], ["yet", ","], ["any", "thing"], ["se", "cond"], ["vis", "ible"], ["pur", "pose"], ["st", "op"], ["f", "ro"], ["ke", "pt"], ["ss", "ed"], ["ence", ","], ["ir", "on"], ["-", "like"], ["\u2019", "em"], ["we", "ather"], ["sea", "."], ["here", ","], ["k", "ick"], ["pro", "d"], ["w", "al"], ["an", ","], ["sever", "al"], ["last", ","], ["h", "um"], ["L", "ake"], ["En", "gl"], ["Engl", "ish"], ["B", "y"], ["1", "."], ["ir", "it"], ["N", "ot"], ["up", ","], ["day", ","], ["leng", "th"], [".", "."], ["y", "ard"], ["s", "ix"], ["g", "ro"], ["Green", "land"], ["iz", "ed"], ["i", "or"], ["bene", "ath"], ["Christ", "ian"], ["int", "erest"], ["pur", "su"], ["r", "ad"], ["ad", "d"], ["at", "e,"], ["ch", "es"], ["mat", "e,"], ["li", "p"], ["qu", "ite"], ["We", "ll"], ["g", "ain"], ["con", "tr"], ["com", "for"], ["ve", "ll"], ["sail", "ors"], ["fam", "ous"], ["sh", "arp"], ["It", "\u2019s"], ["iv", "ory"], ["fur", "ther"], ["w", "a"], ["sh", "ow"], ["run", "ning"], ["im", "e"], ["e", "vent"], ["there", "fore"], ["gentle", "men,"], ["Y", "ou"], ["er", "s."], ["an", "im"], ["A", "n"], ["for", "d"], ["f", "anc"], ["el", ","], ["ne", "st"], ["d", "art"], ["mag", "n"], ["ash", "ore"], ["d", "ri"], ["pi", "pe"], ["mar", "in"], ["am", "b"], ["p", "ul"], ["bro", "ken"], ["g", "az"], ["dre", "am"], ["le", "an"], ["in", "vest"], ["e", "per"], ["t", "aking"], ["var", "ious"], ["po", "l"], ["or", "ig"], ["orig", "in"], ["cra", "ft"], ["le", "viathan"], ["h", "ur"], ["\u2019", "ll"], ["comp", "any"], ["morn", "ing"], ["che", "st"], ["com", "ing"], ["again", ","], ["d", "one"], ["\u2014", "and"], ["for", "th"], ["ers", ";"], ["quest", "ion"], ["m", "ur"], ["g", "iven"], ["Peleg", ","], ["T", "ash"], ["I", "f"], ["e", "le"], ["3", "."], ["8", "."], ["9", "."], ["0", "."], ["S", "h"], ["ain", "t"], ["w", "ed"], ["r", "om"], ["cas", "e"], ["ho", "pe"], ["N", "ow"], ["boat", ","], ["p", "a"], ["n", "arr"], ["K", "ing"], ["t", "i"], ["low", "ly"], ["th", "re"], ["er", "\u2019s"], ["C", "om"], ["be", "hind"], ["m", "ist"], ["b", "ar"], ["re", "spect"], ["pass", "age"], ["in", "ct"], ["Nantucket", ","], ["sh", "r"], ["n", "um"], ["el", "se"], ["ing", "ing"], ["st", "it"], ["f", "all"], ["Y", "es,"], ["re", "ach"], ["d", "rop"], ["st", "ory"], ["h", "on"], ["ar", ","], ["A", "N"], ["ide", "a"], ["l", "s"], ["c", "orn"], ["say", "s"], ["b", "or"], ["hu", "man"], ["cann", "ib"], ["ne", "y"], ["inde", "ed"], ["y", ";"], ["hel", "p"], ["when", ","], ["man", "."], ["com", "es"], ["pre", "h"], ["bl", "ed"], ["back", ","], ["curi", "ous"], ["sy", "m"], ["ant", "ly"], ["id", "ing"], ["th", "or"], ["2", "."], ["-", "B"], ["6", "."], ["B", "l"], ["Whale", ";"], [".", "\u2014"], ["out", ","], ["g", "lo"], ["em", "ent"], ["se", "ven"], ["m", "aking"], ["ce", "ed"], ["lo", "st"], [")", ","], ["L", "et"], ["in", "fer"], ["se", ","], ["d", "im"], ["le", "ap"], ["me", "et"], ["ance", "."], ["dif", "fer"], ["you", ","], ["stor", "m"], ["in", "su"], ["ie", "ld"], ["Y", "et"], ["k", ","], ["Wh", "y"], ["them", "."], ["-", "b"], ["sup", "pose"], ["bl", "ing"], ["pl", "ank"], ["t", "on"], ["b", "ed,"], ["ch", "ance"], ["light", ","], ["mem", "ber"], ["re", "al"], ["ur", "ing"], ["s", "light"], ["or", "po"], ["mean", "s"], ["ad", "v"], ["Tash", "te"], ["Tashte", "go"], ["whit", "eness"], ["at", "es"], ["B", "OO"], ["BOO", "K"], ["4", "."], ["5", "."], ["P", "ac"], ["Pac", "ific"], ["ion", "."], ["ity", "."], ["so", "le"], ["said", ","], ["w", "arm"], ["L", "ord"], ["mon", "ster"], ["c", "at"], ["-", "e"], ["mou", "th"], ["thing", "s,"], ["whale", "\u2019s"], ["b", "id"], ["t", "ail"], ["fix", "ed"], ["S", "ome"], ["for", "med"], ["them", "selves"], ["bo", "ld"], ["pro", "per"], ["b", "arb"], ["de", "gre"], ["p", "al"], ["draw", "n"], ["reg", "ard"], ["str", "uck"], ["p", "end"], ["Oh", ","], ["all", "."], ["n", "igh"], ["i", "est"], ["ph", "an"], ["enc", "es"], ["ck", "s"], ["ion", "ed"], ["as", ","], ["f", "ive"], ["head", "s"], ["concer", "ning"], ["was", ","], ["fe", "ct"], ["ha", "w"], ["ag", "an"], ["tou", "ch"], ["f", "right"], ["g", "ra"], ["i", "ence"], ["l", "ur"], ["sail", "ed"], ["om", "an"], ["p", "ra"], ["p", "ump"], ["Ahab", "\u2019s"], ["R", "ight"], ["A", "r"], ["w", "ark"], ["ar", "ch"], ["anc", "ing"], ["v", "iv"], ["al", "together"], ["d", "read"], ["p", "at"], ["re", "ceiv"], ["\u201c", "What"], ["I", "s"], ["en", "ing"], ["wat", "er,"], ["m", "ing"], ["land", ","], ["harpoone", "ers"], ["ex", "press"], ["r", "id"], ["h", "orn"], ["f", "at"], ["other", ","], ["b", "u"], ["ag", "o"], ["pret", "ty"], ["answ", "er"], ["ut", "ter"], ["p", "u"], ["Wh", "en"], ["d", "s"], ["sil", "ent"], ["ri", "gg"], ["fore", "cast"], ["think", "s"], ["iv", "es"], ["perhap", "s,"], ["in", "ed"], ["f", "oot"], ["ly", "ing"], ["tee", "th"], ["an", "n"], ["ore", "d"], ["long", ","], ["half", "-"], ["seam", "en"], ["b", "ad"], ["il", "ar"], ["is", "ed"], ["un", "known"], ["po", "p"], ["see", "ing"], ["cl", "am"], ["con", "clud"], ["But", ","], ["a", "haw"], ["su", "c"], ["draw", "ing"], ["qu", "ent"], ["N", "ever"], ["ven", "ge"], ["g", "old"], ["am", "es"], ["sp", "irit"], ["l", "ist"], ["hor", "iz"], ["0", "0"], ["L", "E"], ["li", "ed"], ["7", "."], ["t", "."], ["C", "on"], ["F", "ish"], ["or", "."], ["I", "S"], ["p", "ick"], ["gener", "ally"], ["pr", "om"], ["world", ","], ["H", "ere"], ["re", "t"], ["cal", "m"], ["nat", "ure"], ["dis", "cover"], ["b", "one"], ["\u201c", "M"], ["vo", "ice"], ["ch", "o"], ["im", "port"], ["ment", "ion"], ["st", "one"], ["su", "sp"], ["g", "all"], ["P", "o"], ["ce", ","], ["1", "8"], ["ar", "ound"], ["de", "m"], ["g", "a"], ["b", "it"], ["is", "e,"], ["s", "lowly"], ["ship", "."], ["tow", "n"], ["cr", "ow"], ["bul", "wark"], ["im", "ent"], ["ey", "es,"], ["ign", "ity"], ["ex", "act"], ["H", "orn"], ["c", "and"], ["ward", ","], ["s", "itting"], ["sid", "e,"], ["hold", "ing"], ["room", ","], ["d", "ing"], ["feel", "ing"], ["there", "\u2019s"], ["g", "ave"], ["think", "ing"], ["heav", "y"], ["more", ","], ["me", ";"], ["sc", "ar"], ["it", "ary"], ["bur", "st"], ["mo", "od"], ["r", "up"], ["itt", "ed"], ["Pequod", ","], ["o", "_)"], ["part", "s"], ["S", "p"], ["F", "irst"], ["O", "f"], ["on", ";"], ["Th", "en"], ["z", "e"], ["ex", "t"], ["que", "er"], ["m", "ild"], ["le", "aving"], ["cre", "d"], ["be", "long"], ["gr", "ow"], ["fif", "ty"], ["il", "ing"], ["tr", "ou"], ["plac", "ed"], ["re", "l"], ["o", "h"], ["and", "ed"], ["ord", "in"], ["p", "ap"], ["o", "e"], ["near", "ly"], ["ck", "ing"], ["lo", "y"], ["ive", "ly"], ["Wh", "ere"], ["H", "us"], ["Hus", "se"], ["fe", "ll"], ["pro", "b"], ["d", "am"], ["de", "part"], ["prec", "ise"], ["ut", "e"], ["s", "\u2014"], ["at", "ter"], ["v", "ain"], ["k", "ne"], ["phan", "tom"], ["B", "esid"], ["le", "st"], ["to", ","], ["us", "."], ["be", "lie"], ["re", "pe"], ["b", "ill"], ["c", "es"], ["em", "b"], ["ch", "ase"], ["So", ","], ["th", "ick"], ["the", "less,"], ["ter", ","], ["m", "ine"], ["himself", ","], ["st", "em"], ["but", ","], ["cannib", "al"], ["f", "ill"], ["c", "up"], ["sh", "out"], ["plain", "ly"], ["tom", "ahaw"], ["f", "ig"], ["l", "au"], ["lau", "gh"], ["er", "r"], ["m", "akes"], ["st", "ar"], ["pop", "ular"], ["Qu", "ak"], ["captain", ","], ["Flask", ","], ["ang", "u"], ["es", "e"], ["T", "H"], ["vo", "c"], ["qu", "ire"], ["G", "r"], ["D", "o"], ["ign", "or"], ["what", "ever"], ["ation", "s,"], ["cle", "ar"], ["-", "mast"], ["re", "s"], ["br", "ought"], ["s.", "\u201d"], ["des", "cri"], ["mot", "ion"], ["le", "arn"], ["land", "s"], ["gr", "im"], ["co", "ast"], ["a", "-"], ["ther", "n"], ["S", "ou"], ["pos", "ed"], ["_.", ")"], ["consid", "er"], ["thr", "own"], ["air", ","], ["col", "our"], ["sh", "ark"], ["lo", "ve"], ["Whal", "e,"], ["shr", "oud"], ["emp", "loy"], ["whale-", "ship"], ["v", "ic"], ["air", "."], [";", "\u2014"], ["che", "er"], ["ation", "."], ["il", "o"], ["sur", "pr"], ["there", "."], ["re", "ver"], ["pe", "st"], ["me", "t"], ["er", "-"], ["your", "self"], ["se", "par"], ["consc", "ious"], ["hon", "or"], ["ud", "g"], ["ab", "l"], ["re", "ally"], ["consid", "ering"], ["deck", "."], ["quar", "ter-"], ["se", "cre"], ["eas", "y"], ["anc", "es,"], ["B", "ed"], ["Bed", "ford"], ["et", "s,"], ["a", "!"], ["r", "ap"], ["g", "n"], ["b", "urn"], ["t", "em"], ["though", ","], ["wr", "ink"], ["head", "."], ["num", "ber"], ["sup", "per"], ["wh", "is"], ["comp", "an"], ["ham", "mo"], ["s", "or"], ["f", "et"], ["won", "\u2019t"], ["es", "cap"], ["pil", "ot"], ["thing", ","], ["mur", "der"], ["sea", ";"], ["br", "ow"], ["who", "lly"], ["b", "orn"], ["bod", "ily"], ["inde", "ed,"], ["whal", "es."], ["w", "ar"], ["ac", "cord"], ["squ", "all"], ["is", "m"], ["re", "li"], ["crew", ","], ["g", "un"], ["cor", "re"], ["coun", "try"], ["R", "am"], ["G", "o"], ["Ahab", "."], ["at", "."], ["r", "an"], ["br", "ain"], ["be", "ll"], ["Wh", "ile"], ["al", "one"], ["i", "ch"], ["ex", "tra"], ["appe", "ar"], ["gl", "ass"], ["s", "ad"], ["roy", "al"], ["heart", "s"], ["pl", "ay"], ["c", "ing"], ["be", "l"], ["li", "es"], ["we", "ar"], ["att", "le"], ["V", "oy"], ["ur", "ch"], ["n", "av"], ["ca", "ught"], ["ab", "o"], ["ap", "pro"], ["ro", "b"], ["end", "s"], ["er", "ous"], ["my", "ster"], ["n", "y"], ["fin", "ally"], ["E", "li"], ["mil", "es"], ["ure", "s"], ["le", "e"], ["Husse", "y"], ["mo", "d"], ["st", "o"], ["for", "ward"], ["st", "ic"], ["oc", "cas"], ["I", "sh"], ["Ish", "ma"], ["water", "y"], ["h", "y"], ["wh", "ar"], ["L", "ook"], ["ies", "."], ["e", "k"], ["ho", "llow"], ["dist", "ant"], ["Besid", "es,"], ["time", "."], ["ain", "\u2019t"], ["Well", ","], ["p", "ay"], ["sing", "le"], ["p", "en"], ["S", "uch"], ["origin", "al"], ["ash", "ing"], ["t", "all"], [":", "\u2014"], ["to", "ssed"], ["so", "ci"], ["n", "ed"], ["sc", "en"], ["ha", "ir"], ["sh", "ap"], ["ex", "am"], ["id", "ed"], ["r", "um"], ["sub", "st"], ["whis", "per"], ["over", ","], ["re", "sol"], ["if", "f"], ["certain", "ly"], ["preh", "ens"], ["f", "urn"], ["d", "ut"], ["l", "er"], ["ash", "ed"], ["sim", "ilar"], ["complete", "ly"], ["one", "."], ["f", "ic"], ["ak", "ed"], ["is", "es"], ["less", "ly"], ["Queequeg", "\u2019s"], ["for", "t"], ["ex", "peri"], ["u", "su"], ["ad", "m"], ["h", "ither"], ["m", "n"], ["will", ","], ["car", "ried"], ["ne", "cess"], ["ang", "ing"], ["men", "."], ["turn", "s"], ["d", "et"], ["f", "ool"], ["wat", "ers"], ["\u2019", "s,"], ["h", "om"], ["pre", "ad"], ["exce", "pt"], ["l", "uck"], ["tim", "es,"], ["te", "l"], ["or", "s,"], ["orpo", "ise"], ["o_)", ","], ["Rad", "ney"], ["P", "ro"], ["p", "y"], ["in", "clud"], ["us", "ing"], ["Ram", "ad"], ["in", "."], ["F", "o"], ["ri", "g"], ["word", ","], ["ever", ","], ["t", "ic"], ["anc", "ient"], ["Th", "ou"], ["al", "oft"], ["stri", "ke"], ["\u201c", "And"], ["p", "un"], ["ent", ","], ["w", "aves"], ["\u201c", "He"], ["i", "ke"], ["mo", "der"], ["on", "t"], ["te", "en"], ["can", "\u2019t"], ["o", "be"], ["fa", "il"], ["con", "ce"], ["ro", "pe"], ["jo", "y"], ["st", "ove"], ["cap", "t"], ["ore", "s"], ["poss", "ess"], ["bl", "ow"], ["com", "rad"], ["F", "rom"], ["m", "or"], ["hour", "s"], ["se", "ated"], ["ast", "er"], ["ac", "ing"], ["cont", "ent"], ["s", "?"], ["un", "less"], ["sudden", "ly"], ["ho", "ly"], ["gr", "as"], ["l", "ung"], ["g", "y"], ["t", "ar"], ["mer", "chant"], ["in", "flu"], ["able", ","], ["soul", ","], ["her", ","], ["p", "ie"], ["way", "."], ["spo", "t"], ["ing", "s,"], ["ly", "."], ["ment", "s"], ["h", ","], ["go", "d"], ["se", "m"], ["u", "f"], ["stand", "s"], ["table", ","], ["po", "t"], ["however", ","], ["he", "ld"], ["ain", "ed"], ["ship", "mates,"], ["pl", "an"], ["strang", "er"], ["harpoone", "er,"], ["I\u2019", "ve"], ["say", "ing"], ["u", "ct"], ["to", "-"], ["eye", "ing"], ["anc", "ed"], ["terri", "ble"], ["ist", "ed"], ["tomahaw", "k"], ["l", "amp"], ["t", "ur"], ["in", "ch"], ["lo", "ck"], ["by", ","], ["scar", "ce"], ["ful", "ness"], ["he", "ed"], ["g", "ir"], ["Oh", "!"], ["ho", "g"], ["au", "thor"], ["them", ";"], ["be", "aring"], ["s", "pread"], ["al", "ity"], ["at", "ed,"], ["what", "\u2019s"], ["Eli", "j"], ["Elij", "ah"], ["sc", "ut"], ["ch", "art"], ["d", "ignity"], ["super", "stit"], ["cru", "ising"], ["U", "n"], ["ct", "ions"], ["ter", "m"], ["l", "aw"], ["P", "ost"], ["He", "ad"], ["us", "k"], ["le", "."], ["b", "at"], ["own", "-"], ["it", "ch"], ["P", "er"], ["C", "off"], ["i", "a"], ["ing", ";"], ["not", ","], ["ent", "er"], ["well", ","], ["s", "pl"], ["sw", "allow"], ["ge", "st"], ["pro", "ceed"], ["r", "ise"], ["appe", "ared"], ["the", "d"], ["p", "he"], ["s", "es"], ["exce", "ed"], ["k", "es"], ["we", "l"], ["z", "z"], ["de", "al"], ["b", "ale"], ["seas", ","], ["g", "e,"], ["att", "ack"], ["car", "ry"], ["dre", "ss"], ["fish", ","], ["At", "l"], ["Atl", "antic"], ["C", "har"], ["ch", "ild"], ["\u201c", "No"], ["bow", "s"], ["b", "right"], ["fre", "sh"], ["u", "ri"], ["ex", "p"], ["c", "ial"], ["le", "ct"], ["l", "ate"], ["mann", "er"], ["ful", ","], ["d", "ang"], ["v", "it"], ["l", "aid"], ["e", "ag"], ["f", "t,"], ["prof", "ess"], ["des", "ire"], ["est", ","], ["wind", "s"], ["bl", "ue"], ["vis", "it"], ["there", "!"], ["it", "?"], ["ke", "y"], ["Captain", ","], ["id", "ol"], ["am", "id"], ["um", "b"], ["swe", "ep"], ["mar", "vell"], ["earth", "ly"], ["accoun", "table"], ["himself", "."], ["peril", "s"], ["follow", "ing"], ["po", "ck"], ["fro", "st"], ["b", "oo"], ["one", "st"], ["itself", ","], ["ent", "y"], ["n", ","], ["hun", "g"], ["lim", "b"], ["n", "er"], ["fin", "al"], ["h", "ump"], ["landlord", ","], ["ye", "?"], ["set", "t"], ["That", "\u2019s"], ["co", "at"], ["br", "im"], ["al", "o"], ["be", "come"], ["sleep", "ing"], ["he", "ight"], ["pri", "v"], ["n", "one"], ["get", "ting"], ["in", "ning"], ["morn", "ing,"], ["ish", "ing"], ["c", "ool"], ["snow", "-"], ["moment", ","], ["prod", "ig"], ["A", "f"], ["ye", "llow"], ["tru", "th"], ["while", ","], ["as", "c"], ["h", "id"], ["again", "."], ["c", "iv"], ["civ", "il"], ["smo", "king"], ["G", "ood"], ["c", "ul"], ["se", "quent"], ["ac", "c"], ["ust", "om"], ["Se", "e"], ["be", "at"], ["kn", "ife"], ["also", ","], ["l", "of"], ["lof", "ty"], ["fa", "ther"], ["au", "ght"], ["ul", "ous"], ["cabin", "."], ["spe", "aking"], ["remain", "ed"], ["low", "er"], ["be", "ach"], ["le", "ak"], ["de", "cl"], ["im", "press"], ["v", "ag"], ["Mr", "s."], ["Y", "o"], ["Yo", "jo"], ["h", "ull"], ["ch", "as"], ["ha", "iled"], ["\u201cA", "ye,"], ["inst", "ances"], ["\u2014", "that"], ["ition", ","], ["-", "of"], ["fish", "ery"], ["in", "tel"], ["D", "agg"], ["Dagg", "oo"], ["Fo", "li"], ["_)", ".\u2014"], ["hun", "t"], ["O", "r"], ["T", "A"], ["et", "."], ["ck", "."], ["T", "own-"], ["Town-", "Ho"], ["R", "o"], ["is", "ter"], ["H", "ist"], ["f", "un"], ["sign", "ific"], ["anim", "al"], ["med", "i"], ["_", ";"], ["at", "ic"], ["pleas", "ant"], ["re", "f"], ["O", "ne"], ["ag", "on"], ["b", "esid"], ["o", "s"], ["his", ","], ["bon", "es"], ["kill", "ed"], ["b", "al"], ["a", "im"], ["ure", ","], ["S", "ir"], ["pon", "der"], ["jaw", "s"], ["qu", "ently"], ["s", "wi"], ["swi", "ft"], ["arm", "ed"], ["se", "ld"], ["seld", "om"], ["re", "fer"], ["am", "ent"], ["re", "ck"], ["ro", "ck"], ["n", "et"], ["he", ","], ["p", "ast"], ["w", "ake"], ["ish", "ment"], ["l", "ance"], ["eag", "er"], ["pow", "er"], ["ar", "ily"], ["k", "no"], ["ph", "ilo"], ["philo", "so"], ["was", "h"], ["w", "av"], ["prev", "ious"], ["el", "s"], ["men", ";"], ["su", "ff"], ["poss", "ibly"], ["des", "er"], ["gl", "ory"], ["myself", ","], ["consid", "erable"], ["pass", "ed"], ["ear", "nest"], ["secre", "t"], ["un", "accountable"], ["barb", "ar"], ["con", "ne"], ["be", "came"], ["an", "x"], ["d", "le"], ["follow", "ed"], ["l", "oud"], ["did", "n\u2019t"], ["ies", ";"], ["fi", "ery"], ["lin", "es"], ["im", "ag"], ["gre", "g"], ["sub", "ject"], ["r", "ust"], ["r", "al"], ["fanc", "y"], ["att", "empt"], ["t", "um"], ["c", "y"], ["as", "s,"], ["me", "as"], ["U", "pon"], ["de", "c"], ["f", "ain"], ["fl", "ed"], ["of", ","], ["cr", "y"], ["dart", "ed"], ["sp", "are"], ["fle", "w"], ["bl", "ess"], ["then", "."], ["other", "wise"], ["Af", "ter"], ["o", ","], ["ag", "es,"], ["prod", "u"], ["d", "inn"], ["in", "ced"], ["R", "e"], ["board", ","], ["t", "akes"], ["a", "me"], ["pr", "ay"], ["p", "agan"], ["en", "ess,"], ["g", "iv"], ["mo", "ther"], ["th", "ird"], ["l", "it"], ["al", "ive"], ["for", ","], ["or", "ous"], ["des", "c"], ["look", "s"], ["if", "ied"], ["know", "s"], ["day", "s,"], ["fisher", "y,"], ["bl", "es"], ["der", ","], ["pro", "v"], ["hel", "m"], ["li", "est"], ["seas", "."], ["cabin", ","], ["ob", "li"], ["th", "under"], ["A", "ye,"], ["il", "ity"], ["it", "ies,"], ["picture", "s"], ["ist", "s"], ["nat", "ive"], ["own", "ers"], ["b", "an"], ["E", "m"], ["super", "ior"], ["ant", "s"], ["\u2019", "ye"], ["horiz", "on"], ["hun", "ter"], ["ham", "mer"], ["sail", "ing"], ["im", "per"], ["af", "t"], ["r", "ising"], ["sail", "s"], ["peri", "od"], ["lat", "itud"], ["Pequod", "\u2019s"], ["I", "II."], ["boat", "\u2019s"], ["o", "ars"], ["pull", ","], ["Lake", "man"], ["W", "HA"], ["W", "he"], ["Ramad", "an"], ["to", "log"], ["able", "."], ["Whale", "."], ["T", "e"], ["S", "he"], ["up", "per"], ["ch", "ool"], ["oo", "se"], ["b", "lo"], ["1", "0"], ["Bl", "ack"], ["re", "su"], ["S", "."], ["S", "pan"], ["b", "ird"], ["f", "are"], ["g", "ul"], ["-", "p"], ["\u201c", "There"], ["\u201c", "In"], ["p", "ent"], ["mon", "str"], ["th", "ir"], ["moder", "n"], ["hu", "ge"], ["sp", "ort"], ["cl", "im"], ["s", "me"], ["Sou", "th"], ["o", "\u2019"], ["st", "uff"], ["p", "s"], ["art", "ic"], ["boat", "s,"], ["ren", "ch"], ["sir", ","], ["some", "where"], ["am", ","], ["h", "ill"], ["mo", "on"], ["en", "or"], ["entire", "ly"], ["ex", "c"], ["regard", "ed"], ["oc", "cur"], ["way", "s,"], ["v", "es,"], ["ct", "ic"], ["pursu", "it"], ["g", "ale"], ["one", "y"], ["h", "ous"], ["deli", "ber"], ["quiet", "ly"], ["ch", "er"], ["lean", "ing"], ["ben", "ch"], ["car", "ri"], ["d", "ed"], ["app", "ing"], ["sil", "ver"], ["pass", "eng"], ["hab", "it"], ["j", "ump"], ["tran", "s"], ["oun", "t"], ["do", "g"], ["\u2014", "he"], ["other", "s"], ["present", "ed"], ["us", "ion"], ["arm", ","], ["point", "ed"], ["al", "ready"], ["ad", "vent"], ["l", "ted"], ["ion", "s,"], ["ne", "gro"], ["air", ";"], ["word", "s"], ["ou", "ter"], ["place", ","], ["wood", "en"], ["u", "ous"], ["ast", "ing"], ["t", "at"], ["w", "id"], ["sy", "stem"], ["imag", "in"], ["bl", "ast"], ["w", "inter"], ["op", "pos"], ["w", "all"], ["wrink", "led"], ["l", "es,"], ["v", "ill"], ["sou", "ght"], ["bl", "ank"], ["f", "ing"], ["crew", "."], ["st", "iff"], ["priv", "ate"], ["ap", "art"], ["t", "id"], ["sn", "ug"], ["v", "ig"], ["s", "oft"], ["Th", "ink"], ["under", "stand"], ["st", "air"], ["dut", "y"], ["tain", "ing"], ["f", "ight"], ["whale", "man"], ["h", "onest"], ["abo", "ard"], ["k", "in"], ["hid", "den"], ["b", "is"], ["d", "uring"], ["short", ","], ["roll", "ing"], ["regular", "ly"], ["hard", "ly"], ["cal", "cul"], ["ach", "ed"], ["trou", "bled"], ["e", "ks"], ["dre", "w"], ["le", "ave"], ["Never", "theless,"], ["hun", "ted"], ["degre", "e"], ["if", ","], ["sk", "y"], ["if", "ul"], ["se", "t,"], ["sol", "itary"], ["mil", "k"], ["pl", "ant"], ["swe", "et"], ["in", "stead"], ["sole", "mn"], ["f", "ash"], ["God", ","], ["fe", "ature"], ["for", "mer"], ["ac", "ross"], ["lif", "ted"], ["there", ";"], ["re", "lie"], ["s", "well"], ["de", "p"], ["whar", "f"], ["\u201c", "H"], ["st", "ate"], ["ion", ";"], ["de", "light"], ["it", "!"], ["hand", "s,"], ["c", "ou"], ["ac", "qu"], ["s", "ke"], ["ask", "ed"], ["D", "id"], ["mem", "or"], ["int", "ense"], ["strange", "ly"], ["e", "h"], ["offic", "ers"], ["in", "cl"], ["accord", "ing"], ["al", "ter"], ["reli", "g"], ["se", "vent"], ["away", ","], ["-of", "-"], ["St", "and"], ["For", ","], ["invest", "ed"], ["D", "ough"], ["Dough", "-B"], ["sc", "ient"], ["scient", "ific"], ["P", "orpoise"], ["boy", "s,"], ["TH", "E"], ["WHA", "LE"], ["S", "ub"], ["In", "n"], ["B", "o"], ["own", "."], ["Sh", "ip"], ["ch", "."], ["Dick", "."], ["S", "c"], ["oun", "tain"], ["ine", "."], ["1", "1"], ["1", "2"], ["l", "a"], ["pre", "ser"], ["heart", ","], ["D", "ut"], ["A", "."], ["A", "L"], ["-", "st"], ["ear", "th,"], ["it", "able"], ["at", "or"], ["pre", "p"], ["h", "ast"], ["ro", "o"], ["besid", "es"], ["mou", "th,"], ["b", "ig"], ["red", ","], ["pro", "phe"], ["receiv", "ed"], ["De", "ath"], ["pe", "ace"], ["d", "i"], ["learn", "ed"], ["ocean", ","], ["for", "ced"], ["e", "ight"], ["God", "\u2019s"], ["le", "y"], ["ri", "b"], ["a", "fr"], ["afr", "aid"], ["ordin", "ary"], ["p", "ir"], ["these", ","], ["st", "ro"], ["C", "u"], ["Cu", "vi"], ["ace", "ti"], ["b", "read"], ["ho", "sp"], ["tre", "m"], ["m", "ous"], ["every", "thing"], ["utter", "ly"], ["spec", "ies"], ["w", "o"], ["is", "s"], ["stri", "king"], ["l", ","], ["bro", "ther"], ["sail", ","], ["look", "-"], ["differ", "ent"], ["vic", "in"], ["Coff", "in"], ["thr", "ow"], ["precise", "ly"], ["in", "vol"], ["T", "ake"], ["separ", "ate"], ["tor", "ment"], ["offic", "er"], ["E", "gy"], ["Egy", "pt"], ["put", "ting"], ["that", "."], ["about", ","], ["know", "ing"], ["un", "iver"], ["vi", "ol"], ["repe", "ated"], ["And", ","], ["exact", "ly"], ["ind", "u"], ["name", "less"], ["hor", "r"], ["so", "cial"], ["me", "\u2014"], ["sw", "ung"], ["sh", "ir"], ["start", "ed"], ["emb", "ark"], ["whal", "ing,"], ["on", "es"], ["Ishma", "el,"], ["al", "ed"], ["vi", "ce"], ["me", "ant"], ["be", "yon"], ["beyon", "d"], ["j", "et"], ["ct", ","], ["tem", "pest"], ["wor", "se"], ["how", "ling"], ["tal", "k"], ["shad", "ow"], ["En", "g"], ["Eng", "land"], ["ner", "v"], ["ce", "pt"], ["pr", "im"], ["y", "ield"], ["fact", ","], ["spr", "ing"], ["sh", "ud"], ["sc", "re"], ["plac", "es"], ["in", "ing"], ["\u201c", "But"], ["dre", "ssed"], ["resol", "ved"], ["even", "ing"], ["marin", "ers"], ["land", "ed"], ["per", "s"], ["face", ","], ["s", "lip"], ["natur", "ally"], ["bo", "lt"], ["on", "es,"], ["there", "by"], ["\u201c", "D"], ["light", "ed"], ["jack", "et,"], ["ho", "t"], ["Me", "an"], ["ship", "ped"], ["na", "ught"], ["agg", "ed"], ["fat", "al"], ["p", "uff"], ["cl", "oud"], ["\u201c", "Queequeg"], ["har", "m"], ["pre", "s"], ["M", "y"], ["app", "ed"], ["aw", "ful"], ["po", "st"], ["char", "ac"], ["usu", "al"], ["fig", "ure"], ["wa", "ist"], ["self", "-"], ["tain", "ed"], ["prof", "ound"], ["that", "_"], ["ind", "iv"], ["indiv", "id"], ["individ", "ual"], ["are", "st"], ["sp", "ite"], ["fl", "ow"], ["re", "cord"], ["ant", "i"], ["al", ","], ["spirit", "ual"], ["F", "ather"], ["his", "tor"], ["dist", "inct"], ["terr", "ors"], ["h", "ip"], ["Jonah", "\u2019s"], ["wor", "thy"], ["it", "ive"], ["arm", "s"], ["h", "ide"], ["sle", "eper"], ["drop", "ped"], ["re", "tre"], ["ind", "if"], ["indif", "fer"], ["hom", "e,"], ["il", "i"], ["des", "per"], ["hint", "ed"], ["ma", "j"], ["maj", "est"], ["il", "s"], ["t", "orn"], ["ren", "g"], ["le", ";"], ["tr", "ad"], ["o", "hog"], ["hun", "ters"], ["ch", "ow"], ["chow", "der"], ["af", "fair"], ["king", "s"], ["ire", "d"], ["wi", "g"], ["t", "emp"], ["water", "s,"], ["t", "ask"], ["below", ","], ["gh", "ost"], ["b", "attle"], ["im", "e,"], ["matter", ","], ["scut", "tle"], ["as", "cri"], ["ev", "inced"], ["horizon", "tal"], ["ct", "av"], ["ha", "il"], ["o", "ar"], ["Can", "all"], ["ber", "g"], ["at", "es,"], ["M", "O"], ["C", "K"], ["ing", "s."], ["gr", "ap"], ["arr", "ow"], ["st", "ir"], ["Ahab", ";"], ["W", "at"], ["T", "r"], ["Whal", "ing"], ["K", "ill"], ["as", "sa"], ["ow", "ard"], ["B", "ul"], ["S", "y"], ["ver", "s"], ["co", "at,"], [".", "_"], ["im", "medi"], ["a", "x"], ["Dut", "ch"], ["st", "at"], ["ish", ","], ["empt", "y"], ["ye", "!"], ["Se", "a"], ["m", "ong"], ["fo", "am"], ["u", "c"], ["\u201c", "_"], ["narr", "ative"], ["A.", "D"], ["O", "ld"], ["whale", ".\u201d"], ["V", "ery"], ["thir", "ty"], ["year", "s,"], ["s", "it"], ["V", "."], ["H", "u"], ["p", "ip"], ["C", "o"], ["fre", "quently"], ["Voy", "age"], ["oil", ","], ["sme", "ll"], ["spec", "ial"], ["import", "ant"], ["J", "oh"], ["j", "un"], ["f", "y"], ["appro", "ach"], ["re", "quire"], ["E", "u"], ["ve", "lo"], ["c", "ity"], ["ele", "ment"], ["inst", "inct"], ["s", "word"], ["obser", "ved"], ["ac", "y"], ["co", "t"], ["p", "air"], ["dest", "roy"], ["eng", "aged"], ["ll", "ed"], ["ast", "on"], ["con", "ven"], ["iz", "e"], ["Com", "mod"], ["Commod", "ore"], ["voy", "ages"], ["look-", "out"], ["vessel", "s"], ["re", "turn"], ["m", "ass"], ["sh", "ot"], ["al", "e,"], ["cl", "aim"], ["when", "ever"], ["re", "ar"], ["pr", "inc"], ["ex", "tre"], ["b", "ree"], ["ag", "u"], ["le", "aves"], ["in", "fall"], ["happ", "en"], ["smo", "ke"], ["reach", "ing"], ["moun", "tain"], ["N", "ar"], ["is", "su"], ["our", "selves"], ["need", "s"], ["ship", "s,"], ["not", "."], ["but", "ter"], ["i", "ally"], ["sail", "or,"], ["sat", "is"], ["ar", "y,"], ["comfor", "table"], ["b", "ri"], ["re", "sid"], ["enc", "y"], ["as", "ed"], ["lo", "d"], ["end", "less"], ["p", "ack"], ["day", "."], ["cra", "ft,"], ["am", "az"], ["mid", "dle"], ["con", "cl"], ["ac", "ed"], ["p", "or"], ["How", "ever,"], ["were", ","], ["marvell", "ous"], ["thr", "ust"], ["sh", "iver"], ["st", "ud"], ["care", "ful"], ["thr", "owing"], ["fair", "ly"], ["own", ","], ["op", "in"], ["shud", "der"], ["remo", "test"], ["se", "ll"], ["try", "ing"], ["susp", "ic"], ["together", ","], ["re", "port"], ["m", "uf"], ["be", "ard"], ["Jonah", ","], ["some", "what"], ["min", "ut"], ["o\u2019", "clo"], ["I\u2019", "m"], ["thought", "s"], ["r", "age"], ["act", "ually"], ["shout", "ed"], ["gu", "ess"], ["tim", "ate"], ["st", "ay"], ["anch", "or"], ["sc", "r"], ["re", "member"], ["sa", "ve"], ["to", "."], ["com", "pl"], ["squ", "are"], ["che", "ek"], ["this", ";"], ["tat", "too"], ["cour", "se"], ["ef", "fect"], ["be", "a"], ["Y", "e"], ["little", ","], ["all", ";"], ["sym", "p"], ["conclud", "ing"], ["giv", "ing"], ["clo", "the"], ["od", "d"], ["il", "t,"], ["g", "ing"], ["ex", "plain"], ["circumst", "ance"], ["ak", "e,"], ["ness", "."], ["dr", "ag"], ["mon", "th"], ["mo", "ve"], ["ne", "ither"], ["command", "ed"], ["pie", "ce"], ["harpoone", "ers,"], ["rop", "ic"], ["slight", "est"], ["f", "old"], ["be", "ef"], ["see", "k"], ["dist", "ing"], ["disting", "u"], ["sh", "ri"], ["wor", "ship"], ["J", "ap"], ["gra", "ve"], ["man", "kind"], ["im", "mortal"], ["fe", "ed"], ["M", "app"], ["sym", "bo"], ["ser", "en"], ["contin", "ual"], ["hither", "to"], ["man", "!"], ["e", "ye,"], ["ap", "prehens"], ["iz", "ing"], ["consc", "ience"], ["ang", "s"], ["R", "oman"], ["ra", "ce"], ["b", "ing"], ["v", "ac"], ["circ", "le"], ["ship", ";"], ["de", "em"], ["in", "v"], ["sh", "ut"], ["whal", "er"], ["in", "ce"], ["int", "ent"], ["\u2014", "for"], ["to", "ken"], ["st", "reng"], ["ro", "ared"], ["re", "ve"], ["up", "."], ["pra", "ir"], ["won", "dr"], ["ull", ","], ["vag", "ue"], ["\u201c", "C"], ["pro", "spect"], ["on", "ed"], ["d", "eter"], ["deter", "min"], ["Quak", "er"], ["d", "\u2019ye"], ["crow", "\u2019s"], ["lif", "e,"], ["pra", "ct"], ["sevent", "y-"], ["e", "!"], ["rap", "id"], ["fr", "antic"], ["c", "ustom"], ["b", "and"], ["Qu", "ohog"], ["Starbuck", "\u2019s"], ["gaz", "ing"], ["sort", "s"], ["ian", ","], ["ent", "s"], ["fl", "ank"], ["kick", "ed"], ["b", "ub"], ["cl", "ass"], ["ion", "al"], ["thing", "."], ["-", "fish"], ["O", "ctav"], ["mast-head", "s"], ["re", "venge"], ["mon", "oman"], ["L", "im"], ["Se", "b"], ["Seb", "ast"], ["any", "where"], ["or", "g"], ["g", "er"], ["E", "T"], ["der", "."], ["sc", "ri"], ["night", "s"], ["C", "e"], ["S", "pe"], ["-", "Head"], ["F", "ed"], ["Fed", "all"], ["Fedall", "ah"], ["out", "."], ["ro", "s"], ["al", "."], ["Whale", "\u2019s"], ["ast", "ed"], ["ir", "g"], ["W", "ill"], ["pro", "ject"], ["d", "om"], ["p", "ale"], ["th", "read"], ["now", "."], ["fl", "ag"], ["mind", "ed"], ["s", "chool"], ["n", "am"], ["ict", "ion"], ["us", "ions"], ["val", "u"], ["thought", ","], ["c", "roo"], ["croo", "ked"], ["mon", "st"], ["monstr", "ous"], ["hor", "se"], ["se", "c"], ["L", "ike"], ["th", "ro"], ["il", "li"], ["b", "es"], ["stre", "am"], ["att", "end"], ["t", "wel"], ["A", "fri"], ["mast", "s"], ["d", "u"], ["bale", "en"], ["mast", "er"], ["fi", "er"], ["obe", "y"], ["itud", "e,"], ["deep", ","], ["comp", "ar"], ["large", "st"], ["sup", "posed"], ["fisher", "men"], ["F", "rench"], ["co", "ast,"], ["cover", "ed"], ["C", "ol"], ["net", "t"], ["H", "ad"], ["\u2019", "d"], ["ac", "ious"], ["i", "er"], ["\u2019t", "is"], ["thre", "w"], ["r", "ain"], ["w", "ish"], ["He", "\u2019s"], ["Sc", "ores"], ["in", "f"], ["enor", "mous"], ["comp", "et"], ["dang", "erous"], ["B", "en"], ["whe", "el"], ["rush", "ed"], ["dire", "ctly"], ["prob", "ably"], ["again", ";"], ["my", "stic"], ["\u201c", "It"], ["ent", "r"], ["per", "pend"], ["perpend", "icular"], ["princ", "ip"], ["is", "to"], ["sur", "round"], ["stre", "ets"], ["ward", "."], ["extre", "me"], ["pe", "ep"], ["f", "ield"], ["yon", "der"], ["Te", "ll"], ["ab", "sent"], ["pl", "ung"], ["sup", "p"], ["ad", "e"], ["he", "al"], ["cra", "z"], ["ian", "s"], ["de", "eper"], ["r", "ag"], ["part", ","], ["s", "cho"], [",", "\u2014"], ["somehow", ","], ["f", "ow"], ["j", "udg"], ["py", "r"], ["pyr", "amid"], ["s", "ense"], ["ke", "en"], ["order", "s"], ["inst", "ance"], ["y", "s"], ["differ", "ence"], ["F", "in"], ["so", "."], ["su", "spect"], ["this", ":"], ["jo", "lly"], ["ce", "ive"], ["h", "ood"], ["can", "o"], ["\u2014", "so"], ["concer", "n"], ["b", "ag"], ["H", "ar"], ["\u2014", "but"], ["ser", "vice"], ["boo", "ts"], ["us", "es"], ["bo", "x"], ["ra", "h"], ["pu", "sh"], ["f", "ac"], ["pul", "p"], ["ch", "urch"], ["sw", "inging"], ["b", "ed."], ["ch", "at"], ["z", "en"], ["fe", "et,"], ["be", "."], ["gl", "ing"], ["w", "arr"], ["g", "ig"], ["gig", "antic"], ["des", "ign"], ["cle", "an"], ["oppos", "ite"], ["world", "\u2019s"], ["may", ","], ["ang", "ed"], ["tell", "ing"], ["in", "\u2019"], ["orn", "ing"], ["sp", "ace"], ["y,", "\u201d"], ["comple", "x"], ["at", "s"], ["years", "\u2019"], ["muf", "fled"], ["be", "ars"], ["az", "z"], ["shad", "ows"], ["ann", "oun"], ["ra", "ised"], ["Bul", "king"], ["seem", "ing"], ["b", "ump"], ["meas", "ure"], ["w", "all,"], ["wh", "ir"], ["St", "ill"], ["f", "fer"], ["y", "es,"], ["ped", "d"], ["eas", "y,"], ["show", "ed"], ["prodig", "ious"], ["ant", ","], ["hammo", "ck"], ["tri", "ed"], ["comm", "only"], ["life", "."], ["Whe", "ther"], ["spo", "ken"], ["employ", "ed"], ["ing", "-"], ["conclud", "ed"], ["pass", "ing"], ["not", "ic"], ["um", "bling"], ["back", "."], ["r", "as"], ["prev", "iously"], ["bis", "cu"], ["suc", "ceed"], ["ac", "co"], ["spr", "ang"], ["now", ";"], ["sc", "atter"], ["Don", "\u2019t"], ["keep", "ing"], ["\u2014", "this"], ["s", "ens"], ["ne", "y,"], ["sub", "sequent"], ["sho", "ck"], ["en", "ced"], ["charac", "ter"], ["ward", "s,"], ["civil", "ized"], ["str", "ain"], ["beg", "ins"], ["ste", "el"], ["break", "fast"], ["cross", "ing"], ["led", "ge"], ["\u2014", "all"], ["_", "that_"], ["peculiar", "ities"], ["ro", "ad"], ["most", "ly"], ["when", "ce"], ["ri", "c"], ["bra", "ve"], ["w", "om"], ["m", "us"], ["mood", "y"], ["re", "ign"], ["coun", "ten"], ["not", "ice"], ["therefore", ","], ["en", "su"], ["eter", "nal"], ["pul", "pit"], ["ent", "ial"], ["jo", "int"], ["gall", "ant"], ["in", "ser"], ["pr", "ow"], ["sum", "ing"], ["chap", "ter"], ["\u2014", "\u2018"], ["us", ";"], ["con", "s"], ["Be", "cause"], ["tou", "ched"], ["ist", "ing"], ["Th", "en,"], ["lin", "e,"], ["tru", "th,"], ["f", "al"], ["le", "vel"], ["suc", "cess"], ["f", "it"], ["He", "aven"], ["like", "wise"], ["dire", "ct"], ["do", ","], ["ye", "."], ["gl", "ad"], ["top", "-"], ["rup", "t"], ["ity", ";"], ["exce", "ll"], ["col", "le"], ["l", "one"], ["jo", "in"], ["no", "se"], ["mere", "ly"], ["cr", "own"], ["ske", "let"], ["pl", "ed"], ["li", "ved"], ["ation", ";"], ["ap", "t"], ["sett", "led"], ["as", "su"], ["ro", "se"], ["c", "ask"], ["bulwark", "s,"], ["W", "as"], ["wondr", "ous"], ["c", "od"], ["impress", "ions"], ["barbar", "ic"], ["wig", "w"], ["main", "-mast"], ["temp", "or"], ["eh", "?"], ["\u2014", "\u201d"], ["i", "ous,"], ["\u2014", "that\u2019s"], ["Peleg", "."], ["vol", "u"], ["seventy-", "seven"], ["\u201c", "Captain"], ["s", "ink"], ["na", "me,"], ["interval", "s"], ["the", "e,"], ["good", "-"], ["d", "ashed"], ["ch", "ange"], ["l", "erable"], [")", ";"], ["re", "mark"], ["ye", ";"], ["gre", "y"], ["down", ";"], ["below", "."], ["wind", "l"], ["spr", "ing,"], ["re", "co"], [",", "00"], ["intel", "li"], ["cour", "age"], ["cr", "it"], ["superstit", "ious"], ["f", "ir"], ["terri", "fic"], ["ad", "ing"], ["King", "-"], ["King-", "Post"], ["Tashtego", ","], ["P", "ip"], ["iven", "ess"], ["popular", "ly"], ["sp", "on"], ["Dough-B", "oy"], ["Flask", "."], ["mark", "ed"], ["exam", "ple"], ["p", "all"], ["S", "le"], ["i", "ac"], ["pull", "ing"], ["stre", "t"], ["terr", "or"], ["snow-", "white"], ["Steelk", "ilt,"], ["Dick", ";"], ["Or", ","], ["includ", "ed"], ["it", "le"], ["H", "er"], ["Sub", "-"], ["b", "arrow"], ["m", "as"], ["A", "d"], ["Ce", "tolog"], ["S", "un"], ["a", "."], ["P", "icture"], ["Tr", "ue"], ["Whal", "es"], ["or", "k"], ["u", "o"], ["g", "ue"], ["irg", "in"], ["l", "ting"], ["p", "ub"], ["pub", "lic"], ["d", "ust"], ["g", "ay"], ["world", "."], ["u", "e,"], ["deli", "ver"], ["S", "w"], ["a", "ul"], ["I", "ce"], ["Span", "ish"], ["E", "E"], ["all", "usions"], ["There", "fore"], ["ct", "s"], ["prep", "ared"], ["sun", "rise"], ["Hist", "ory"], ["yard", "s"], ["be", "ast"], ["bul", "k"], ["ace", "t"], ["w", "ound"], ["M", "an"], ["P", "ar"], ["mo", "ving"], ["come", ";"], ["twel", "ve"], ["r", "im"], ["nor", "th"], ["1", "7"], ["br", "ing"], ["h", "oo"], ["G", "old"], ["Joh", "n"], ["en", "de"], ["ende", "av"], ["fier", "ce"], ["str", "anded"], ["So", "on"], ["L", "on"], ["Lon", "don"], ["l", "angu"], ["pl", "ing"], ["Po", "lar"], ["child", "ren"], ["God", "!"], ["O", "cean"], ["ap", "s"], ["head", ";"], ["curi", "os"], ["conven", "ient"], ["y", "!"], ["light", "ning"], ["lat", "e,"], ["leap", "ing"], ["ation", "al"], ["e", "ch"], ["i", "a,"], ["ind", "ire"], ["an", "ning"], ["E", "x"], ["vicin", "ity"], ["re", "turned"], ["t", "ree"], ["at", "ur"], ["ter", "n"], ["str", "u"], ["i", "ant"], ["m", "oney"], ["br", "inging"], ["me", "th"], ["meth", "od"], ["p", "isto"], ["bulwark", "s"], ["No", "thing"], ["magn", "et"], ["comp", "ass"], ["more", "."], ["p", "her"], ["se", "e,"], ["receiv", "ing"], ["ure", "ly"], ["s", "ick"], ["conf", "ess"], ["ting", "s"], ["creature", "s"], ["sim", "ple"], ["particular", "ly"], ["am", "ount"], ["mean", ","], ["sc", "al"], ["captain", "s"], ["ser", "ved"], ["round", ","], ["other", "\u2019s"], ["belie", "ve"], ["quarter-", "deck"], ["bre", "a"], ["in", "visible"], ["influ", "ences"], ["IS", "H"], ["E", "L"], ["circumst", "ances,"], ["ment", "."], ["whale", ";"], ["hel", "ped"], ["indu", "ce"], ["torment", "ed"], ["ever", "last"], ["g", "es"], ["flo", "ated"], ["pro", "cess"], ["arri", "ved"], ["mean", "while"], ["n", "ay,"], ["dis", "mal"], ["anx", "ious"], ["glo", "om"], ["dark", "ness"], ["low", ","], ["look", ","], ["f", "lying"], ["ash", "es"], ["f", "aint"], ["re", "present"], ["P", "eter"], ["enough", ","], ["ro", "c"], ["wind", "ow"], ["wind", "ow,"], ["pro", "ve"], ["li", "on"], ["p", "ill"], ["sh", "aking"], ["sum", "mer"], ["ser", "v"], ["dr", "ink"], ["ub", "ber"], ["pl", "enty"], ["cent", "re"], ["dri", "ve"], ["su", "bl"], ["mid", "night"], ["mid", "st"], ["con", "ver"], ["ex", "as"], ["exas", "per"], ["he", "a"], ["ix", "ed"], ["l", "ances"], ["ent", "ered"], ["tra", "vell"], ["ch", "im"], ["\u2014", "you"], ["ction", ","], ["cur", "sed"], ["deli", "ri"], ["\u2014", "not"], ["bit", "ter"], ["wor", "king"], ["sum", "mon"], ["me", "al"], ["\u201cL", "and"], ["\u201cLand", "lord"], ["\u201c", "that"], ["a", "fore"], ["sp", "end"], ["no", "ise"], ["agg", "y"], ["ll", "en"], ["ou", "red"], ["pit", "ch"], ["sw", "ore"], ["ship", "mate"], ["descri", "pt"], ["b", "raw"], ["br", "own"], ["seem", "s,"], ["Bulking", "ton"], ["over", "."], ["ho", "le"], ["\u2014", "I"], ["qu", "it"], ["high", "er"], ["d", "ra"], ["aken", "ed"], ["\u201c", "what"], ["bless", "ed"], ["seen", ","], ["conf", "ident"], ["dem", "and"], ["man", ";"], ["S", "al"], ["There", "\u2019s"], ["flo", "or,"], ["plac", "ing"], ["dou", "ble"], ["dis", "appeared"], ["scr", "ut"], ["flo", "or"], ["seam", "an"], ["un", "k"], ["hur", "ry"], ["beg", "inning"], ["p", "ant"], ["infer", "nal"], ["spo", "ke"], ["notic", "ed"], ["sing", "ing"], ["do", "or,"], ["c", "oward"], ["contin", "u"], ["leg", "s"], ["in", "ated"], ["con", "v"], ["in", "side"], ["s", "nat"], ["pol", "ite"], ["in", "cre"], ["o", "per"], ["spe", "ll"], ["com", "preh"], ["\u201c", "Who"], ["kill", "-e"], ["What", "\u2019s"], ["af", "fe"], ["stri", "p"], ["here", "."], ["gre", "ate"], ["greate", "st"], ["super", "natural"], ["p", "iled"], ["as", "ide"], ["leng", "th,"], ["de", "lic"], ["wor", "th"], ["un", "usual"], ["face", "."], ["be", "hold"], ["exceed", "ingly"], ["pr", "oud"], ["quick", "ly"], ["st", "ed"], ["mal", "ice"], ["slight", "ly"], ["t", "ast"], ["wh", "y,"], ["fl", "es"], ["b", "uck"], ["sperm", "aceti"], ["pot", "ent"], ["s", "and"], ["g", "ri"], ["comm", "un"], ["l", "ain"], ["read", "ing"], ["n", "ames"], ["not", ";"], ["d", "ied"], ["scarce", "ly"], ["ic", "ient"], ["Mapp", "le"], ["rop", "e,"], ["seen", "."], ["out", "ward"], ["g", "ang"], ["fl", "ing"], ["end", "ed,"], ["jo", "ined"], ["less", "on"], ["heart", "ed"], ["w", "il"], ["con", "ve"], ["sel", "ves,"], ["see", "king"], ["T", "ars"], ["Tars", "his"], ["find", "s"], ["it", "em"], ["it", "ions"], ["cri", "es"], ["Th", "us"], [",", "\u2019"], ["ra", "cted"], ["feel", "s"], ["v", "ious"], ["ber", "th"], ["d", "y"], ["hide", "ous"], ["itud", "es,"], ["app", "all"], ["cond", "uct"], ["fa", "th"], ["fath", "om"], ["down", ","], ["pl", "um"], ["tre", "ach"], ["g", "ives"], ["chief", "ly"], ["\u2014", "as"], ["en", "er"], ["bo", "om"], ["deem", "ed"], ["lur", "ked"], ["h", "ence"], ["don", "e,"], ["soul", "s"], ["ul", "s"], ["H", "igh"], ["seam", "en,"], ["susp", "ended"], ["home", "."], ["watch", ","], ["harpo", "on,"], ["con", "se"], ["peril", "ous"], ["lung", "s"], ["\u201cL", "ook"], ["form", "."], ["un", "conscious"], ["ab", "s"], ["Nantucket", "er,"], ["lead", "ing"], ["\u201cQueequeg", ",\u201d"], ["f", "ood"], ["book", "s"], ["let", "\u2019s"], ["har", "b"], ["cas", "es"], ["rush", "ing"], ["D", "am"], ["wor", "n"], ["t", "end"], ["st", "out"], ["wind", "ward"], ["do", "st"], ["did", "st"], ["V", "ine"], ["Vine", "yard"], ["ind", "is"], ["say", "ing,"], ["un", "common"], ["a", "ud"], ["b", "ir"], ["bir", "th"], ["sp", "i"], ["insu", "lt"], ["all", "-"], ["G", "ay"], ["know", ","], ["gir", "l"], ["inc", "ident"], ["on", "om"], ["crew", ";"], ["d", "ome"], ["dome", "stic"], ["leg", ","], ["be", ";"], ["long", "er"], ["hat", "ch"], ["v", "ap"], ["Me", "ant"], ["app", "ar"], ["t", "us"], ["stead", "y"], ["remain", "s"], ["bl", "ind"], ["less", "ness"], ["adv", "ance"], ["em", "in"], ["l", "iness"], ["ab", "ound"], [",00", "0"], ["mann", "ed"], ["ap", "ed"], ["har", "bor"], ["o", "es"], ["ial", ","], ["imper", "ial"], ["On", "ly"], ["fir", "m"], ["with", "stand"], ["moun", "t"], ["whales", ";"], ["Daggoo", ","], ["Is", "land"], ["by", ";"], ["(_", "Foli"], ["(_", "Octav"], ["reco", "gn"], ["captain", "\u2019s"], ["l", "oung"], ["crow\u2019s", "-"], ["crow\u2019s-", "nest"], ["whisper", "ed"], ["w", "re"], ["St", "."], ["mad", "ness"], ["uff", "alo"], ["pump", "s"], ["leap", "ed"], ["Lake", "man,"], ["so", "ever"], ["term", "s"], ["D", "an"], ["L", "az"], ["Laz", "ar"], ["ar", "ian"], ["L", "o"], ["C", "hap"], ["el", "."], ["Nantucket", "."], ["Go", "ing"], ["board", "."], ["M", "er"], ["ate", "."], ["scri", "pt"], ["H", "im"], ["M", "id"], ["F", "ore"], ["H", "ark"], ["H", "y"], ["bat", "ros"], ["M", "on"], ["Picture", "s"], ["Whal", "es,"], ["one", ";"], ["B", "r"], ["Stubb", "\u2019s"], ["T", "al"], ["at", "tering"], ["Gre", "at"], ["id", "el"], ["Gr", "and"], ["is", "."], ["ow", "er"], ["l", "es."], ["Th", "under"], ["L", "ife"], ["1", "3"], ["De", "light"], ["b", "in"], ["bod", "y,"], ["immedi", "ately"], ["stre", "et"], ["valu", "able"], ["af", "ford"], ["Leviathan", ","], ["than", "k"], ["spl", "inter"], ["un", "ch"], ["bre", "ed"], ["..", "."], ["_", ".\u201d"], ["cat", "ching"], ["tee", "th,"], ["six", "ty"], ["ud", "ge"], ["prophe", "t"], ["a", "con"], ["\u201c", "T"], ["doub", "t,"], ["thre", "at"], ["ponder", "ous"], ["ret", "ched"], ["bre", "ath"], ["swim", "ming"], ["Ho", "ly"], ["ch", "ance,"], ["flo", "ating"], ["Afri", "ca"], ["nav", "ig"], ["1", "6"], ["we", "ight"], ["g", "ard"], ["P", "h"], ["ab", "und"], ["ll", "o"], ["a", "\u2019s"], ["Americ", "a"], ["p", "et"], ["i", "th,"], ["after", "no"], ["C", "ook"], ["m", "und"], ["crew", "s"], ["sp", "ire"], ["are", ","], ["fif", "teen"], ["im", "men"], ["bo", "re"], ["ro", "aring"], ["o", "log"], ["B", "ar"], ["colour", ","], ["sho", "als"], ["myster", "ious"], ["jaw", ","], ["h", "ook"], ["is", ";"], ["Ar", "ch"], ["set", "ting"], ["wi", "ce"], ["out", ";"], ["st", "age"], ["answer", "ed,"], ["destroy", "ed"], ["18", "2"], ["moon", "light"], ["capt", "ure"], ["dist", "ance"], ["roll", "s"], ["aston", "ishment"], ["com", "mer"], ["Be", "ale"], ["18", "3"], ["bow", ","], ["occur", "red"], ["sur", "viv"], ["f", "uri"], ["E", "re"], ["there", "d"], ["s", "end"], ["he", "ll"], ["order", ","], ["ha", "un"], ["Th", "ese"], ["h", "it"], ["W", "est"], ["pu", "bl"], ["look-out", "s"], ["ex", "pan"], ["P", "ed"], ["ri", "an"], ["occas", "ion"], ["w", "in"], ["claim", "ed"], ["r", "are"], ["unt", "arily"], ["pisto", "l"], ["philoso", "ph"], ["fl", "our"], ["cher", "ish"], ["wav", "es,"], ["Ch", "in"], ["le", "agu"], ["l", "an"], ["ir", "t"], ["ra", "ct"], ["carri", "es"], ["infall", "ibly"], ["med", "it"], ["ac", "o"], ["m", "it"], ["\u2014", "what"], ["ch", "arm"], ["tra", "vel"], ["sad", "ly"], ["craz", "y"], ["my", "st"], ["vi", "br"], ["im", "age"], ["dr", "own"], ["no", ","], ["ab", "and"], ["dist", "in"], ["scho", "on"], ["r", "ous"], ["No", ","], ["forecast", "le,"], ["est", "abl"], ["fam", "ily"], ["a", "we"], ["as", "sure"], ["we", "igh"], ["ange", "l"], ["every", "body"], ["of", "."], ["p", "aid"], ["A", "h"], ["aster", "n"], ["li", "ce"], ["st", "ant"], ["doubt", "less,"], ["id", "ence"], ["bri", "ef"], ["inter", "l"], ["E", "le"], ["V", "O"], ["M", "A"], ["de", "l"], ["port", "ent"], ["sight", "s"], ["everlast", "ing"], ["remo", "te"], ["bid", "den"], ["fl", "ood"], ["conne", "cted"], ["gr", "ad"], ["ar", "th"], ["whalem", "en,"], ["\u2014", "to"], ["is", "k"], ["port", ","], ["stre", "ets,"], ["C", "ross"], ["stop", "ping"], ["tom", "b"], ["quar", "ter"], ["pro", "ved"], ["he", "aring"], ["pre", "ach"], ["mut", "ter"], ["d", "il"], ["dist", "ri"], ["never", "theless,"], ["it", "er"], ["p", "ity"], ["ch", "ip"], ["nor", "thern"], ["ye", "a,"], ["come", "."], ["qu", "ir"], ["warr", "ant"], ["nerv", "ous"], ["bre", "aking"], ["e", ";"], ["pos", "ing"], ["hea", "then"], ["k", "not"], ["sweep", "ing"], ["hor", "ri"], ["harpo", "ons"], ["wild", "ly"], ["tail", ","], ["she", "l"], ["ang", "le"], ["t", "ap"], ["d", "iver"], ["av", "ast"], ["\u201c", "you"], ["bed", ";"], ["st", "oo"], ["d", "um"], ["mann", "er."], ["t", "ion"], ["m", "ixed"], ["ice", "-"], ["ship", "mates"], ["f", "av"], ["strang", "er,"], ["fin", "ite"], ["m", "ult"], ["clo", "th"], ["r", "ough"], ["car", "pent"], ["bus", "in"], ["busin", "ess,"], ["set", "tle"], ["dra", "ught"], ["fet", "ch"], ["ffer", "able"], ["ic", "es"], ["bed", "fellow"], ["com", "prehens"], ["y", "arn"], ["st", "ick"], ["pass", "ion"], ["he", "."], ["ain", ","], ["stor", "ies"], ["confident", "ial"], ["sa", "fe"], ["Z", "e"], ["Ze", "al"], ["Wh", "y,"], ["stair", "s"], ["furn", "ish"], ["ye", ".\u201d"], ["old", "ing"], ["room", ";"], ["f", ","], ["out", "land"], ["fire", "-"], ["to", "re"], ["com", "men"], ["er", "y,"], ["still", ","], ["other", "."], ["tattoo", "ed"], ["ure", "."], ["inde", "pend"], ["pull", "ed"], ["gh", "ast"], ["n", "t"], ["escap", "ed"], ["pal", "m"], ["C", "ong"], ["b", "ab"], ["bl", "az"], ["sc", "or"], ["d", "ry"], ["c", "ere"], ["cere", "mon"], ["symp", "tom"], ["cloud", "s"], ["sa", "ke,"], ["scatter", "ed"], ["pip", "e,"], ["k", "ing,"], ["wi", "fe"], ["l", "ab"], ["together", ";"], ["fort", "un"], ["sun", "-"], ["wr", "apped"], ["close", "ly"], ["N", "ay,"], ["pre", "d"], ["co", "ll"], ["st", "y"], ["jo", "ke"], ["voyage", "."], ["t", "ropic"], ["contr", "asting"], ["wal", "k"], ["sil", "ence"], ["w", "arri"], ["here", ";"], ["n", "ut"], ["M", "ed"], ["ane", "an"], ["whaling", "-"], ["heed", "ed"], ["re", "el"], ["re", "put"], ["Y", "et,"], ["Atlantic", ","], ["Pacific", ","], ["that", "?"], ["ug", "ust"], ["bea", "ut"], ["con", "greg"], ["ref", "use"], ["n", "ation"], ["mat", "ch"], ["cold", ","], ["jack", "et"], ["st", "ubb"], ["sailor", "s,"], ["stead", "fast"], ["t", "s,"], ["R", "E"], ["D", "es"], ["I", "C"], ["side", "ways"], ["acc", "ident"], ["des", "ol"], ["dead", "ly"], ["the", "less"], ["main", "tain"], ["gre", "w"], ["mer", "ry"], ["\u2014", "aye,"], ["st", "ave"], ["suff", "icient"], ["ut", "most"], ["tru", "ly"], ["necess", "ary"], ["gain", "ing"], ["fa", "ith"], ["row", "ed"], ["snow", "y"], ["bow", "s,"], ["B", "ible"], ["clo", "sed"], ["off", "ered"], ["pro", "long"], ["li", "ft"], ["do", "om"], ["open", "ing"], ["God", "."], ["chap", "ters"], ["we", "ed"], ["ob", "ed"], ["obed", "ience"], ["command", "."], ["Tarshis", "h"], ["opin", "ion"], ["wr", "ong"], ["in", "no"], ["g", "ames"], ["li", "ke,"], ["Who", "\u2019s"], ["voice", ","], ["call", "s"], ["ent", "."], ["wr", "itt"], ["dis", "cer"], ["discer", "n"], ["allow", "ed"], ["rest", "ing"], ["ho", "le,"], ["w", "oe"], ["id", "es"], ["friend", "s,"], ["wi", "cked"], ["over", "board"], ["sid", "es"], ["soul", "."], ["oc", "cup"], ["so", "lic"], ["co", "p"], ["ant", "ing"], ["heav", "ed"], ["br", "ow,"], ["o", "int"], ["mis", "s"], ["bon", "es,"], ["W", "oe"], ["b", "ase"], ["J", "udg"], ["sh", "ake"], ["ious", "ness"], ["in", "e,"], ["his", ";"], ["fore", "head"], ["gl", "ance"], ["s", "imp"], ["sing", "ular"], ["tw", "enty"], ["int", "ens"], ["t", "es"], ["hosp", "it"], ["P", "agan"], ["do", "ll"], ["ch", "an"], ["f", "ut"], ["furn", "ished"], ["h", "anging"], ["fam", "ili"], ["famili", "ar"], ["skelet", "on"], ["con", "qu"], ["prev", "ail"], ["ow", "ed"], ["water", "."], ["stern", ","], ["gl", "iding"], ["desper", "ate"], ["d", "a"], ["u", "ated"], ["add", "ed"], ["P", "ot"], ["ignor", "ant"], ["ashore", ","], ["Did", "n\u2019t"], ["form", "s"], ["pre", "ced"], ["streng", "th,"], ["prair", "ie"], ["gr", "own"], ["capt", "ured"], ["world", ";"], ["seas", "ons"], ["sal", "t"], ["mal", "ic"], ["Em", "per"], ["her", "ds"], ["ass", "er"], ["cross", "-"], ["C", "od"], ["pol", "it"], ["it", "es"], ["f", "ast,"], ["ne", "arest"], ["v", "\u2019"], ["fle", "et"], ["whole", ","], ["of", ";"], ["h", "op"], ["in", "es"], ["deck", "s"], ["cent", "ur"], ["her", "ed"], ["l", "oose"], ["al", "i"], ["un", "ched"], ["s", "of"], ["so", ";"], ["ceiv", "ed"], ["agg", "er"], ["will", "ing"], ["origin", "ally"], ["ill", "ed"], ["relig", "ion"], ["pract", "ical"], ["cabin", "-"], ["dr", "ab"], ["ordin", "ate"], ["Bildad", ",\u201d"], ["know", "ledge"], ["import", "ance"], ["event", "ually"], ["seventy-seven", "th"], ["i", "ly,"], ["along", ","], ["T", "urn"], ["\u201c", "Yes,"], ["wonder", "s"], ["\u2019", "T"], ["that", ";"], ["reve", "aled"], ["land", "lad"], ["strang", "e,"], ["stro", "ke"], ["se", "ized"], ["into", "lerable"], ["prob", "ab"], ["here", "after"], ["n", "ur"], ["\u2019", "st"], ["whale-", "boat"], ["ent", "it"], ["entit", "led"], ["relie", "ved"], ["E", "very"], ["cra", "ck"], ["ste", "ward"], ["mind", ","], ["call", "ing"], ["vap", "or"], ["live", "ly"], ["offic", "ers,"], ["mate", "."], ["go", "."], ["for", "get"], ["Stubb", ";"], ["boat", "."], ["e", "en"], ["remark", "able"], ["r", "us"], ["de", "mo"], ["as", "soci"], ["?", "_"], ["sur", "mis"], ["qu", "al"], ["crit", "ical"], ["ble", "m"], ["ac", "le"], ["dis", "ast"], ["person", "ally"], ["af", "fr"], ["ere", "ct"], ["whal", "ers"], ["t", "amb"], ["tamb", "our"], ["tambour", "ine"], ["us", "ive"], ["sub", "tle"], ["calcul", "ated"], ["weather", ","], ["is", "el"], ["t", "le,"], ["plank", "s,"], ["B", "el"], ["aspect", ","], ["b", "inn"], ["f", "ab"], ["ve", "il"], ["ul", "timate"], ["ic", ","], ["sw", "am"], ["First", ":"], ["O", "L"], ["D", "E"], ["Whale", "_;"], ["(_Foli", "o_),"], ["der", "iv"], ["his", "t"], ["hist", "ory"], ["un", "ex"], ["den", "omin"], ["example", ","], ["Nar", "whale"], ["(_Octav", "o_),"], ["D", "uo"], ["Duo", "dec"], ["Duodec", "im"], ["zz", "a"], ["low", "ered"], ["h", "ue"], ["vig", "il"], ["det", "ail"], ["N", "or,"], ["d", "umb"], ["Sle", "et"], ["c", "ad"], ["ren", "ched"], ["de", "mon"], ["me", "!"], ["forecast", "le"], ["horr", "or"], ["T", "U"], ["\u2019", "re"], ["row", "!"], ["cru", "is"], ["mind", "s"], ["rum", "ors"], ["viv", "id"], ["stret", "ched"], ["ly", ":"], ["whit", "eness,"], ["C", "ab"], ["b", "ucket"], ["c", "ash"], ["we", "aving"], ["P", "ull,"], ["Rad", "ney,"], ["ut", "en"], ["B", "ook"], ["re", "stri"], ["co", "py"], ["2", "7"], ["O", "F"], ["B", "Y"], ["(", "S"], ["Sp", "ou"], ["Spou", "ter-"], ["Inn", "."], ["St", "re"], ["N", "ight"], ["i", "o"], ["grap", "h"], ["M", "ark"], ["P", "rop"], ["Christ", "mas"], ["S", "quire"], ["Stubb", "."], ["Que", "en"], ["at", "-"], ["Bo", "at"], ["batros", "s."], ["G", "am"], ["th", ";"], ["M", "ountain"], ["L", "ine."], ["S", "upper"], ["ish", "."], ["Me", "ets"], ["-", "Fish"], ["m", "ber"], ["U", "p"], ["im", "in"], ["sm", "ith"], ["e", "\u2014"], ["D", "ay"], ["Se", "cond"], ["V", "irgin"], ["b", "are"], ["hand", "k"], ["handk", "er"], ["handker", "chief"], ["n", "ations"], ["mild", "ly"], ["\u2014_", "R"], ["Ice", "land"], ["-", "N"], ["F", "e"], ["le", "ast,"], ["h", "ig"], ["stat", "ement"], ["gl", "ancing"], ["includ", "ing"], ["too", ";"], ["te", "ar"], ["G", "ive"], ["pain", "s"], ["er", "ies"], ["glass", "es"], ["cre", "ated"], ["p", "ath"], ["J", "ob"], ["ch", "a"], ["A", "mong"], ["be", "ating"], ["val", "ue"], ["long", "."], ["A.D", "._"], ["where", "as"], ["dread", "ful"], ["swallow", "ed"], ["on", "d"], ["c", "art"], ["qu", "ant"], ["acet", "ti"], ["br", "u"], ["trou", "ble"], ["T", "."], ["B", "row"], ["Brow", "ne"], ["wor", "ks"], ["sleep", "s"], ["land", ";"], ["ill", "s"], ["P", "r"], ["E", "d"], ["t", "ro"], ["ca", "ut"], ["\u201cM", "y"], ["er", "_."], ["G", "lo"], ["att", "ended"], ["s", "en"], ["l", "ph"], ["\u201cI", "f"], ["require", "s"], ["ad", "dress"], ["e", "ff"], ["equ", "al"], ["refer", "ence"], ["consider", "ation"], ["ble", "w"], ["dri", "ven"], ["heaven", "."], ["(_", "A"], ["infer", "ior"], ["marin", "er"], ["seen", ";"], ["w", "ast"], ["fr", "ont"], ["sp", "ir"], ["obser", "ving"], ["spout", "ing"], ["there", "\u2014"], ["point", "ing"], ["bu", "ilt"], ["\u201cNo", ","], ["answ", "ered"], ["T", "om"], ["oo", "per"], ["pap", "ers"], ["view", ","], ["ne", "g"], ["curios", "ity"], ["compet", "ent"], ["w", "it"], ["Beale", "\u2019s"], ["we", "ap"], ["pos", "ition"], ["F", "re"], ["Fre", "der"], ["Freder", "ick"], ["dem", "anded"], ["sir", ".\u201d"], ["ach", "es"], ["bl", "ows"], ["es", "\u2014"], ["in", "y"], ["or", "s."], ["assa", "ult"], ["port", "ion"], ["sto", "ck"], ["A", "no"], ["Ano", "ther"], ["b", "all"], ["indire", "ctly"], ["w", "s"], ["P", "ass"], ["publ", "ished"], ["im", "possible"], ["ren", "ts"], ["blood", "y"], ["sav", "ages"], ["em", "er"], ["\u201c", "On"], ["de", "stru"], ["li", "ves"], ["right", ","], ["bound", "less"], ["shore", ","], ["d", "amp"], ["invol", "untarily"], ["w", "are"], ["deliber", "ately"], ["kno", "cking"], ["sub", "stit"], ["surpr", "ising"], ["cor", "al"], ["bree", "z"], ["land", "."], ["ab", "b"], ["thousand", "s"], ["A", "re"], ["crow", "d"], ["d", "ive"], ["them", "\u2014"], ["we", "st"], ["un", "ite"], ["v", "irt"], ["-", "minded"], ["rom", "antic"], ["want", "ing"], ["po", "et"], ["hand", "ful"], ["myst", "ical"], ["mean", "ing"], ["much", ","], ["ship", "-"], ["fow", "l"], ["\u2014", "though"], ["j", "ud"], ["mast", ","], ["enough", "."], ["boy", "s"], ["th", "ump"], ["pun", "ch"], ["right", ";"], ["earnest", "ly"], ["Ah", "!"], ["forecast", "le."], ["test", "ed"], ["at", "es."], ["N", "G"], ["A", "G"], ["e", "el"], ["re", "call"], ["un", "ning"], ["Ch", "ief"], ["portent", "ous"], ["mar", "vel"], ["P", "at"], ["s", "way"], ["purpose", ","], ["uck", "ed"], ["al", "t"], ["Bedford", ","], ["then", "ce"], ["island", ","], ["age", ";"], ["advent", "ur"], ["part", "ly"], ["e", "at"], ["sound", "ed"], ["go", ","], ["de", "ar"], ["p", "aced"], ["Har", "po"], ["in", "ches"], ["sel", "ess"], ["mis", "erable"], ["t", "ink"], ["cand", "le"], ["H", "a!"], ["pick", "ed"], ["open", "ed"], ["row", "s"], ["black", "ness"], ["for", "l"], ["forl", "orn"], ["pain", "ting"], ["ig", "r"], ["dim", ","], ["stri", "ck"], ["corn", "er,"], ["tempest", "uous"], ["Eu", "roc"], ["Euroc", "ly"], ["Eurocly", "don"], ["house", "."], ["Lazar", "us"], ["e", "ars"], ["O", "ri"], ["gl", "it"], ["vi", "le"], ["mo", "ored"], ["fro", "zen"], ["bl", "ubber"], ["old", "-f"], ["old-f", "ash"], ["old-fash", "ioned"], ["in", "quir"], ["ne", "igh"], ["arri", "ve"], ["con", "found"], ["ast", "."], ["o", "ath"], ["re", "sem"], ["spe", "ar"], ["gr", "ass"], ["sun", "set"], ["fl", "ung"], ["d", "usk"], ["chim", "ney"], ["room", "."], ["cas", "es,"], ["fill", "ed"], ["death", "."], ["de", "ce"], ["s", "\u2019"], ["go", "ble"], ["u", "no"], ["de", "pend"], ["de", "cent"], ["car", "ved"], ["but", "ton"], ["mon", "key"], ["lip", "s"], ["ant", "ial"], ["ad", "dressed"], ["dire", "ful"], ["\u201c", "the"], ["do", "es,"], ["harpoone", "er."], ["r", "ate,"], ["St", "art"], ["cri", "ed,"], ["we", "\u2019ll"], ["sh", "aggy"], ["m", "ers"], ["l", "ass"], ["moun", "ted"], ["obser", "v"], ["so", "ber"], ["rest", "."], ["go", "ds"], ["Sou", "thern"], ["re", "vel"], ["comrad", "e"], ["fav", "our"], ["ul", "ate"], ["ment", ","], ["hammo", "ck,"], ["J", "ust"], ["sor", "ry"], ["gr", "inning"], ["sh", "av"], ["str", "uct"], ["ain", "ing"], ["g", "ather"], ["ck", "et"], ["night", "."], ["him", "\u2014"], ["ear", "ly"], ["pret", "end"], ["mark", "et"], ["\u201c", "but"], ["bro", "ke"], ["a", "\u2019"], ["another", ","], ["if", "ying"], ["he", "st"], ["st", "ark"], ["_", "you"], ["Zeal", "and"], ["mor", "row"], ["f", "oo"], ["com", "e,"], ["pit", "ched"], ["C", "ome"], ["consid", "ered"], ["disappeared", "."], ["ler", "ably"], ["gl", "anced"], ["proper", "ly"], ["con", "taining"], ["w", "ise,"], ["outland", "ish"], ["mat", ","], ["st", "uck"], ["commen", "ced"], ["head", "-"], ["a", "ver"], ["side", ";"], ["un", "earthly"], ["sure", ","], ["-", "sk"], ["bo", "lted"], ["E", "ven"], ["fear", ","], ["Mean", "while,"], ["gl", "ist"], ["pol", "ished"], ["back", "ed"], ["chap", "el"], ["fl", "ame"], ["with", "draw"], ["off", "er"], ["pock", "et"], ["comfor", "t"], ["sp", "ent"], ["to", "b"], ["tob", "acco"], ["now", ",\u201d"], ["clothe", "s"], ["side", "."], ["li", "ed,"], ["w", "aking"], ["affe", "ction"], ["p", "ane"], ["work", ","], ["col", "oured"], ["cut", "ting"], ["she", "et"], ["calcul", "ating"], ["sur", "re"], ["we", "eks"], ["hour", ","], ["experi", "enced"], ["event", "s"], ["com", "ical"], ["t", "ight"], ["ne", "ck"], ["I", ";"], ["sh", "ook"], ["ser", "ious"], ["b", "ent"], ["narr", "ow"], ["compl", "iment"], ["tr", "ows"], ["himself", ";"], ["ent", "ed"], ["sh", "ed"], ["could", ","], ["amaz", "ement"], ["arm", "s,"], ["m", "ir"], ["mar", "sh"], ["desc", "ending"], ["-", "room"], ["company", ","], ["m", "usk"], ["d", "ue"], ["she", "ep"], ["adm", "ir"], ["im", "min"], ["op", "ard"], ["cool", "ly"], ["che", "wed"], ["gl", "imp"], ["glimp", "se"], ["Med", "it"], ["Medit", "err"], ["af", "fright"], ["cannib", "als"], ["an", "s,"], ["fore", "st"], ["down", "right"], ["distingu", "ished"], ["can", "v"], ["A", "h,"], ["g", "ale,"], ["cond", "ition"], ["ro", "cks"], ["sle", "et"], ["stubb", "orn"], ["storm", "."], ["mar", "ble"], ["qu", "o"], ["I", "P"], ["C", "I"], ["Jap", "an,"], ["counten", "ance"], ["ce", "as"], ["t", "ically"], ["bro", "od"], ["bo", "som"], ["order", "ed"], ["Ele", "ph"], ["ver", "b"], ["signific", "ant"], ["Me", "thinks"], ["mist", "aken"], ["sufficient", "ly"], ["hard", "y"], ["eng", "ra"], ["im", "put"], ["seem", "ed,"], ["cont", "ri"], ["gras", "ping"], ["de", "x"], ["dex", "ter"], ["main", "-"], ["usu", "ally"], ["pulp", "it,"], ["pre", "gn"], ["iet", "y"], ["is", "ol"], ["faith", "ful"], ["is", "le"], ["inser", "ted"], ["li", "ken"], ["-head", "ed"], ["w", "ra"], ["lar", "board"], ["star", "board"], ["pa", "used"], ["prolong", "ed"], ["\u2014", "in"], ["min", "e,"], ["bow", "ed"], ["bor", "ne"], ["\u201cS", "hip"], ["pt", "ure"], ["bill", "ow"], ["rep", "ent"], ["where", "in"], ["fle", "e"], ["sc", "orn"], ["ug", "itive"], ["se", "arch"], [";", "\u201d"], ["hur", "ried"], ["harm", "less"], ["\u2018", "I"], ["p", "as"], ["th", "ri"], ["pr", "ud"], ["fool", "ish"], ["ce", "ll"], ["lo", "cked"], ["bow", "els"], ["ob", "vious"], ["ers", "!"], ["\u2018", "What"], ["find", "ing"], ["af", "t,"], ["af", "lo"], ["re", "ceive"], ["obser", "ve"], ["word", "s,"], ["hat", "ches"], ["an", "oint"], ["escap", "e"], ["fish", ";"], ["time", ";"], ["ear", "s,"], ["she", "ll"], ["oh", "!"], ["tr", "uck"], ["bill", "ows"], ["eter", "n"], ["depart", "ed,"], ["exc", "it"], ["lar", "ge,"], ["d", "are"], ["excell", "ent"], ["W", "ashing"], ["Con", "sid"], ["indiffer", "ence"], ["colle", "cted"], ["Horn", ","], ["philoso", "pher"], ["s", "oo"], ["pr", "int"], ["had", ","], ["press", "ed"], ["dist", "rust"], ["r", "ul"], ["me", "chan"], ["remo", "ved"], ["inv", "ited"], ["Ch", "urch"], ["me", "?"], ["Th", "us,"], ["interval", "s,"], ["kne", "es"], ["itself", "."], ["con", "cent"], ["r", "ate"], ["clo", "s"], ["influ", "ence"], ["n", "aked"], ["as", "!"], ["w", "ore"], ["cor", "on"], ["fear", "ful"], ["bold", "ly"], ["N", "ext"], ["us", "ing,"], ["fe", "ast"], ["bow", "l"], ["up", "wards"], ["im", "memor"], ["ug", "g"], ["tre", "es"], ["mark", "s"], ["div", "ed"], ["scen", "e"], ["shiver", "ing"], ["happ", "ened"], ["con", "stern"], ["or", "ious"], ["tr", "ump"], ["bl", "ade"], ["ition", "al"], ["ad", "ed"], ["ra", "it"], ["decl", "ared"], ["malic", "ious"], ["smell", "s"], ["pain", "ted"], ["ste", "am"], ["app", "are"], ["p", "ound"], ["O", "ur"], ["resu", "med"], ["dinn", "er,"], ["mar", "ching"], ["reach", "ed"], ["strong", "ly"], ["se", "le"], ["Queequeg", "."], ["for", "got"], ["day", ";"], ["Pequod", "."], ["her", "."], ["L", "ong"], ["l", "ed,"], ["he", "m"], ["Th", "ose"], ["curi", "ously"], ["hered", "itary"], ["me", "l"], ["quarter-", "deck,"], ["tempor", "ary"], ["ant", "ed"], ["wigw", "am"], ["\u201c", "Thou"], ["Nantucket", "er"], ["c", "ence"], ["\u201c", "Well,"], ["heart", "y"], ["fer", "oc"], ["\u2019", "ve"], ["hum", "or"], ["night", "-"], ["watch", "es"], ["creature", ","], ["t", "un"], ["p", "ious"], ["ha", "ust"], ["ag", "es;"], ["ste", "er"], ["5", "th"], ["m", "end"], ["ing", "s;"], ["start", "ing"], ["\u201c", "F"], ["ud", "ed"], ["own", "ed"], ["v", "an"], ["un", "seen"], ["happ", "ens"], ["name", "."], ["incident", "ally"], ["before", "."], ["ar", "-"], ["ha", "ven"], ["n", "ar"], ["con", "fin"], ["simp", "ly"], ["prof", "it"], ["belie", "f"], ["\u2014", "why"], ["ha", "ul"], ["ar", "ies"], ["appe", "ll"], ["Mean", "while"], ["say", ";"], ["\u2014", "it"], ["ink", "ed"], ["rapid", "ly"], ["ha", "v\u2019"], ["hav\u2019", "n\u2019t"], ["\u201cA", "ll"], ["i", "ard"], ["g", "ar"], ["gg", "ing"], ["shroud", "ed"], ["pre", "par"], ["rigg", "ing"], ["v", "ing,"], ["last", "."], ["poss", "ib"], ["H", "ence,"], ["mate", "\u2019s"], ["sa", "fet"], ["whale", "bone"], ["captain", "s,"], ["sl", "ide"], ["pipe", "."], ["feet", "."], ["l", "az"], ["v", "es."], ["re", "vol"], ["issu", "ed"], ["ste", "ering"], ["\u201c", "Mr."], ["known", ","], ["approach", "ing"], ["Meant", "ime,"], ["ri", "p"], ["appar", "ition"], ["lo", "ath"], ["Starbuck", ";"], ["encounter", "ed"], ["it", "i"], ["conce", "it"], ["hunter", "s,"], ["hand", "ed"], ["col", "on"], ["u", ","], ["M", "ore"], ["ation", "s."], ["dart", "ing"], ["n", "omin"], ["pr", "ime"], ["ex", "e"], ["exe", "cut"], ["reason", "able"], ["on", "ing"], ["ind", "ic"], ["inn", "er"], ["f", "its"], ["angu", "ish"], ["sw", "art"], ["val", "iant"], ["sid", "ed"], ["bra", "ce"], ["Gay", "-Head"], ["ent", "al"], ["re", "tained"], ["cor", "po"], ["su", "pre"], ["read", "ily"], ["found", ","], ["min", "ute"], ["lat", "itude"], ["t", "affr"], ["taffr", "ail"], ["i", "or,"], ["ic", "ted"], ["tran", "qu"], ["m", "iz"], ["sur", "ren"], ["contin", "ually"], ["end", ","], ["ci", "es,"], ["re", "pose"], ["Dam", "n"], ["his", "sed"], ["system", "at"], ["natural", "ist"], ["an", "at"], ["anat", "om"], ["L", "inn"], ["Linn", "\u00e6"], ["profess", "ional"], ["pri", "or"], ["prom", "ise"], ["fish", "."], ["N", "ature"], ["reason", "s"], ["ex", "ter"], ["exter", "nal"], ["de", "fin"], ["-", "and"], ["-and", "-"], ["D", "U"], ["Fin", "-B"], ["Fin-B", "ack"], ["deriv", "ed"], ["Foli", "o"], ["sur", "face"], ["b", "as"], ["preser", "ve"], ["corre", "spon"], ["corre", "ct"], ["ic", "orn"], ["Hu", "zza"], ["lad", "s"], ["t", "itle"], ["circumst", "ances"], ["inst", "ances,"], ["intel", "lect"], ["superior", "ity"], ["lur", "ks"], ["im", "part"], ["custom", "ary"], ["intelli", "gent"], ["Flask", "\u2019s"], ["compar", "ative"], ["cas", "e,"], ["dim", "ly"], ["ist", "ic"], ["in", "scrut"], ["inscrut", "able"], ["tid", "es"], ["spec", "ific"], ["w", "ing"], ["incre", "as"], ["V", "en"], ["h", "ate"], ["away", ";"], ["pe", "w"], ["ling", "ly"], ["sub", "t"], ["dis", "member"], ["er", "ve"], ["N", "AN"], ["NAN", "TU"], ["NANTU", "CK"], ["NANTUCK", "ET"], ["C", "H"], ["There", ","], ["boy", "s!"], ["T", "ah"], ["sh", "if"], ["_)", "."], ["l", "un"], ["event", "s,"], ["latitud", "es"], ["monoman", "iac"], ["e", "ast"], ["fix", "ed,"], ["R", "om"], ["symbo", "l"], ["whit", "e,"], ["t", "ig"], ["after", ","], ["pall", "or"], ["ange", "list"], ["st", "am"], ["Lim", "a"], ["ren", "s"], ["Cab", "aco"], ["G", "u"], ["a", "head,"], ["L", "angs"], ["Langs", "d"], ["Langsd", "or"], ["Langsdor", "ff"], ["lead", "er"], ["ive", "ly,"], ["w", "arp"], ["per", "ched"], ["gun", "wal"], ["cruising", "-"], ["cruising-", "ground"], ["Ped", "ro"], ["pump", "s,"], ["Sebast", "ian"], ["Pro", "ject"], ["uten", "berg"], ["A", "u"], ["Mo", "st"], ["re", "cent"], ["recent", "ly"], ["D", "av"], ["*", "*"], ["R", "O"], ["C", "T"], ["WHALE", "."], ["L", "O"], ["i", "br"], ["C", "arp"], ["ag", "."], ["er", "mon"], ["F", "ri"], ["end", "."], ["graph", "ical"], ["K", "nights"], ["Squire", "s."], ["En", "ter"], ["i", "pe"], ["Cetolog", "y."], ["Spe", "ck"], ["Speck", "sn"], ["Specksn", "y"], ["C", "abin"], ["Qu", "ar"], ["Wat", "ch."], ["Hy", "en"], ["re", "w"], ["Sp", "irit"], ["Town-Ho", "\u2019s"], ["ory", "."], ["L", "ess"], ["E", "r"], ["S", "qu"], ["ro", "t"], ["un", "er"], ["x", "."], ["ke", "y-"], ["H", "ave"], ["G", "l"], ["H", "and"], ["T", "ry"], ["D", "own"], ["ac", "hel"], ["cast", "le"], ["in", "al"], ["te", "xt"], ["Virgin", "ia"], ["sum", "pt"], ["brain", ";"], ["lo", "ved"], ["make", "th"], ["nam", "ed"], ["ar", "ched"], ["We", "b"], ["W", "al"], ["EE", "-N"], ["EE-N", "U"], ["appe", "ars"], ["an", "s"], ["pick", "ing"], ["sa", "cred"], ["gl", "ed"], ["au", "then"], ["authen", "tic"], ["ce", "tolog"], ["au", "th"], ["i", "ed,"], ["ple", "ase"], ["friend", "s"], ["stor", "ied"], ["com", "ing."], ["\u201c", "Now"], ["great", ","], ["s", "word,"], ["pi", "er"], ["ser", "pent"], ["sea", ".\u201d"], ["\u2014_", "I"], ["ou", "l"], ["bottom", "less"], ["monst", "ers"], ["mou", "thed"], ["sid", "es,"], ["oo", "ke"], ["vis", "ited"], ["..", ".."], ["for", "ty"], ["O", "ther"], ["se", "cur"], ["\u2014_", "A"], ["li", "ver"], ["bo", "iling"], ["in", "cred"], ["quant", "ity"], ["p", "arm"], ["in", "ward"], ["Wh", "ich"], ["av", "ail"], ["b", "red"], ["peace", "ful"], ["bo", "il"], ["P", "re"], ["C", "et"], ["il", "ly"], ["creature", "s,"], ["spout", "s"], ["mist", "ake"], ["Th", "om"], ["Thom", "as"], ["ge", "\u2019s"], ["Voy", "ages"], ["H", "arr"], ["in", "-"], ["clim", "b"], ["r", "ings"], ["be", "lly"], ["g", "ate"], ["gard", "en"], ["bal", "d"], ["ag", "re"], ["Ph", "il"], ["sou", "thern"], ["-f", "old"], ["comp", "are"], ["cont", "empt"], ["is", "on."], ["doubt", "less"], ["ashore", "."], ["av", "o"], ["avo", "id"], ["lar", "ger"], ["vent", "ure"], ["wood", ","], ["artic", "les"], ["act", "ive"], ["B", "ur"], ["br", "anch"], ["gu", "ard"], ["pro", "te"], ["ct", "ing"], ["pir", "ates"], ["barb", "ed"], ["w", "reck"], ["\u201c", "B"], ["high", ","], ["e", "ld"], ["\u2014_", "C"], ["H", "un"], ["water", "-"], ["imp", "et"], ["y", "\u2019s"], ["degre", "es"], ["form", ","], ["se", "ct"], ["w", "ave"], ["island", "s,"], ["tra", "ck"], ["en", "em"], ["\u2014_", "M"], ["um", "ph"], ["person", "s"], ["oil", "-"], ["int", "ro"], ["C", "ha"], ["\u2014\u201c", "_"], ["O", "w"], ["Ow", "en"], ["Y", "ork"], ["g", "le"], ["gle", "am"], ["trem", "end"], ["tremend", "ous"], ["wh", "ip"], ["sound", "s"], ["exc", "ited"], ["er", "ous,"], ["possess", "ed"], ["wit", "ness"], ["itud", "es"], ["weap", "on"], ["Ben", "nett"], ["s,", "\u201d"], ["\u201c", "Where"], ["Th", "ree"], ["point", "s"], ["a", "ho"], ["aho", "y!"], ["sho", "al"], ["blow", "s!"], ["\u201c", "How"], ["-", "ship"], ["hor", "rid"], ["L", "ay"], ["pursu", "ed"], ["boat", ";"], ["er", "man"], ["ga", "thered"], ["S", "am"], ["ue", "l,"], ["mut", "ine"], ["lay", "ing"], ["Nor", "th"], ["Some", "thing"], ["mast-head", "s,"], ["eager", "ly"], ["t", "ally"], ["else", "where"], ["coun", "t"], ["R", "et"], ["depart", "ed"], ["col", "t,"], ["t", "ied"], ["ro", "ot"], ["m", "ale"], ["swim", "m"], ["N", "atur"], ["Natur", "al"], ["ex", "claimed"], ["lad", "s,"], ["\u201c", "Oh,"], ["pur", "se,"], ["dri", "ving"], ["ul", "ating"], ["soul", ";"], ["pa", "using"], ["step", "ping"], ["method", "ically"], ["at", "o"], ["this", "."], ["is", "les"], ["ree", "f"], ["commer", "ce"], ["le", "ft,"], ["wash", "ed"], ["a", ";"], ["rigg", "ing,"], ["magnet", "ic"], ["virt", "ue"], ["need", "les"], ["th", "ither"], ["On", "ce"], ["S", "ay"], ["mag", "ic"], ["absent", "-minded"], ["plung", "ed"], ["de", "e"], ["dee", "pest"], ["supp", "lied"], ["me", "ad"], ["p", "ine"], ["s", "igh"], ["sc", "ores"], ["n", "es"], ["deliber", "ate"], ["ped", "est"], ["tri", "p"], ["rob", "ust"], ["heal", "thy"], ["P", "ers"], ["beg", "in"], ["ha", "z"], ["infer", "red"], ["passeng", "ers"], ["\u2014", "don\u2019t"], ["en", "joy"], ["distin", "ction"], ["honor", "able"], ["to", "il"], ["b", "rig"], ["c", "ook"], ["fanc", "ied"], ["will", "."], ["ri", "ver"], ["T", "ru"], ["sp", "ar"], ["ow", "."], ["one", "\u2019s"], ["you", "."], ["ic", "s"], ["sl", "ave"], ["univer", "sal"], ["A", "gain"], ["contr", "ary,"], ["p", "ure"], ["fore", "-"], ["voyage", ";"], ["else", "."], ["man", "ag"], ["tr", "aged"], ["per", "form"], ["did", ","], ["cr", "imin"], ["wh", "el"], ["marvel", "s"], ["Pat", "agon"], ["open", ","], ["ap", "pointed"], ["sail", "ed,"], ["bo", "ister"], ["pleas", "ed"], ["ab", "original"], ["adventur", "ous"], ["oo", "p"], ["r", "isk"], ["bow", "spr"], ["place", "."], ["where", "ver"], ["sou", "th"], ["concl", "ude"], ["ens", "ive"], ["every", "where"], ["light", "."], ["within", "."], ["last", ";"], ["pat", "ched"], ["deser", "ted"], ["k", "y"], ["inter", "ior"], ["dark", "ness,"], ["represent", "ing"], ["conne", "x"], ["strick", "en"], ["ble", "ak"], ["univer", "se"], ["fin", "ished"], ["after", "wards"], ["night", ";"], ["wonder", "ful"], ["C", "z"], ["tem", "per"], ["sc", "rap"], ["ent", "ry"], ["con", "dem"], ["thor", "ough"], ["light", "s"], ["stud", "y"], ["purpose", "."], ["it", "ious"], ["cont", "em"], ["contem", "pl"], ["entr", "y,"], ["concl", "usion"], ["wild", ","], ["pu", "zz"], ["h", "over"], ["hover", "ing"], ["it", "e,"], ["at", "tain"], ["exasper", "ated"], ["glit", "tering"], ["le", "-"], ["hand", "le"], ["long", "-"], ["travell", "ed"], ["dusk", "y"], ["no", "o"], ["ru", "de"], ["deliri", "um"], ["p", "our"], ["dece", "it"], ["down", "wards"], ["mer", "id"], ["char", "ge"], ["pen", "n"], ["spec", "im"], ["harpooneer", "\u2019s"], ["jack", "-"], ["kn", "if"], ["knif", "e,"], ["stoo", "ping"], ["summon", "ed"], ["could", "n\u2019t"], ["me", "at"], ["heaven", "s!"], ["dum", "pl"], ["answ", "er."], ["\u201c", "That\u2019s"], ["Gr", "amp"], ["Gramp", "us"], ["H", "ur"], ["new", "s"], ["w", "oo"], ["wonder", ","], ["\u2014", "when"], ["spo", "il"], ["h", "ilar"], ["concer", "ned"], ["should", "ers,"], ["deep", "ly"], ["revel", "ry"], ["Bulkington", "!"], ["o\u2019clo", "ck,"], ["any", "body"], ["pre", "su"], ["wa", "it"], ["pro", "c"], ["shav", "ings"], ["sa", "ke"], ["Still", ","], ["Think", "s"], ["t", "ick"], ["keep", "s"], ["Can", "\u2019t"], ["\u201c", "Do"], ["\u201c", "and"], ["\u201c", "With"], ["wh", "itt"], ["\u201c", "It\u2019s"], ["be", "get"], ["hig", "hest"], ["se", "cut"], ["fet", "ching"], ["s", "ar"], ["lo", "t"], ["so", "ld"], ["to-", "morrow"], ["stop", "ped"], ["flu", "kes"], ["n", "ice"], ["would", "n\u2019t"], ["belong", "ing"], ["seaman", "\u2019s"], ["st", "ained"], ["un", "commonly"], ["um", "ped"], ["b", "oot"], ["bl", "owing"], ["sl", "id"], ["do", "z"], ["ac", "compl"], ["square", "s"], ["produ", "ced"], ["surpr", "ise"], ["tw", "isted"], ["pur", "ple"], ["n", "on"], ["continu", "ed"], ["face", ";"], ["g", "s"], ["att", "ent"], ["pock", "ets,"], ["emb", "al"], ["embal", "med"], ["scre", "wed"], ["biscu", "it"], ["sa", "cri"], ["fire", ","], ["fing", "ers"], ["bad", "ly"], ["he", "at"], ["mo", "ved"], ["ac", "compan"], ["ex", "h"], ["exh", "ib"], ["cannibal", ","], ["something", ","], ["what", ","], ["f", "ied"], ["pe", "ak"], ["s", "ab"], ["sab", "be"], ["sabbe", "e"], ["sle", "e"], ["us", "s"], ["B", "et"], ["say", "\u2014"], ["\u201c", "Good"], ["-", "coloured"], ["In", "de"], ["Inde", "ed,"], ["h", "ug"], ["dream", ","], ["dr", "agged"], ["o\u2019clo", "ck"], ["six", "teen"], ["re", "surre"], ["soft", "ly"], ["consc", "ient"], ["conscient", "ious"], ["mine", "."], ["hand", ";"], ["conscious", "ness"], ["month", "s"], ["br", "id"], ["in", "cess"], ["r", "ubb"], ["d", "aw"], ["sign", "s"], ["ac", "y,"], ["are", "."], ["gu", "il"], ["guil", "ty"], ["st", "aring"], ["trows", "ers"], ["tell", ","], ["on", "\u2014"], ["g", "as"], ["pro", "pri"], ["propri", "et"], ["comple", "ted"], ["sav", "age,"], ["morn", "ing."], ["tain", "s"], ["mad", "e,"], ["beg", "ged"], ["ce", "ler"], ["chest", ","], ["hand", "s."], ["d", "ip"], ["a", "the"], ["str", "iding"], ["venge", "ance."], ["whalemen", ";"], ["c", "ooper"], ["ke", "eper"], ["pe", "ar"], ["hu", "e,"], ["complex", "ion"], ["t", "aw"], ["fl", "inging"], ["al", "ways,"], ["S", "i"], ["re", "fle"], ["strang", "ers"], ["immin", "ent"], ["fe", "e"], ["app", "lied"], ["s", "all"], ["sall", "ied"], ["st", "roll"], ["fore", "ign"], ["Mediterr", "anean"], ["Y", "an"], ["Yan", "ke"], ["ian", "s,"], ["st", "al"], ["fellow", "s"], ["be", "lt"], ["d", "and"], ["bell", "-"], ["thro", "at"], ["plant", "ed"], ["wed", "ding"], ["reck", "lessly"], ["see", ";"], ["A", "ugust"], ["ter", "ra"], ["wom", "en"], ["blo", "om"], ["gir", "ls"], ["art", "s"], ["cle", "ar,"], ["sun", "ny"], ["wid", "ow"], ["steadfast", "ly"], ["_", "No"], ["ere", "cted"], ["Y", ","], ["M", "AN"], ["S", "E"], ["AN", "D"], ["S", "H"], ["g", "id"], ["as", "sem"], ["sym", "pa"], ["sympa", "the"], ["ble", "ed"], ["des", "pair"], ["inf", "idel"], ["Eleph", "ant"], ["cent", "uri"], ["centuri", "es"], ["never", "theless"], ["un", "speak"], ["unspeak", "able"], ["vit", "al"], ["then", "?"], ["th", "in"], ["ven", "erable"], ["ded", "ic"], ["mar", "it"], ["marit", "ime"], ["ab", "sor"], ["fash", "ioned"], ["stair", "s,"], ["lad", "der,"], ["lad", "der"], ["s", "an"], ["symbo", "li"], ["bor", "rowed"], ["rad", "i"], ["liken", "ess"], ["fore", "most"], ["wra", "th"], ["in", "vo"], ["se", "."], ["kne", "el"], ["up", "lifted"], ["st", "an"], ["spe", "ed"], ["do", "lph"], ["said", ":"], ["book", ","], ["sm", "al"], ["smal", "lest"], ["S", "cri"], ["wat", "ers;"], ["-", "hearted"], ["aw", "akened"], ["Jonah", "."], ["wil", "ful"], ["\u2014", "which"], ["obe", "ying"], ["cons", "ist"], ["J", "op"], ["see", "ks"], ["k", "s,"], ["C", "ad"], ["Cad", "iz"], ["world", "-"], ["sl", "ou"], ["slou", "ched"], ["ship", "ping"], ["f", "ugitive"], ["ac", "company"], ["e", "vil"], ["eye", "."], ["se", "es"], ["conf", "idence"], ["w", "retched"], ["cent", "."], ["games", "ome"], ["su", "spe"], ["suspe", "cted"], ["bus", "y"], ["int", "ently"], ["st", "ab"], ["swift", "ly"], ["say", "s,"], ["fr", "on"], ["thri", "ce"], ["suspic", "ions"], ["g", "er,"], ["per", "man"], ["contr", "ad"], ["ling", "s"], ["bur", "den"], ["rag", "ing"], ["tim", "ber"], ["as", "le"], ["asle", "ep"], ["shroud", ","], ["known", "."], ["th", "ine"], ["Th", "y"], ["\u201c\u2018", "I"], ["!", "_"], ["mer", "c"], ["instant", "ly"], ["y", "aw"], ["sil", "ently"], ["pilot", "-"], ["ho", "st"], ["ed", "d"], ["ul", "ph"], ["shudder", "ing"], ["sun", ","], ["cast", "away"], ["lif", "ting"], ["\u2014", "who"], ["w", "aving"], ["pe", "ering"], ["gent", "ly"], ["no", "se,"], ["coun", "ting"], ["fif", "t"], ["ag", "ree"], ["heart", ";"], ["rid", "ic"], ["con", "sort"], ["acqu", "aint"], ["anc", "es."], ["thought", "s,"], ["compan", "ion"], ["dy", "spe"], ["lone", "ly"], ["sens", "ible"], ["mad", "den"], ["cour", "tes"], ["puff", "s"], ["supper", ","], ["smo", "ke,"], ["together", "."], ["mechan", "ically"], ["P", "res"], ["Pres", "by"], ["Presby", "ter"], ["worship", "ping"], ["t", "wice"], ["other", ";"], ["mo", "on,"], ["qu", "ality"], ["t", "ip"], ["ug", "n"], ["before", ","], ["abl", "eness"], ["end", "om"], ["P", "ri"], ["mat", "er"], ["p", "ens"], ["unt", "u"], ["untu", "to"], ["untuto", "red"], ["father", "\u2019s"], ["gain", "ed"], ["d", "ash"], ["cap", "s"], ["can", "oe"], ["ch", "ain"], ["al", "as!"], ["f", "itted"], ["once", ","], ["fut", "ure"], ["intent", "ion"], ["sh", "are"], ["such", ","], ["acqu", "ain"], ["acquain", "ted"], ["wharf", "."], ["\u201c", "Queequeg,"], ["ab", "ash"], ["command", "er"], ["st", "ately"], ["pun", "ct"], ["s", "is"], ["majest", "y"], ["un", "like"], ["immemor", "ial"], ["See", "ing"], ["cask", "s"], ["be", "token"], ["sn", "ort"], ["T", "art"], ["no", "str"], ["hom", "age"], ["ad", "o"], ["mid", "-"], ["swe", "pt"], ["cap", "able"], ["sec", "ured"], ["j", "er"], ["strip", "ped"], ["minut", "es"], ["fellow", ","], ["matter", "s"], ["corn", "er"], ["beach", ","], ["st", "ool"], ["ad", "es"], ["dire", "ction"], ["l", ";"], ["pl", "ored"], ["circum", "navig"], ["sun", ";"], ["them", "selves,"], ["lay", "s"], ["rest", ","], ["anch", "or,"], ["Ho", "sea"], ["dire", "ctions"], ["in", "habit"], ["Per", "hap"], ["Perhap", "s"], ["gaz", "ed"], ["port", ";"], ["obli", "que"], ["carry", "ing"], ["sc", "olding"], ["present", ","], ["\u201cWhat", "\u2019s"], ["k", "itch"], ["ic", "y"], ["app", "et"], ["break", "fast,"], ["it", "ated"], ["men", "?\u201d"], ["con", "su"], ["respect", "ive"], ["forgot", "ten"], ["determin", "ed"], ["De", "vil"], ["re", "mem"], ["b", "er,"], ["ce", "le"], ["cele", "br"], ["finally", ","], ["Jap", "an"], ["bur", "y"], ["centur", "y"], ["chief", "-"], ["ret", "ired"], ["seam", "an,"], ["de", "vi"], ["till", "er"], ["ste", "ered"], ["cl", "ut"], ["mel", "anch"], ["melanch", "o"], ["shap", "e,"], ["ang", "ular"], ["appear", "ance"], ["adv", "ancing"], ["mar", "chant"], ["inno", "cence"], ["thing", "s."], ["m", "ask"], ["hum", "orous"], ["ali", "en"], ["ag", "ent"], ["w", "ilt"], ["whale", "!"], ["near", "er"], ["ex", "clam"], ["calm", "ly"], ["sir", ";"], ["sof", "t,"], ["incl", "ined"], ["experi", "ence"], ["water", ";"], ["tran", "som"], ["vessel", ";"], ["Quak", "er,"], ["re", "tain"], ["mo", "dif"], ["modif", "ied"], ["dr", "am"], ["great", "ly"], ["mor", "bid"], ["nature", "."], ["tr", "ag"], ["well", "-"], ["love", "ly"], ["Bildad", "."], ["sp", "illed"], ["ir", "ing"], ["in", "cor"], ["whale", "man,"], ["ex", "haust"], ["n", "ap"], ["bes", "ide"], ["in", ";"], ["prof", "ane"], ["ship", "mate,"], ["m", "umbling"], ["aw", "are"], ["27", "5th"], ["acc", "um"], ["gener", "ous"], ["your", "selves"], ["magn", "itude"], ["solemn", "ly"], ["enough", ";"], ["An", "y"], ["how", ","], ["the", "e."], ["w", "arn"], ["good-", "by"], ["lo", "ss"], ["ch", "oose"], ["ar", "gu"], ["res", "ist"], ["ard", "-"], ["v", "in"], ["vin", "eg"], ["vineg", "ar-"], ["vinegar-", "cru"], ["tal", "king"], ["calm", ","], ["cas", "e."], ["for", "ce"], ["side", "-"], ["pres", "ence"], ["ud", "ding"], ["ict", "or"], ["Because", ","], ["li", "cal"], ["loud", "ly"], ["pap", "ers."], ["conver", "ted"], ["Cong", "reg"], ["De", "acon"], ["De", "ut"], ["Deut", "er"], ["Deuter", "onom"], ["either", ","], ["meet", "ing"], ["him", "?"], ["Quohog", ","], ["deck", "s,"], ["\u201c", "Qu"], ["ed", "ge"], ["pre", "lim"], ["prelim", "in"], ["quest", "ion,"], ["own", "er"], ["after", "-"], ["thrust", "ing"], ["stood", ","], ["fing", "er"], ["object", "."], ["ri", "ve"], ["laugh", "ed"], ["Span", "iard"], ["say", "."], ["way", ";"], ["\u201cM", "orning"], ["fash", "ion,"], ["b", "ug"], ["pass", "ed,"], ["kn", "ives"], ["sh", "ove"], ["b", "ank"], ["fre", "quent"], ["ity", "\u2014"], ["mast-head", ","], ["pe", "cted"], ["ab", "sol"], ["absol", "ute"], ["un", "certain"], ["off", ","], ["um", "ber"], ["he", "aving"], ["soon", "."], ["fill", "ing"], ["best", "ir"], ["g", "if"], ["\u201c", "Now,"], ["r", "y,"], ["only", ","], ["windl", "ass,"], ["ch", "or"], ["chor", "us"], ["he", "ave"], ["ele", "ph"], ["her", "o"], ["lan", "tern"], ["B", "ack"], ["\u201c", "God"], ["mat", "es."], ["d", "ro"], ["am", "ing"], ["v", "ind"], ["vind", "ict"], ["ful", "lest"], ["memor", "ies"], ["ities", "."], ["ke", "el,"], ["do", "ing,"], ["int", "rep"], ["intrep", "id"], ["-", "like,"], ["ocean", "-"], ["lands", "men"], ["accoun", "ted"], ["li", "ber"], ["ane", "ous"], ["surround", "ed"], ["true", "."], ["M", "art"], ["in", "var"], ["invar", "i"], ["abound", "ing"], ["glo", "be,"], ["L", "ou"], ["Lou", "is"], ["F", "r"], ["Br", "it"], ["Egypt", "ian"], ["-of-", "war"], ["or", "ing"], ["world", "!"], ["t", "il"], ["discover", "y"], ["sh", "un"], ["dest", "in"], ["decl", "are"], ["spl", "it"], ["r", "on"], ["fig", "ured"], ["sp", "ic"], ["ascri", "be"], ["subst", "anti"], ["C", "er"], ["oil", "."], ["end", "ure"], ["pat", "ent"], ["vit", "ality"], ["af", "fect"], ["super", "st"], ["reli", "able"], ["sent", "iment"], ["low", "ering"], ["their", "s;"], ["limb", "s"], ["experi", "ences"], ["terrific", ","], ["en", "r"], ["enr", "aged"], ["inst", "ance,"], ["lo", "cal"], ["indiffer", "ent"], ["feature", "s"], ["ra", "ck,"], ["majest", "ic"], ["ist", "ed,"], ["Ori", "ental"], ["An", "tar"], ["Antar", "ctic"], ["gold", "en"], ["Island", "ers"], ["f", "ed"], ["pen", "et"], ["asc", "ended"], ["l", "t,"], ["e", "motion"], ["ascri", "bed"], ["un", "i"], ["sol", "id"], ["un", "alter"], ["unalter", "able"], ["il", ","], ["over", "bearing"], ["dis", "mast"], ["l", "id"], ["d", "ancing"], ["mem", "ory"], ["w", "an"], ["po", "ten"], ["no", "isel"], ["noisel", "ess"], ["ste", "ers"], ["d", "in"], ["dream", "s"], ["ay", ";"], ["tell", "s"], ["now", "?"], ["too", "."], ["binn", "acle"], ["z", "ed"], ["j", "ets"], ["kick", "ing"], ["devil", "ish"], ["e", "ating"], ["la", "unched"], ["class", "ific"], ["A.D", "."], ["ser", "ve"], ["by", "."], ["u", "sur"], ["ignor", "ance"], ["fab", "ulous"], ["lit", "er"], ["hand", "s;"], ["Linn\u00e6", "us"], ["r", "ing,"], ["Leviathan", "."], ["ve", ","], ["defin", "ition"], ["DU", "O"], ["DUO", "DE"], ["DUODE", "CI"], ["DUODECI", "MO"], ["I", "V."], ["B", "ot"], ["_).\u2014", "This"], ["spe", "cially"], ["ob", "sc"], ["des", "cried"], ["fin", ","], ["sp", "her"], ["su", "llen"], ["denomin", "ated"], ["om", "en"], ["mention", "ed."], ["ir", "regular"], ["corre", "ctly"], ["small", "er"], ["r", "ises"], ["leviathan", ","], ["v", "ary"], ["correspon", "ding"], ["swim", "s"], ["milk", "-"], ["milk-", "white"], ["dist", "ance,"], ["br", "ute"], ["(_", "Duodecim"], ["p", "orpoise"], ["to", "ss"], ["be", "holding"], ["word", "."], ["peculiar", "ity"], ["ex", "ist"], ["iv", "al"], ["hun", "ting"], ["offic", "ial"], ["grand", "e"], ["grande", "ur"], ["remo", "ve"], ["man", "ife"], ["in", "car"], ["intellect", "ual"], ["dinn", "er"], ["da", "ily"], ["ac", "le,"], ["voc", "ation,"], ["pro", "blem"], ["Bel", "sh"], ["Belsh", "azz"], ["der", "ive"], ["for", "bad"], ["i", "um"], ["loung", "ing"], ["h", "all"], ["tum", "ult"], ["ane", "ously"], ["her", "\u2014"], ["stand", "ers"], ["lat", "ter"], ["col", "um"], ["colum", "n"], ["coun", "sel"], ["stand", ","], ["watch", "-"], ["er", "n"], ["add", "itional"], ["in", "vent"], ["dis", "cre"], ["Though", ","], ["P", "lat"], ["w", "akes"], ["per", "v"], ["f", "litt"], ["flitt", "ing"], ["heard", ","], ["aspect", "."], ["ay", "e!"], ["clo", "ser"], ["de", "ed"], ["Starbuck", "."], ["se", "ize"], ["sil", "ence,"], ["brim", "ming"], ["\u201c", "At"], ["pew", "ter"], ["su", "st"], ["full", "-"], ["gentle", "men"], ["murder", "ous"], ["s", "low"], ["gg", "ed"], ["ha", "!"], ["Mo", "gul"], ["bub", "bles"], ["Pip", "!"], ["cl", "ining"], ["Tah", "iti"], ["AN", "ISH"], ["shir", "r"], ["revenge", "."], ["constern", "ation"], ["Dick", ","], ["oft", "ent"], ["oftent", "imes"], ["leagu", "es"], ["exam", "pl"], ["tur", "ban"], ["monst", "er,"], ["cas", "ual"], ["white", "-"], ["e", "mot"], ["be", "held"], ["command", "ing"], ["earth", "qu"], ["r", "am"], ["milk", "y"], ["p", "enc"], ["penc", "il"], ["chart", "s"], ["circ", "ular"], ["ground", "s,"], ["devil", "s"], ["for", "bear"], ["ud", "ing"], ["c", "li"], ["four", "th"], ["gunwal", "e,"], ["pl", "ates"], ["sil", "very"], ["in", "form"], ["let", "ters"], ["Gold", "en"], ["Sebast", "ian,"], ["B", "uffalo"], ["tra", "it"], ["\u201c", "Steelkilt"], ["\u201c\u2018", "A"], ["ch", "ich"], ["b", "arri"], ["barri", "cad"], ["G", "utenberg"], ["e", "Book"], ["Un", "ited"], ["law", "s"], ["J", "u"], ["u", "ary"], ["E", "R"], ["E", "X"], ["EX", "T"], ["EXT", "R"], ["EXTR", "A"], ["EXTRA", "CT"], ["(S", "up"], ["(Sup", "p"], ["(Supp", "lied"], ["L", "ibr"], ["Lo", "om"], ["B", "re"], ["Bre", "ak"], ["B", "io"], ["1", "3."], ["C", "how"], ["he", "t."], ["Mer", "ry"], ["ore", "."], ["2", "9."], ["Specksny", "der."], ["-", "T"], ["M", "ast"], ["De", "ck."], ["set", "."], ["4", "0."], ["it", "eness"], ["Hark", "!"], ["art", "."], ["A", "ff"], ["4", "6."], ["S", "ur"], ["Fedallah", "."], ["5", "1."], ["Al", "batross."], ["St", "ory."], ["W", "ood"], ["Tal", "k"], ["P", "ra"], ["Pra", "ir"], ["S", "chool"], ["tow", "ing"], ["C", "le"], ["L", "eg"], ["Pacific", "."], ["ge", "."], ["r", "ant"], ["C", "has"], ["Day", "."], ["Th", "ird"], ["pil", "o"], ["T", "ran"], ["iv", "es."], ["pro", "of"], ["resu", "lting"], ["comp", "ared"], ["sh", "er"], ["am", "mar"], ["le", "x"], ["other", "s,"], ["t", "ong"], ["\u2014_", "H"], ["l", "u"], ["Web", "ster"], ["Webster", "\u2019s"], ["D", "iction"], ["Diction", "ary"], ["W", "all"], ["ich", "ard"], ["G", "ree"], ["L", "at"], ["W", "AL"], ["_", "S"], ["N", "A"], ["ge", "e"], ["wor", "m"], ["Sub-", "Sub"], ["r", "and"], ["rand", "om"], ["p", "ig"], ["extra", "cts"], ["tri", "be"], ["w", "ine"], ["W", "ould"], ["te", "ars"], ["ref", "u"], ["splinter", "ed"], ["\u2014", "there,"], ["whales", ".\u201d"], ["is", "_."], ["there", "in"], ["\u2014_", "P"], ["s", "_."], ["so", "re"], ["monster", "\u2019s"], ["st", "one,"], ["f", "oul"], ["gul", "f"], ["P", "l"], ["M", "or"], ["p", "ool"], ["B", "al"], ["P", "lin"], ["proceed", "ed"], ["horse", "-"], ["ight", ","], ["vessel", ","], ["E", "."], ["log", "y"], ["f", "ly"], ["a", "bel"], ["\u201c", "This"], ["\u2014_", "S"], ["An", "n"], ["see", "the"], ["exceed", "ing"], ["extra", "cted"], ["\u2014_I", "bid"], ["\u2014_Ibid", "_."], ["\u201c", "Very"], ["bre", "ast,"], ["rest", "less"], ["\u2014_", "Sir"], ["sa", "ith"], ["tail", "."], ["S", "um"], ["we", "al"], ["St", "ate"], ["art", "ific"],
[...]
