<unk>	0
<s>	0
</s>	0
▁t	-0
he	-1
▁a	-2
in	-3
▁the	-4
▁s	-5
▁o	-6
▁w	-7
re	-8
ha	-9
nd	-10
er	-11
▁b	-12
hi	-13
▁m	-14
ing	-15
le	-16
ou	-17
it	-18
▁c	-19
▁of	-20
▁f	-21
ed	-22
on	-23
en	-24
or	-25
▁in	-26
▁and	-27
st	-28
ll	-29
ar	-30
▁p	-31
▁to	-32
an	-33
▁d	-34
at	-35
es	-36
▁hi	-37
▁n	-38
om	-39
▁l	-40
hat	-41
is	-42
ow	-43
▁he	-44
as	-45
▁I	-46
ut	-47
▁ha	-48
▁be	-49
▁g	-50
▁that	-51
ly	-52
▁e	-53
gh	-54
▁his	-55
se	-56
ot	-57
▁u	-58
ld	-59
▁th	-60
▁it	-61
et	-62
al	-63
▁y	-64
▁on	-65
ver	-66
▁st	-67
ch	-68
ve	-69
ce	-70
id	-71
ith	-72
▁se	-73
ck	-74
ad	-75
ay	-76
ent	-77
▁with	-78
▁as	-79
ri	-80
▁was	-81
ain	-82
▁T	-83
▁re	-84
ir	-85
ght	-86
▁for	-87
ur	-88
ro	-89
▁h	-90
▁“	-91
▁is	-92
▁A	-93
▁S	-94
▁all	-95
▁we	-96
hale	-97
ke	-98
ion	-99
▁C	-100
im	-101
her	-102
ic	-103
▁at	-104
▁an	-105
oo	-106
▁him	-107
▁B	-108
his	-109
ore	-110
ra	-111
qu	-112
▁not	-113
il	-114
▁sa	-115
▁su	-116
ter	-117
▁me	-118
▁this	-119
▁so	-120
▁you	-121
▁li	-122
▁whale	-123
rom	-124
and	-125
ous	-126
▁up	-127
▁whi	-128
ct	-129
ul	-130
▁but	-131
all	-132
ast	-133
pe	-134
am	-135
ill	-136
ome	-137
▁de	-138
▁W	-139
▁from	-140
▁by	-141
ble	-142
ge	-143
▁v	-144
ss	-145
ould	-146
▁le	-147
ho	-148
ight	-149
ap	-150
▁The	-151
▁H	-152
if	-153
ers	-154
te	-155
▁whe	-156
ard	-157
▁con	-158
ant	-159
art	-160
▁or	-161
out	-162
ess	-163
hip	-164
▁man	-165
▁r	-166
▁there	-167
red	-168
▁had	-169
▁one	-170
▁P	-171
▁my	-172
ong	-173
em	-174
nt	-175
▁k	-176
ough	-177
ound	-178
▁have	-179
ort	-180
▁N	-181
▁un	-182
led	-183
own	-184
▁ye	-185
tain	-186
▁bo	-187
um	-188
ee	-189
▁al	-190
▁com	-191
ost	-192
▁were	-193
po	-194
▁ne	-195
▁some	-196
▁ship	-197
▁But	-198
▁F	-199
per	-200
sel	-201
ther	-202
us	-203
▁no	-204
▁out	-205
ak	-206
very	-207
▁who	-208
to	-209
▁M	-210
han	-211
▁which	-212
▁ab	-213
od	-214
ate	-215
ood	-216
▁their	-217
▁they	-218
ig	-219
un	-220
one	-221
ind	-222
ac	-223
▁do	-224
ust	-225
▁sh	-226
▁then	-227
▁upon	-228
▁when	-229
able	-230
▁like	-231
▁j	-232
que	-233
▁are	-234
▁more	-235
ol	-236
.”	-237
ook	-238
▁ex	-239
ling	-240
▁now	-241
▁what	-242
▁D	-243
reat	-244
▁pre	-245
▁them	-246
ag	-247
ack	-248
▁kn	-249
ist	-250
ish	-251
▁fe	-252
ven	-253
ure	-254
aptain	-255
▁ag	-256
▁into	-257
▁L	-258
▁would	-259
uck	-260
self	-261
▁over	-262
itt	-263
▁pl	-264
▁tim	-265
ive	-266
ally	-267
▁pro	-268
▁wor	-269
ation	-270
Qu	-271
▁sp	-272
▁other	-273
▁G	-274
▁seem	-275
ity	-276
HA	-277
TE	-278
ide	-279
hing	-280
▁har	-281
▁any	-282
hed	-283
lo	-284
TER	-285
▁St	-286
▁af	-287
hab	-288
ings	-289
HAP	-290
▁ro	-291
▁CHAP	-292
▁CHAPTER	-293
ies	-294
▁Qu	-295
ud	-296
ious	-297
▁old	-298
▁sea	-299
▁po	-300
▁been	-301
less	-302
▁thou	-303
age	-304
▁us	-305
li	-306
▁Ahab	-307
▁down	-308
ake	-309
▁go	-310
ep	-311
▁if	-312
▁said	-313
▁bl	-314
iv	-315
wn	-316
▁O	-317
ine	-318
ree	-319
▁such	-320
pp	-321
ness	-322
est	-323
▁ar	-324
▁these	-325
queg	-326
eequeg	-327
ning	-328
▁about	-329
fore	-330
▁again	-331
ab	-332
ass	-333
▁tr	-334
▁per	-335
fe	-336
ose	-337
▁can	-338
▁will	-339
el	-340
av	-341
th	-342
ink	-343
▁sw	-344
ward	-345
▁say	-346
▁am	-347
▁her	-348
ance	-349
▁He	-350
our	-351
▁hand	-352
ull	-353
▁And	-354
▁sha	-355
ild	-356
▁tw	-357
▁only	-358
▁than	-359
▁those	-360
,”	-361
▁co	-362
ittle	-363
▁Queequeg	-364
ame	-365
▁though	-366
▁E	-367
ord	-368
nder	-369
▁little	-370
ell	-371
ft	-372
pt	-373
ark	-374
way	-375
▁str	-376
▁time	-377
▁im	-378
▁wat	-379
ars	-380
ace	-381
▁en	-382
▁off	-383
▁see	-384
▁look	-385
▁very	-386
▁qu	-387
▁your	-388
▁great	-389
ick	-390
ated	-391
▁thr	-392
▁Whale	-393
ire	-394
▁Captain	-395
ng	-396
▁did	-397
▁yet	-398
▁long	-399
ci	-400
▁most	-401
▁Pe	-402
ub	-403
uch	-404
▁ho	-405
▁seemed	-406
▁way	-407
▁part	-408
▁sail	-409
ye	-410
ise	-411
▁our	-412
▁before	-413
oy	-414
me	-415
ple	-416
▁boat	-417
▁cha	-418
▁R	-419
▁has	-420
▁how	-421
▁still	-422
cc	-423
▁_	-424
▁It	-425
▁could	-426
▁J	-427
are	-428
urn	-429
▁sm	-430
ount	-431
▁here	-432
▁after	-433
▁own	-434
▁its	-435
▁head	-436
▁harpo	-437
▁never	-438
ff	-439
▁day	-440
▁himself	-441
ry	-442
ful	-443
ions	-444
ue	-445
int	-446
▁sc	-447
▁mad	-448
▁last	-449
▁must	-450
ian	-451
men	-452
▁men	-453
▁every	-454
▁pe	-455
▁(	-456
▁might	-457
▁whales	-458
▁thought	-459
anc	-460
?”	-461
ign	-462
ows	-463
▁ri	-464
irst	-465
▁ind	-466
▁two	-467
ps	-468
orn	-469
▁In	-470
▁much	-471
les	-472
ors	-473
ving	-474
arb	-475
ever	-476
the	-477
au	-478
▁dis	-479
▁too	-480
▁mat	-481
▁sort	-482
▁three	-483
rew	-484
▁wha	-485
▁where	-486
_.	-487
ved	-488
▁br	-489
▁may	-490
▁spe	-491
▁ever	-492
ew	-493
ach	-494
ory	-495
▁ad	-496
▁even	-497
▁round	-498
!”	-499
▁ob	-500
most	-501
ular	-502
▁good	-503
man	-504
land	-505
ment	-506
perm	-507
▁being	-508
ath	-509
▁cl	-510
▁For	-511
▁land	-512
omet	-513
▁white	-514
ang	-515
ber	-516
▁fo	-517
▁well	-518
▁first	-519
ary	-520
▁gl	-521
▁gr	-522
ather	-523
▁back	-524
▁world	-525
cl	-526
hy	-527
▁fl	-528
ried	-529
▁know	-530
▁through	-531
▁1	-532
ice	-533
▁comm	-534
▁cons	-535
▁same	-536
co	-537
ted	-538
llow	-539
▁des	-540
ah	-541
▁Y	-542
▁bet	-543
ten	-544
▁comp	-545
▁somet	-546
▁should	-547
iz	-548
ons	-549
ible	-550
ucket	-551
▁made	-552
▁pres	-553
▁lo	-554
we	-555
▁ke	-556
▁ra	-557
▁many	-558
▁think	-559
by	-560
ubb	-561
so	-562
ans	-563
▁rem	-564
▁she	-565
▁night	-566
▁stand	-567
▁water	-568
ef	-569
ask	-570
der	-571
—_	-572
ern	-573
▁sl	-574
▁acc	-575
▁sle	-576
▁pass	-577
▁among	-578
▁harpoone	-579
▁almost	-580
antucket	-581
gg	-582
▁cal	-583
▁while	-584
ty	-585
hes	-586
mer	-587
ren	-588
▁res	-589
▁turn	-590
▁without	-591
ite	-592
▁op	-593
aking	-594
▁cont	-595
▁tell	-596
▁thing	-597
▁Nantucket	-598
leg	-599
ib	-600
▁hu	-601
▁—_	-602
ched	-603
head	-604
king	-605
wards	-606
▁inst	-607
ves	-608
▁cr	-609
▁ent	-610
ence	-611
here	-612
pect	-613
▁dra	-614
ks	-615
lf	-616
▁fa	-617
▁voy	-618
ildad	-619
▁heart	-620
▁things	-621
ting	-622
▁bed	-623
▁bot	-624
▁mar	-625
▁come	-626
▁deck	-627
▁dist	-628
▁seen	-629
▁whaling	-630
ne	-631
ily	-632
▁Th	-633
ress	-634
▁God	-635
ating	-636
other	-637
▁side	-638
▁Stubb	-639
▁Bildad	-640
▁captain	-641
be	-642
▁sub	-643
▁found	-644
▁em	-645
iled	-646
read	-647
▁far	-648
▁pur	-649
arbuck	-650
vi	-651
ale	-652
ced	-653
den	-654
ump	-655
▁pr	-656
▁sou	-657
▁wind	-658
▁There	-659
▁against	-660
ial	-661
quod	-662
▁ter	-663
▁crew	-664
▁Peleg	-665
▁V	-666
ical	-667
▁away	-668
▁life	-669
ertain	-670
▁under	-671
▁Pequod	-672
▁Starbuck	-673
ict	-674
ied	-675
med	-676
ange	-677
▁inf	-678
ering	-679
▁small	-680
als	-681
▁ey	-682
▁Jon	-683
▁imp	-684
aw	-685
cul	-686
ove	-687
▁bec	-688
▁fore	-689
▁light	-690
ave	-691
end	-692
▁sn	-693
▁che	-694
▁set	-695
ching	-696
▁came	-697
▁full	-698
▁mast	-699
ations	-700
ls	-701
▁“‘	-702
ener	-703
vent	-704
▁ins	-705
▁times	-706
▁something	-707
ped	-708
▁Fl	-709
▁So	-710
ures	-711
▁Whi	-712
▁lar	-713
▁mon	-714
ances	-715
▁Jonah	-716
az	-717
ect	-718
▁(_	-719
▁si	-720
ates	-721
▁app	-722
▁bro	-723
▁nat	-724
▁que	-725
▁eyes	-726
▁name	-727
▁seas	-728
▁voyage	-729
▁‘	-730
hen	-731
ung	-732
▁cra	-733
▁end	-734
▁sur	-735
▁cann	-736
▁take	-737
▁inter	-738
▁right	-739
ail	-740
▁wo	-741
reen	-742
▁chi	-743
▁eye	-744
▁gra	-745
▁each	-746
▁just	-747
▁till	-748
▁wild	-749
ens	-750
ets	-751
ual	-752
▁fi	-753
ific	-754
itud	-755
pose	-756
▁inc	-757
aring	-758
▁Flask	-759
▁sleep	-760
▁present	-761
pl	-762
get	-763
ides	-764
▁hard	-765
▁word	-766
▁strange	-767
ts	-768
ase	-769
▁pi	-770
ject	-771
lent	-772
▁car	-773
▁fee	-774
▁leg	-775
▁sun	-776
ition	-777
▁once	-778
▁soon	-779
▁certain	-780
iar	-781
▁Mo	-782
abin	-783
ross	-784
▁air	-785
▁mom	-786
▁mind	-787
▁large	-788
▁moment	-789
▁nothing	-790
irc	-791
ked	-792
oun	-793
uff	-794
ause	-795
haps	-796
nded	-797
ping	-798
ters	-799
ween	-800
▁don	-801
iness	-802
▁open	-803
▁towards	-804
its	-805
ways	-806
▁saw	-807
▁tou	-808
▁make	-809
▁gener	-810
▁place	-811
▁sperm	-812
▁between	-813
ms	-814
▁fri	-815
▁let	-816
▁reg	-817
▁ste	-818
isher	-819
▁fish	-820
▁whole	-821
▁harpooneer	-822
The	-823
sed	-824
▁As	-825
dden	-826
ingly	-827
▁half	-828
▁cabin	-829
▁heard	-830
arn	-831
how	-832
ken	-833
tle	-834
uri	-835
cted	-836
hant	-837
▁beg	-838
▁days	-839
▁does	-840
▁inde	-841
▁along	-842
▁hands	-843
lt	-844
ilt	-845
mon	-846
res	-847
▁At	-848
ared	-849
▁rep	-850
▁sup	-851
athan	-852
ished	-853
▁soul	-854
▁black	-855
▁cried	-856
▁called	-857
▁perhaps	-858
▁Now	-859
▁get	-860
▁put	-861
▁What	-862
▁circ	-863
▁high	-864
▁stre	-865
culiar	-866
▁super	-867
viathan	-868
▁peculiar	-869
de	-870
ces	-871
ner	-872
outh	-873
ster	-874
▁fin	-875
▁lay	-876
▁run	-877
▁sin	-878
▁thi	-879
▁face	-880
▁mean	-881
orning	-882
▁board	-883
▁matter	-884
arr	-885
orm	-886
▁te	-887
▁bre	-888
▁low	-889
▁oce	-890
▁hold	-891
▁mate	-892
▁rest	-893
▁stri	-894
▁known	-895
_)	-896
bo	-897
eth	-898
▁es	-899
ages	-900
arth	-901
lled	-902
that	-903
▁bel	-904
▁bod	-905
▁clo	-906
▁unc	-907
▁poss	-908
gether	-909
▁boats	-910
▁stood	-911
▁looked	-912
▁myself	-913
▁another	-914
ru	-915
▁’	-916
ane	-917
ash	-918
▁ap	-919
ying	-920
▁hat	-921
▁hel	-922
▁hor	-923
▁tra	-924
▁Dick	-925
▁both	-926
▁dark	-927
▁dead	-928
▁feet	-929
▁went	-930
▁Sperm	-931
▁years	-932
▁young	-933
▁K	-934
oud	-935
uth	-936
▁ir	-937
ship	-938
▁hum	-939
▁pri	-940
arted	-941
ently	-942
▁also	-943
▁mark	-944
▁read	-945
▁creat	-946
ape	-947
ene	-948
ock	-949
▁Ch	-950
▁wr	-951
aken	-952
akes	-953
▁ass	-954
▁sav	-955
▁vis	-956
▁four	-957
▁comple	-958
▁command	-959
oc	-960
vil	-961
clud	-962
like	-963
ring	-964
ural	-965
▁Ste	-966
▁dou	-967
▁fam	-968
▁nor	-969
▁sat	-970
ction	-971
ities	-972
▁best	-973
▁near	-974
▁room	-975
▁sign	-976
▁true	-977
▁White	-978
▁going	-979
▁ships	-980
▁sight	-981
og	-982
xt	-983
▁*	-984
lly	-985
ool	-986
ult	-987
ered	-988
▁bus	-989
▁Moby	-990
▁They	-991
▁This	-992
▁chan	-993
▁conc	-994
▁conf	-995
▁port	-996
▁prof	-997
▁reas	-998
▁point	-999
▁shall	-1000
▁consid	-1001
▁indeed	-1002
ug	-1003
ins	-1004
▁el	-1005
▁jo	-1006
aves	-1007
ngth	-1008
owed	-1009
▁Ind	-1010
▁cle	-1011
▁col	-1012
▁cor	-1013
▁ere	-1014
ained	-1015
ising	-1016
▁find	-1017
▁give	-1018
▁pers	-1019
▁stra	-1020
▁thee	-1021
selves	-1022
cri	-1023
elk	-1024
whi	-1025
▁sk	-1026
ouse	-1027
rest	-1028
▁New	-1029
▁Nor	-1030
▁sho	-1031
▁war	-1032
elkilt	-1033
icular	-1034
▁enough	-1035
▁fisher	-1036
▁follow	-1037
▁morning	-1038
OR	-1039
air	-1040
ler	-1041
▁Be	-1042
ceed	-1043
rist	-1044
ured	-1045
▁few	-1046
▁flo	-1047
▁inv	-1048
▁mer	-1049
▁ret	-1050
entle	-1051
▁That	-1052
▁call	-1053
▁fear	-1054
▁home	-1055
▁inte	-1056
▁shar	-1057
▁earth	-1058
▁ocean	-1059
▁always	-1060
▁circum	-1061
ma	-1062
ys	-1063
iet	-1064
imes	-1065
▁ser	-1066
▁squ	-1067
ously	-1068
▁curi	-1069
▁deep	-1070
▁sing	-1071
▁thus	-1072
▁whose	-1073
▁sudden	-1074
▁however	-1075
▁whalemen	-1076
go	-1077
ank	-1078
ont	-1079
▁Le	-1080
▁Mr	-1081
▁SA	-1082
▁mo	-1083
ctly	-1084
▁His	-1085
▁ves	-1086
thing	-1087
▁left	-1088
▁gentle	-1089
▁living	-1090
▁vessel	-1091
▁business	-1092
.’	-1093
IL	-1094
sp	-1095
su	-1096
ery	-1097
igh	-1098
ime	-1099
ser	-1100
▁vi	-1101
ches	-1102
ited	-1103
ived	-1104
wise	-1105
▁arm	-1106
▁cap	-1107
▁exp	-1108
▁fur	-1109
▁mid	-1110
anger	-1111
antic	-1112
owing	-1113
▁keep	-1114
▁poor	-1115
▁seam	-1116
cially	-1117
urning	-1118
▁count	-1119
▁plain	-1120
▁cannot	-1121
▁rather	-1122
▁within	-1123
▁because	-1124
▁whether	-1125
ged	-1126
xed	-1127
▁Is	-1128
▁sy	-1129
pped	-1130
wing	-1131
▁How	-1132
▁bri	-1133
▁jaw	-1134
▁smo	-1135
aving	-1136
ident	-1137
meric	-1138
▁char	-1139
▁door	-1140
▁doub	-1141
▁hear	-1142
▁often	-1143
▁quest	-1144
▁better	-1145
▁friend	-1146
,—	-1147
but	-1148
cks	-1149
ife	-1150
ots	-1151
aven	-1152
lord	-1153
ople	-1154
▁bra	-1155
▁oil	-1156
▁sim	-1157
▁sir	-1158
▁thy	-1159
ither	-1160
itude	-1161
light	-1162
nding	-1163
ually	-1164
▁dire	-1165
▁fire	-1166
▁less	-1167
ically	-1168
▁death	-1169
▁grand	-1170
▁offic	-1171
▁order	-1172
▁sound	-1173
▁Americ	-1174
▁itself	-1175
▁turned	-1176
▁account	-1177
▁harpoon	-1178
▁Steelkilt	-1179
ie	-1180
mm	-1181
op	-1182
len	-1183
▁Se	-1184
▁Sp	-1185
ILOR	-1186
ably	-1187
iven	-1188
tern	-1189
vest	-1190
▁Eng	-1191
▁act	-1192
▁art	-1193
▁dep	-1194
▁enc	-1195
▁got	-1196
▁lad	-1197
ative	-1198
▁hour	-1199
▁told	-1200
itting	-1201
▁seems	-1202
▁Christ	-1203
▁SAILOR	-1204
▁reason	-1205
▁waters	-1206
▁wonder	-1207
▁looking	-1208
,’	-1209
?’	-1210
har	-1211
hom	-1212
▁No	-1213
▁On	-1214
cond	-1215
ened	-1216
iffe	-1217
mast	-1218
ones	-1219
▁new	-1220
▁occ	-1221
▁tri	-1222
where	-1223
▁book	-1224
▁main	-1225
▁mere	-1226
▁plac	-1227
▁chief	-1228
▁peril	-1229
▁shipm	-1230
▁since	-1231
▁common	-1232
▁having	-1233
▁savage	-1234
▁sailors	-1235
▁gentlemen	-1236
▁particular	-1237
▁harpooneers	-1238
!—	-1239
?—	-1240
up	-1241
▁2	-1242
▁U	-1243
for	-1244
ney	-1245
rop	-1246
▁To	-1247
▁aw	-1248
ains	-1249
ents	-1250
ined	-1251
▁bow	-1252
▁bur	-1253
▁ext	-1254
▁ide	-1255
▁int	-1256
▁mis	-1257
vious	-1258
▁fine	-1259
▁heav	-1260
▁hint	-1261
▁knew	-1262
▁next	-1263
tering	-1264
▁least	-1265
▁Indian	-1266
▁object	-1267
pecially	-1268
▁standing	-1269
!’	-1270
kn	-1271
—“	-1272
gin	-1273
lic	-1274
tom	-1275
lish	-1276
ries	-1277
▁Not	-1278
▁ans	-1279
ality	-1280
ought	-1281
rence	-1282
▁Cape	-1283
▁appe	-1284
▁atte	-1285
▁case	-1286
▁done	-1287
▁felt	-1288
▁hunt	-1289
▁need	-1290
▁took	-1291
arious	-1292
▁craft	-1293
▁green	-1294
▁table	-1295
▁compan	-1296
▁length	-1297
▁person	-1298
▁sailor	-1299
▁especially	-1300
mb	-1301
ior	-1302
ton	-1303
▁ch	-1304
ives	-1305
ully	-1306
what	-1307
▁att	-1308
▁dre	-1309
▁fif	-1310
▁rec	-1311
▁ref	-1312
aught	-1313
cient	-1314
tered	-1315
▁With	-1316
▁cold	-1317
▁quar	-1318
▁sure	-1319
▁wood	-1320
esides	-1321
teness	-1322
▁above	-1323
▁blood	-1324
▁break	-1325
▁devil	-1326
▁doubt	-1327
▁mates	-1328
▁mouth	-1329
▁short	-1330
▁Though	-1331
▁interv	-1332
▁island	-1333
▁people	-1334
▁complete	-1335
..	-1336
.—	-1337
_,	-1338
ger	-1339
▁De	-1340
What	-1341
hore	-1342
ines	-1343
ized	-1344
ower	-1345
rent	-1346
▁add	-1347
▁eas	-1348
▁lat	-1349
▁why	-1350
ately	-1351
ndred	-1352
▁feel	-1353
▁gone	-1354
▁live	-1355
▁pict	-1356
▁pipe	-1357
▁snow	-1358
▁want	-1359
▁whom	-1360
erable	-1361
▁Green	-1362
▁below	-1363
▁close	-1364
▁cross	-1365
▁house	-1366
▁noble	-1367
▁taken	-1368
▁general	-1369
▁hundred	-1370
▁instant	-1371
▁somehow	-1372
▁circumst	-1373
▁together	-1374
▁sometimes	-1375
He	-1376
ade	-1377
amp	-1378
lit	-1379
ric	-1380
und	-1381
▁Me	-1382
▁Oh	-1383
▁ac	-1384
▁gu	-1385
cess	-1386
▁All	-1387
▁Don	-1388
▁Yet	-1389
▁cru	-1390
▁mag	-1391
▁ple	-1392
▁sec	-1393
▁tem	-1394
▁top	-1395
illed	-1396
ortal	-1397
▁bene	-1398
▁body	-1399
▁care	-1400
▁fact	-1401
▁happ	-1402
▁kind	-1403
▁lead	-1404
▁pull	-1405
▁swim	-1406
▁wide	-1407
ention	-1408
ousand	-1409
▁contin	-1410
▁strong	-1411
▁turning	-1412
▁thousand	-1413
▁whiteness	-1414
enc	-1415
ond	-1416
reg	-1417
ret	-1418
▁II	-1419
▁mi	-1420
cast	-1421
cept	-1422
fort	-1423
ibly	-1424
▁aye	-1425
▁bul	-1426
▁emb	-1427
▁mut	-1428
▁und	-1429
uring	-1430
▁form	-1431
▁free	-1432
▁goes	-1433
▁line	-1434
▁roll	-1435
▁says	-1436
▁shad	-1437
▁began	-1438
▁broad	-1439
▁obser	-1440
▁quick	-1441
▁terri	-1442
▁watch	-1443
▁aspect	-1444
▁bottom	-1445
▁encoun	-1446
▁entire	-1447
▁ground	-1448
▁sailed	-1449
▁purpose	-1450
▁touching	-1451
▁Leviathan	-1452
OO	-1453
▁3	-1454
pos	-1455
wer	-1456
▁We	-1457
▁ut	-1458
ided	-1459
ises	-1460
oard	-1461
vers	-1462
▁aff	-1463
▁bar	-1464
▁cut	-1465
▁fro	-1466
▁shi	-1467
cious	-1468
fully	-1469
iding	-1470
round	-1471
stand	-1472
veral	-1473
▁boys	-1474
▁chap	-1475
▁kept	-1476
▁kick	-1477
▁plan	-1478
▁prod	-1479
▁step	-1480
▁terr	-1481
▁used	-1482
▁bound	-1483
▁mount	-1484
▁quiet	-1485
▁teeth	-1486
▁famous	-1487
▁fellow	-1488
▁seamen	-1489
▁second	-1490
▁curious	-1491
▁fishery	-1492
▁several	-1493
▁weather	-1494
▁anything	-1495
▁creature	-1496
▁landlord	-1497
▁themselves	-1498
;—	-1499
iff	-1500
mpt	-1501
old	-1502
ulp	-1503
vel	-1504
yed	-1505
aint	-1506
ians	-1507
ised	-1508
ists	-1509
lied	-1510
rous	-1511
stit	-1512
▁Can	-1513
▁Rad	-1514
▁adv	-1515
▁cur	-1516
▁det	-1517
▁imm	-1518
▁mod	-1519
▁rus	-1520
▁six	-1521
▁spr	-1522
▁tre	-1523
iving	-1524
ivory	-1525
▁Lake	-1526
▁When	-1527
▁bows	-1528
▁idea	-1529
▁iron	-1530
▁kill	-1531
▁rece	-1532
▁spir	-1533
itudes	-1534
▁fixed	-1535
▁queer	-1536
▁quite	-1537
▁story	-1538
▁waves	-1539
▁coming	-1540
▁beneath	-1541
▁further	-1542
▁passage	-1543
▁regular	-1544
▁various	-1545
lu	-1546
mp	-1547
aid	-1548
bed	-1549
ned	-1550
rie	-1551
umb	-1552
▁vo	-1553
▁wa	-1554
bled	-1555
cial	-1556
cked	-1557
omin	-1558
ored	-1559
▁bit	-1560
▁ble	-1561
▁dri	-1562
▁hun	-1563
▁hur	-1564
▁min	-1565
▁mot	-1566
▁pil	-1567
▁spo	-1568
▁uns	-1569
ments	-1570
night	-1571
there	-1572
▁King	-1573
▁Tash	-1574
▁deli	-1575
▁easy	-1576
▁foot	-1577
▁help	-1578
▁jack	-1579
▁lean	-1580
▁vast	-1581
▁view	-1582
castle	-1583
▁coast	-1584
▁dream	-1585
▁event	-1586
▁forth	-1587
▁given	-1588
▁ivory	-1589
▁sharp	-1590
▁spout	-1591
theless	-1592
▁ashore	-1593
▁chance	-1594
▁either	-1595
▁heaven	-1596
▁invest	-1597
▁mighty	-1598
▁rolled	-1599
▁silent	-1600
▁English	-1601
▁Lakeman	-1602
▁conclud	-1603
▁interest	-1604
▁previous	-1605
▁straight	-1606
▁stranger	-1607
▁Greenland	-1608
▁leviathan	-1609
▁therefore	-1610
0.	-1611
8.	-1612
ds	-1613
gs	-1614
jo	-1615
of	-1616
os	-1617
pr	-1618
act	-1619
par	-1620
unt	-1621
▁Al	-1622
▁If	-1623
▁dr	-1624
arks	-1625
hind	-1626
iest	-1627
inct	-1628
ming	-1629
onor	-1630
ores	-1631
orth	-1632
▁abs	-1633
▁cas	-1634
▁fle	-1635
▁ign	-1636
▁mur	-1637
▁pit	-1638
▁swe	-1639
▁val	-1640
chant	-1641
gging	-1642
pping	-1643
spect	-1644
under	-1645
▁Then	-1646
▁else	-1647
▁hope	-1648
▁magn	-1649
▁narr	-1650
▁spec	-1651
▁thir	-1652
▁work	-1653
erning	-1654
▁comes	-1655
▁pursu	-1656
▁ready	-1657
▁speak	-1658
▁trans	-1659
▁behind	-1660
▁cannib	-1661
▁manner	-1662
▁taking	-1663
▁natural	-1664
▁running	-1665
▁American	-1666
▁question	-1667
),	-1668
1.	-1669
ia	-1670
ip	-1671
ny	-1672
haw	-1673
het	-1674
ute	-1675
▁Af	-1676
▁ev	-1677
▁fr	-1678
gged	-1679
ging	-1680
oman	-1681
oned	-1682
orpo	-1683
pend	-1684
side	-1685
tego	-1686
▁cat	-1687
▁dim	-1688
▁ele	-1689
▁emp	-1690
▁gaz	-1691
▁num	-1692
▁rel	-1693
▁sal	-1694
antly	-1695
eness	-1696
ening	-1697
heads	-1698
rigin	-1699
while	-1700
▁barb	-1701
▁cast	-1702
▁cent	-1703
▁corn	-1704
▁cour	-1705
▁dest	-1706
▁leap	-1707
▁lost	-1708
▁mine	-1709
▁prec	-1710
▁slow	-1711
▁chase	-1712
▁chest	-1713
▁heads	-1714
▁heavy	-1715
▁human	-1716
▁marin	-1717
▁means	-1718
▁stead	-1719
▁stern	-1720
▁truth	-1721
▁Radney	-1722
▁saying	-1723
▁slight	-1724
▁feeling	-1725
▁quarter	-1726
▁suppose	-1727
▁Tashtego	-1728
▁shipmates	-1729
3.	-1730
AN	-1731
ti	-1732
Aye	-1733
OOK	-1734
alk	-1735
aus	-1736
eep	-1737
els	-1738
kes	-1739
lie	-1740
oes	-1741
you	-1742
▁ma	-1743
ames	-1744
ards	-1745
fast	-1746
hawk	-1747
hold	-1748
olog	-1749
ract	-1750
ught	-1751
▁Com	-1752
▁Let	-1753
▁Pac	-1754
▁Why	-1755
▁You	-1756
▁deg	-1757
▁dem	-1758
▁den	-1759
▁glo	-1760
▁lim	-1761
▁ver	-1762
ences	-1763
ively	-1764
right	-1765
whale	-1766
▁bear	-1767
▁cond	-1768
▁fair	-1769
▁fell	-1770
▁meet	-1771
▁unkn	-1772
ignity	-1773
▁clear	-1774
▁diffe	-1775
▁start	-1776
▁storm	-1777
▁broken	-1778
▁making	-1779
▁proper	-1780
▁regard	-1781
▁squall	-1782
▁Pacific	-1783
▁respect	-1784
▁whaleman	-1785
▁concerning	-1786
2.	-1787
It	-1788
bs	-1789
ze	-1790
bod	-1791
ike	-1792
rim	-1793
tty	-1794
▁By	-1795
▁Co	-1796
acet	-1797
arce	-1798
cing	-1799
ires	-1800
mmer	-1801
ssed	-1802
▁ast	-1803
▁bat	-1804
▁eng	-1805
▁ice	-1806
▁met	-1807
▁ord	-1808
▁pol	-1809
▁pop	-1810
▁shr	-1811
▁ten	-1812
▁une	-1813
iling	-1814
isted	-1815
itted	-1816
posed	-1817
warks	-1818
▁BOOK	-1819
▁Lord	-1820
▁alto	-1821
▁bill	-1822
▁born	-1823
▁clot	-1824
▁five	-1825
▁gold	-1826
▁prom	-1827
▁prop	-1828
▁wall	-1829
▁dread	-1830
▁honor	-1831
▁horiz	-1832
▁pleas	-1833
▁touch	-1834
▁mortal	-1835
▁origin	-1836
▁pretty	-1837
▁spirit	-1838
▁struck	-1839
▁company	-1840
▁monster	-1841
▁plainly	-1842
▁unknown	-1843
▁possible	-1844
▁altogether	-1845
00	-1846
In	-1847
LE	-1848
agg	-1849
ats	-1850
ays	-1851
chi	-1852
omp	-1853
oms	-1854
rad	-1855
▁18	-1856
▁Ar	-1857
▁Bl	-1858
▁ce	-1859
aked	-1860
chan	-1861
ense	-1862
fect	-1863
stic	-1864
▁bir	-1865
▁div	-1866
▁dro	-1867
▁gre	-1868
▁lur	-1869
▁mal	-1870
▁red	-1871
▁sil	-1872
▁unw	-1873
ached	-1874
ashed	-1875
board	-1876
cript	-1877
▁arri	-1878
▁auth	-1879
▁bold	-1880
▁brow	-1881
▁dism	-1882
▁gall	-1883
▁gave	-1884
▁late	-1885
▁mild	-1886
▁mist	-1887
▁mood	-1888
▁nigh	-1889
▁sole	-1890
ancing	-1891
▁conce	-1892
▁const	-1893
▁fifty	-1894
▁hours	-1895
▁marve	-1896
▁miles	-1897
▁power	-1898
▁shore	-1899
▁simil	-1900
▁voice	-1901
orpoise	-1902
▁around	-1903
▁bodily	-1904
▁contra	-1905
▁import	-1906
▁nature	-1907
▁perils	-1908
▁slowly	-1909
▁drawing	-1910
▁mention	-1911
▁visible	-1912
▁bulwarks	-1913
▁instances	-1914
▁forecastle	-1915
Ho	-1916
IS	-1917
No	-1918
gy	-1919
zz	-1920
_),	-1921
edd	-1922
iss	-1923
oft	-1924
oon	-1925
ral	-1926
sey	-1927
▁bu	-1928
▁id	-1929
eper	-1930
fish	-1931
lers	-1932
umed	-1933
▁Hus	-1934
▁Who	-1935
▁aft	-1936
▁cou	-1937
▁def	-1938
▁esc	-1939
▁fat	-1940
▁gir	-1941
▁lau	-1942
▁lee	-1943
▁sch	-1944
ified	-1945
ility	-1946
quent	-1947
uttle	-1948
▁Horn	-1949
▁Well	-1950
▁anch	-1951
▁anim	-1952
▁lift	-1953
▁pick	-1954
▁repe	-1955
▁tall	-1956
▁toma	-1957
▁town	-1958
▁trou	-1959
▁vain	-1960
▁warm	-1961
▁wond	-1962
atural	-1963
inging	-1964
lessly	-1965
ressed	-1966
▁alone	-1967
▁burst	-1968
▁exper	-1969
▁inten	-1970
▁makes	-1971
▁parts	-1972
▁phant	-1973
▁shout	-1974
▁thick	-1975
▁Hussey	-1976
▁answer	-1977
▁hearts	-1978
▁includ	-1979
▁nearly	-1980
▁placed	-1981
▁seeing	-1982
▁spring	-1983
Queequeg	-1984
▁Besides	-1985
▁country	-1986
▁forward	-1987
▁popular	-1988
▁precise	-1989
▁sitting	-1990
▁tomahawk	-1991
▁Christian	-1992
▁generally	-1993
Th	-1994
mn	-1995
And	-1996
_.)	-1997
att	-1998
ead	-1999
edf	-2000
hma	-2001
lls	-2002
ses	-2003
set	-2004
usk	-2005
uty	-2006
▁An	-2007
▁Sc	-2008
▁Tr	-2009
agan	-2010
aged	-2011
aker	-2012
ancy	-2013
ashi	-2014
gest	-2015
hens	-2016
iter	-2017
ivid	-2018
lect	-2019
pest	-2020
▁Yes	-2021
▁adm	-2022
▁fre	-2023
▁gun	-2024
▁pal	-2025
▁par	-2026
▁pat	-2027
▁pen	-2028
▁unf	-2029
acing	-2030
asses	-2031
inner	-2032
lence	-2033
mmock	-2034
ulous	-2035
ulpit	-2036
vered	-2037
▁Bedf	-2038
▁Here	-2039
▁Some	-2040
▁arms	-2041
▁blue	-2042
▁calm	-2043
▁cand	-2044
▁coun	-2045
▁crow	-2046
▁fast	-2047
▁gale	-2048
▁grow	-2049
▁hist	-2050
▁horn	-2051
▁legs	-2052
▁loft	-2053
▁love	-2054
▁pain	-2055
▁prob	-2056
▁reve	-2057
▁rope	-2058
▁sent	-2059
▁show	-2060
▁suff	-2061
▁tail	-2062
▁whis	-2063
ashing	-2064
haling	-2065
iously	-2066
vering	-2067
▁Never	-2068
▁Right	-2069
▁drawn	-2070
▁emplo	-2071
▁ignor	-2072
▁pilot	-2073
▁reach	-2074
▁remot	-2075
▁sails	-2076
▁surpr	-2077
▁turns	-2078
▁uncom	-2079
▁words	-2080
fulness	-2081
▁accord	-2082
▁belong	-2083
▁degree	-2084
▁number	-2085
▁passed	-2086
▁single	-2087
▁strike	-2088
▁supper	-2089
▁wholly	-2090
▁Bedford	-2091
▁brought	-2092
▁comfort	-2093
▁hammock	-2094
▁proceed	-2095
▁similar	-2096
▁officers	-2097
▁speaking	-2098
▁suddenly	-2099
▁whatever	-2100
▁yourself	-2101
▁certainly	-2102
▁considering	-2103
:—	-2104
oe	-2105
But	-2106
acy	-2107
amb	-2108
dle	-2109
ert	-2110
ier	-2111
ift	-2112
ile	-2113
ize	-2114
orr	-2115
pel	-2116
pid	-2117
yal	-2118
▁Jo	-2119
▁Of	-2120
▁Up	-2121
▁di	-2122
▁ve	-2123
ales	-2124
body	-2125
deck	-2126
hern	-2127
ired	-2128
lest	-2129
long	-2130
stem	-2131
▁Voy	-2132
▁ann	-2133
▁ben	-2134
▁ear	-2135
▁fig	-2136
▁inn	-2137
▁lie	-2138
▁mem	-2139
▁sad	-2140
▁vic	-2141
▁wal	-2142
▁won	-2143
There	-2144
arned	-2145
hmael	-2146
inary	-2147
lling	-2148
ories	-2149
ready	-2150
▁Such	-2151
▁coat	-2152
▁feat	-2153
▁furn	-2154
▁hair	-2155
▁jaws	-2156
▁king	-2157
▁oars	-2158
▁stee	-2159
▁wake	-2160
▁whar	-2161
▁year	-2162
rehens	-2163
tained	-2164
▁First	-2165
▁aloft	-2166
▁bones	-2167
▁knows	-2168
▁lance	-2169
▁occas	-2170
▁separ	-2171
▁wrink	-2172
▁author	-2173
▁caught	-2174
▁colour	-2175
▁except	-2176
▁fright	-2177
▁myster	-2178
▁others	-2179
▁return	-2180
▁scarce	-2181
▁seated	-2182
▁shroud	-2183
▁thrown	-2184
▁unless	-2185
▁carried	-2186
▁distant	-2187
▁express	-2188
▁finally	-2189
▁hunters	-2190
▁leaving	-2191
▁streets	-2192
▁consider	-2193
▁interval	-2194
▁sleeping	-2195
▁terrible	-2196
▁thinking	-2197
▁following	-2198
▁superstit	-2199
▁completely	-2200
cu	-2201
io	-2202
acc	-2203
bit	-2204
clo	-2205
ism	-2206
jah	-2207
kin	-2208
lim	-2209
lin	-2210
mat	-2211
mod	-2212
not	-2213
ury	-2214
▁Yo	-2215
▁av	-2216
▁od	-2217
amad	-2218
ants	-2219
ency	-2220
ffin	-2221
ield	-2222
inks	-2223
resh	-2224
rupt	-2225
uous	-2226
yard	-2227
▁Cha	-2228
▁ago	-2229
▁ain	-2230
▁bad	-2231
▁dec	-2232
▁god	-2233
▁ill	-2234
▁mil	-2235
▁neg	-2236
▁pap	-2237
▁pun	-2238
▁unt	-2239
▁vol	-2240
ience	-2241
lijah	-2242
▁capt	-2243
▁exam	-2244
▁fail	-2245
▁harb	-2246
▁helm	-2247
▁horr	-2248
▁hung	-2249
▁moon	-2250
▁self	-2251
▁soft	-2252
▁stop	-2253
▁stro	-2254
▁supp	-2255
aining	-2256
ession	-2257
inning	-2258
itable	-2259
▁Ramad	-2260
▁cheer	-2261
▁disco	-2262
▁floor	-2263
▁influ	-2264
▁lands	-2265
▁lofty	-2266
▁monst	-2267
▁noise	-2268
▁resol	-2269
▁state	-2270
▁stove	-2271
▁subst	-2272
▁sweet	-2273
arboard	-2274
quently	-2275
▁anchor	-2276
▁direct	-2277
▁eyeing	-2278
▁hither	-2279
▁jacket	-2280
▁killed	-2281
▁pulpit	-2282
▁really	-2283
▁spread	-2284
▁stands	-2285
▁tossed	-2286
▁watery	-2287
▁Ishmael	-2288
▁ancient	-2289
▁content	-2290
▁dignity	-2291
▁picture	-2292
▁quietly	-2293
▁smoking	-2294
▁cruising	-2295
▁followed	-2296
▁merchant	-2297
▁regarded	-2298
▁superior	-2299
▁thoughts	-2300
▁intervals	-2301
▁otherwise	-2302
▁understand	-2303
▁Nantucketer	-2304
▁circumstances	-2305
bb	-2306
br	-2307
ec	-2308
gn	-2309
gu	-2310
aul	-2311
bat	-2312
bid	-2313
ece	-2314
erm	-2315
erv	-2316
ety	-2317
inn	-2318
oly	-2319
rac	-2320
sop	-2321
uly	-2322
▁TH	-2323
▁yo	-2324
_).—	-2325
aced	-2326
ager	-2327
aped	-2328
ayed	-2329
bles	-2330
oney	-2331
oose	-2332
tled	-2333
umps	-2334
vate	-2335
▁Pro	-2336
▁cry	-2337
▁equ	-2338
▁hen	-2339
▁med	-2340
▁phi	-2341
▁sky	-2342
▁sol	-2343
▁sto	-2344
▁tor	-2345
▁try	-2346
▁use	-2347
▁vag	-2348
aggoo	-2349
arily	-2350
ement	-2351
inced	-2352
inter	-2353
ister	-2354
ology	-2355
onest	-2356
pered	-2357
stone	-2358
white	-2359
▁Char	-2360
▁From	-2361
▁Look	-2362
▁Yojo	-2363
▁bale	-2364
▁desc	-2365
▁duty	-2366
▁fool	-2367
▁holy	-2368
▁hull	-2369
▁hump	-2370
▁idol	-2371
▁leak	-2372
▁lung	-2373
▁ones	-2374
▁past	-2375
▁paus	-2376
▁prin	-2377
▁prov	-2378
▁real	-2379
▁ring	-2380
▁spot	-2381
▁ways	-2382
ishing	-2383
lantic	-2384
▁While	-2385
▁appro	-2386
▁brain	-2387
▁breat	-2388
▁carry	-2389
▁etern	-2390
▁final	-2391
▁frost	-2392
▁pumps	-2393
▁royal	-2394
▁smoke	-2395
▁swall	-2396
▁sword	-2397
▁unacc	-2398
▁utter	-2399
▁visit	-2400
▁winds	-2401
▁Daggoo	-2402
▁Whales	-2403
▁attack	-2404
▁became	-2405
▁become	-2406
▁corner	-2407
▁danger	-2408
▁darted	-2409
▁exceed	-2410
▁father	-2411
▁formed	-2412
▁hailed	-2413
▁hammer	-2414
▁height	-2415
▁hollow	-2416
▁murder	-2417
▁prodig	-2418
▁concern	-2419
▁delight	-2420
▁evening	-2421
▁friends	-2422
▁getting	-2423
▁impress	-2424
▁leaning	-2425
▁sailing	-2426
▁species	-2427
▁terrors	-2428
▁Porpoise	-2429
▁cannibal	-2430
▁contrast	-2431
▁pictures	-2432
▁profound	-2433
▁remained	-2434
._	-2435
St	-2436
_;	-2437
af	-2438
cal	-2439
eds	-2440
eks	-2441
iod	-2442
por	-2443
rai	-2444
rap	-2445
roo	-2446
uce	-2447
ume	-2448
▁Br	-2449
▁Or	-2450
▁ed	-2451
▁ru	-2452
aces	-2453
ails	-2454
airs	-2455
appe	-2456
arer	-2457
ares	-2458
enge	-2459
erve	-2460
ient	-2461
ivil	-2462
lass	-2463
ldom	-2464
leet	-2465
line	-2466
look	-2467
olio	-2468
outs	-2469
teen	-2470
this	-2471
uced	-2472
xion	-2473
▁III	-2474
▁Mrs	-2475
▁One	-2476
▁See	-2477
▁cre	-2478
▁der	-2479
▁est	-2480
▁exc	-2481
▁hot	-2482
▁ine	-2483
▁jet	-2484
▁joy	-2485
▁obe	-2486
▁pay	-2487
▁pot	-2488
▁pub	-2489
▁ran	-2490
▁row	-2491
▁rum	-2492
▁sli	-2493
▁sum	-2494
▁tow	-2495
anced	-2496
asure	-2497
ember	-2498
ining	-2499
losop	-2500
olent	-2501
orous	-2502
usion	-2503
ustom	-2504
wered	-2505
▁Thus	-2506
▁Town	-2507
▁clam	-2508
▁deal	-2509
▁decl	-2510
▁earn	-2511
▁ears	-2512
▁fain	-2513
▁flew	-2514
▁fort	-2515
▁hang	-2516
▁heat	-2517
▁huge	-2518
▁jump	-2519
▁lamp	-2520
▁milk	-2521
▁none	-2522
▁nose	-2523
▁play	-2524
▁pock	-2525
▁pray	-2526
▁unre	-2527
▁wear	-2528
ground	-2529
▁After	-2530
▁Where	-2531
▁bless	-2532
▁cases	-2533
▁child	-2534
▁conne	-2535
▁decks	-2536
▁eager	-2537
▁fancy	-2538
▁fiery	-2539
▁fresh	-2540
▁glory	-2541
▁imper	-2542
▁laugh	-2543
▁looks	-2544
▁lower	-2545
▁seven	-2546
▁solit	-2547
▁sorts	-2548
▁swift	-2549
▁takes	-2550
▁withd	-2551
arwhale	-2552
▁Coffin	-2553
▁Elijah	-2554
▁Quaker	-2555
▁animal	-2556
▁barbar	-2557
▁bright	-2558
▁demand	-2559
▁dinner	-2560
▁events	-2561
▁figure	-2562
▁former	-2563
▁hinted	-2564
▁hunted	-2565
▁modern	-2566
▁native	-2567
▁necess	-2568
▁period	-2569
▁planks	-2570
▁seldom	-2571
▁sevent	-2572
▁thinks	-2573
ountable	-2574
▁Ramadan	-2575
▁attempt	-2576
▁besides	-2577
▁earnest	-2578
▁holding	-2579
▁officer	-2580
▁private	-2581
▁pursuit	-2582
▁rigging	-2583
▁subject	-2584
▁telling	-2585
▁vessels	-2586
▁worship	-2587
▁Atlantic	-2588
▁answered	-2589
▁darkness	-2590
▁instance	-2591
▁invested	-2592
▁mariners	-2593
▁nameless	-2594
▁occasion	-2595
▁philosop	-2596
▁possibly	-2597
▁wrinkled	-2598
▁breakfast	-2599
▁encounter	-2600
▁fishermen	-2601
▁Nevertheless	-2602
▁circumstance	-2603
▁unaccountable	-2604
Sp	-2605
cr	-2606
fl	-2607
sc	-2608
▁8	-2609
Boy	-2610
aut	-2611
avo	-2612
awn	-2613
ett	-2614
ges	-2615
ggy	-2616
hir	-2617
hog	-2618
ley	-2619
mit	-2620
ony	-2621
oth	-2622
pty	-2623
ues	-2624
uzz	-2625
val	-2626
▁10	-2627
▁Ah	-2628
▁Go	-2629
▁Pl	-2630
▁er	-2631
▁la	-2632
acle	-2633
aled	-2634
ased	-2635
berg	-2636
boat	-2637
ells	-2638
eter	-2639
face	-2640
ison	-2641
pent	-2642
rage	-2643
raid	-2644
reme	-2645
room	-2646
vice	-2647
yond	-2648
▁Cet	-2649
▁Per	-2650
▁Whe	-2651
▁bes	-2652
▁big	-2653
▁boy	-2654
▁coo	-2655
▁exa	-2656
▁fet	-2657
▁fun	-2658
▁hig	-2659
▁rob	-2660
▁tum	-2661
▁uni	-2662
▁vig	-2663
ailed	-2664
ament	-2665
asted	-2666
cking	-2667
erted	-2668
iment	-2669
llous	-2670
ompan	-2671
orthy	-2672
▁Upon	-2673
▁cher	-2674
▁didn	-2675
▁disc	-2676
▁draw	-2677
▁expl	-2678
▁grim	-2679
▁hide	-2680
▁lads	-2681
▁laid	-2682
▁list	-2683
▁lord	-2684
▁loud	-2685
▁mass	-2686
▁pale	-2687
▁prow	-2688
▁rear	-2689
▁reco	-2690
▁requ	-2691
▁snug	-2692
▁talk	-2693
▁vill	-2694
acious	-2695
asting	-2696
cience	-2697
inking	-2698
orting	-2699
ounded	-2700
▁Dough	-2701
▁South	-2702
▁awful	-2703
▁belie	-2704
▁blank	-2705
▁cause	-2706
▁civil	-2707
▁cries	-2708
▁empty	-2709
▁fashi	-2710
▁fight	-2711
▁guess	-2712
▁ident	-2713
▁knife	-2714
▁leave	-2715
▁lines	-2716
▁needs	-2717
▁negro	-2718
▁occur	-2719
▁plant	-2720
▁pract	-2721
▁relig	-2722
▁spare	-2723
▁stiff	-2724
▁stuff	-2725
▁third	-2726
▁wharf	-2727
Captain	-2728
natural	-2729
▁Island	-2730
▁aboard	-2731
▁across	-2732
▁advent	-2733
▁appear	-2734
▁baleen	-2735
▁battle	-2736
▁behold	-2737
▁calcul	-2738
▁course	-2739
▁during	-2740
▁hardly	-2741
▁hidden	-2742
▁honest	-2743
▁motion	-2744
▁owners	-2745
▁passen	-2746
▁scient	-2747
▁secret	-2748
▁solemn	-2749
▁sought	-2750
▁system	-2751
▁terror	-2752
▁window	-2753
▁wooden	-2754
▁yellow	-2755
▁already	-2756
▁bearing	-2757
▁counter	-2758
▁deliber	-2759
▁evinced	-2760
▁example	-2761
▁instead	-2762
▁intense	-2763
▁started	-2764
▁suspect	-2765
▁voyages	-2766
▁captains	-2767
▁distance	-2768
▁entirely	-2769
▁forehead	-2770
▁horizont	-2771
▁original	-2772
▁received	-2773
▁repeated	-2774
▁shipmate	-2775
▁signific	-2776
▁solitary	-2777
▁striking	-2778
▁troubled	-2779
▁uncommon	-2780
▁windward	-2781
▁according	-2782
▁commanded	-2783
▁creatures	-2784
▁latitudes	-2785
▁ourselves	-2786
▁strangely	-2787
▁everything	-2788
▁marvellous	-2789
▁scientific	-2790
▁considerable	-2791
Oh	-2792
hn	-2793
aim	-2794
cha	-2795
don	-2796
fic	-2797
ics	-2798
lar	-2799
ork	-2800
owl	-2801
pes	-2802
ram	-2803
rer	-2804
ron	-2805
rus	-2806
ths	-2807
uct	-2808
urb	-2809
uvi	-2810
▁11	-2811
▁12	-2812
▁Ad	-2813
▁Do	-2814
▁Em	-2815
▁ef	-2816
▁eh	-2817
▁ph	-2818
HALE	-2819
angs	-2820
angu	-2821
atch	-2822
bone	-2823
cend	-2824
ding	-2825
enty	-2826
erce	-2827
gypt	-2828
host	-2829
jest	-2830
medi	-2831
rees	-2832
sing	-2833
urch	-2834
utch	-2835
utes	-2836
▁Man	-2837
▁Squ	-2838
▁THE	-2839
▁anx	-2840
▁bag	-2841
▁blo	-2842
▁dam	-2843
▁ess	-2844
▁fit	-2845
▁fly	-2846
▁gro	-2847
▁hue	-2848
▁jud	-2849
▁key	-2850
▁law	-2851
▁nav	-2852
▁pir	-2853
▁ske	-2854
▁son	-2855
▁tar	-2856
▁wit	-2857
aceti	-2858
acher	-2859
anish	-2860
arest	-2861
attoo	-2862
ctavo	-2863
ented	-2864
ernal	-2865
icles	-2866
imate	-2867
inate	-2868
inity	-2869
ledge	-2870
lings	-2871
orted	-2872
oured	-2873
ships	-2874
uvier	-2875
▁Hist	-2876
▁Mean	-2877
▁acqu	-2878
▁band	-2879
▁beat	-2880
▁burn	-2881
▁chat	-2882
▁conv	-2883
▁dart	-2884
▁fall	-2885
▁fing	-2886
▁foam	-2887
▁hast	-2888
▁heed	-2889
▁held	-2890
▁inch	-2891
▁luck	-2892
▁nerv	-2893
▁perf	-2894
▁post	-2895
▁pred	-2896
▁prep	-2897
▁puff	-2898
▁race	-2899
▁rose	-2900
▁sake	-2901
▁seek	-2902
▁shot	-2903
▁shud	-2904
▁stat	-2905
▁succ	-2906
▁task	-2907
▁torn	-2908
antime	-2909
ishery	-2910
isting	-2911
pended	-2912
racter	-2913
though	-2914
urally	-2915
utable	-2916
▁Egypt	-2917
▁Stand	-2918
▁apart	-2919
▁beach	-2920
▁bears	-2921
▁blows	-2922
▁boots	-2923
▁bread	-2924
▁class	-2925
▁conse	-2926
▁conte	-2927
▁corre	-2928
▁eight	-2929
▁erect	-2930
▁extra	-2931
▁fully	-2932
▁ghost	-2933
▁globe	-2934
▁hence	-2935
▁hurry	-2936
▁infer	-2937
▁invol	-2938
▁kings	-2939
▁lungs	-2940
▁masts	-2941
▁oppos	-2942
▁peace	-2943
▁reven	-2944
▁scene	-2945
▁shark	-2946
▁shock	-2947
▁swung	-2948
▁throw	-2949
▁vague	-2950
▁venge	-2951
▁waist	-2952
▁yield	-2953
cending	-2954
ference	-2955
ishment	-2956
iveness	-2957
ividual	-2958
ocation	-2959
taining	-2960
▁Cuvier	-2961
▁Father	-2962
▁afraid	-2963
▁butter	-2964
▁destro	-2965
▁experi	-2966
▁glance	-2967
▁lesson	-2968
▁majest	-2969
▁marked	-2970
▁middle	-2971
▁orders	-2972
▁papers	-2973
▁rising	-2974
▁seaman	-2975
▁silver	-2976
▁social	-2977
▁uncons	-2978
▁whaler	-2979
▁yonder	-2980
lessness	-2981
▁England	-2982
▁However	-2983
▁Whaling	-2984
▁brother	-2985
▁disappe	-2986
▁dropped	-2987
▁engaged	-2988
▁exactly	-2989
▁howling	-2990
▁indiffe	-2991
▁learned	-2992
▁lighted	-2993
▁madness	-2994
▁meaning	-2995
▁measure	-2996
▁phantom	-2997
▁possess	-2998
▁putting	-2999
▁retreat	-3000
▁scuttle	-3001
▁seventy	-3002
▁shadows	-3003
▁shipped	-3004
▁shouted	-3005
▁silence	-3006
▁steward	-3007
▁surface	-3008
▁tempest	-3009
▁thereby	-3010
▁utterly	-3011
▁whalers	-3012
▁distinct	-3013
▁employed	-3014
▁harpoons	-3015
▁observed	-3016
▁pleasant	-3017
▁resolved	-3018
▁separate	-3019
▁swimming	-3020
▁Meanwhile	-3021
▁character	-3022
▁dangerous	-3023
▁different	-3024
▁doubtless	-3025
▁precisely	-3026
▁presented	-3027
▁somewhere	-3028
▁spiritual	-3029
▁horizontal	-3030
▁individual	-3031
▁nevertheless	-3032
CK	-3033
no	-3034
pi	-3035
sm	-3036
zy	-3037
Now	-3038
Who	-3039
Why	-3040
Yes	-3041
ady	-3042
alo	-3043
che	-3044
cut	-3045
eal	-3046
een	-3047
eld	-3048
hal	-3049
hod	-3050
ibr	-3051
ima	-3052
isf	-3053
key	-3054
min	-3055
omy	-3056
ope	-3057
ote	-3058
rah	-3059
ude	-3060
ugg	-3061
unk	-3062
use	-3063
▁My	-3064
▁Re	-3065
▁Sy	-3066
▁Un	-3067
▁“_	-3068
Look	-3069
Post	-3070
aded	-3071
agin	-3072
alth	-3073
amed	-3074
apan	-3075
bast	-3076
come	-3077
ctic	-3078
greg	-3079
ices	-3080
ingu	-3081
iscu	-3082
kind	-3083
mbol	-3084
ohog	-3085
olar	-3086
omen	-3087
oung	-3088
over	-3089
poss	-3090
rand	-3091
rise	-3092
seen	-3093
spic	-3094
▁Aye	-3095
▁Chi	-3096
▁Con	-3097
▁Del	-3098
▁Eur	-3099
▁Map	-3100
▁Old	-3101
▁Sea	-3102
▁She	-3103
▁Sir	-3104
▁ban	-3105
▁ber	-3106
▁cop	-3107
▁cow	-3108
▁fan	-3109
▁pos	-3110
▁rev	-3111
▁sit	-3112
▁suc	-3113
▁sus	-3114
▁vac	-3115
▁vit	-3116
▁woe	-3117
ading	-3118
chief	-3119
clock	-3120
eding	-3121
ially	-3122
inted	-3123
izing	-3124
leton	-3125
liest	-3126
mates	-3127
orial	-3128
oring	-3129
otion	-3130
phant	-3131
redit	-3132
rench	-3133
uable	-3134
urely	-3135
▁Good	-3136
▁Lima	-3137
▁Ship	-3138
▁True	-3139
▁amaz	-3140
▁beef	-3141
▁blow	-3142
▁bree	-3143
▁chow	-3144
▁clim	-3145
▁cord	-3146
▁drag	-3147
▁east	-3148
▁ends	-3149
▁excl	-3150
▁gras	-3151
▁hail	-3152
▁knee	-3153
▁move	-3154
▁muff	-3155
▁pack	-3156
▁prai	-3157
▁rock	-3158
▁save	-3159
▁shir	-3160
▁stud	-3161
▁swam	-3162
▁tend	-3163
▁tree	-3164
apping	-3165
iction	-3166
itions	-3167
lected	-3168
modore	-3169
ulking	-3170
▁Death	-3171
▁Japan	-3172
▁Roman	-3173
▁alive	-3174
▁ascri	-3175
▁asked	-3176
▁aston	-3177
▁aught	-3178
▁bench	-3179
▁cloud	-3180
▁crown	-3181
▁grass	-3182
▁grave	-3183
▁image	-3184
▁jolly	-3185
▁knock	-3186
▁lying	-3187
▁money	-3188
▁moody	-3189
▁names	-3190
▁pagan	-3191
▁piece	-3192
▁plank	-3193
▁plent	-3194
▁rapid	-3195
▁rolls	-3196
▁sense	-3197
▁sides	-3198
▁souls	-3199
▁spite	-3200
▁steel	-3201
▁subse	-3202
▁worse	-3203
bastian	-3204
batross	-3205
lerable	-3206
retched	-3207
umbling	-3208
▁Mapple	-3209
▁Quohog	-3210
▁Voyage	-3211
▁beyond	-3212
▁conven	-3213
▁custom	-3214
▁dashed	-3215
▁desper	-3216
▁determ	-3217
▁effect	-3218
▁embark	-3219
▁fairly	-3220
▁giving	-3221
▁immedi	-3222
▁infall	-3223
▁insult	-3224
▁kicked	-3225
▁lances	-3226
▁landed	-3227
▁leaves	-3228
▁naught	-3229
▁oceans	-3230
▁places	-3231
▁roared	-3232
▁satisf	-3233
▁stairs	-3234
▁steady	-3235
▁suspic	-3236
▁symbol	-3237
▁tattoo	-3238
▁trying	-3239
▁whence	-3240
▁winter	-3241
▁chapter	-3242
▁chiefly	-3243
▁frantic	-3244
▁history	-3245
▁keeping	-3246
▁knowing	-3247
▁mankind	-3248
▁mariner	-3249
▁meeting	-3250
▁monoman	-3251
▁pulling	-3252
▁revenge	-3253
▁rolling	-3254
▁savages	-3255
▁service	-3256
▁shudder	-3257
▁special	-3258
▁succeed	-3259
▁thunder	-3260
▁torment	-3261
▁withdra	-3262
▁accompan	-3263
▁actually	-3264
▁departed	-3265
▁descried	-3266
▁distingu	-3267
▁hitherto	-3268
▁included	-3269
▁instinct	-3270
▁likewise	-3271
▁prospect	-3272
▁reaching	-3273
▁remotest	-3274
▁somewhat	-3275
▁strength	-3276
▁throwing	-3277
▁vicinity	-3278
▁whenever	-3279
▁wondrous	-3280
▁Commodore	-3281
▁Sebastian	-3282
▁cannibals	-3283
▁civilized	-3284
▁concluded	-3285
▁conscious	-3286
▁continual	-3287
▁important	-3288
▁narrative	-3289
▁regularly	-3290
▁shoulders	-3291
▁slightest	-3292
▁concluding	-3293
▁conscience	-3294
▁difference	-3295
▁comfortable	-3296
▁encountered	-3297
▁unconscious	-3298
▁peculiarities	-3299
▁superstitious	-3300
);	-3301
.*	-3302
AL	-3303
Is	-3304
do	-3305
ek	-3306
gr	-3307
lp	-3308
ob	-3309
sh	-3310
sy	-3311
—‘	-3312
—”	-3313
,00	-3314
How	-3315
aff	-3316
ald	-3317
aly	-3318
aye	-3319
cel	-3320
cip	-3321
day	-3322
ech	-3323
ees	-3324
iac	-3325
igw	-3326
let	-3327
rem	-3328
tis	-3329
ued	-3330
who	-3331
why	-3332
zen	-3333
▁Am	-3334
▁Ne	-3335
▁py	-3336
....	-3337
This	-3338
ades	-3339
aste	-3340
ater	-3341
atic	-3342
away	-3343
cean	-3344
cher	-3345
emed	-3346
eted	-3347
hole	-3348
iant	-3349
icul	-3350
iful	-3351
ints	-3352
lief	-3353
llig	-3354
nett	-3355
orts	-3356
pair	-3357
rict	-3358
sion	-3359
sued	-3360
test	-3361
▁Col	-3362
▁Did	-3363
▁Fed	-3364
▁Had	-3365
▁Har	-3366
▁Her	-3367
▁Pip	-3368
▁Spe	-3369
▁Was	-3370
▁arr	-3371
▁awe	-3372
▁bol	-3373
▁cho	-3374
▁fer	-3375
▁flu	-3376
▁gay	-3377
▁gig	-3378
▁lan	-3379
▁lod	-3380
▁mel	-3381
▁nay	-3382
▁pus	-3383
▁rid	-3384
▁tal	-3385
aches	-3386
allah	-3387
arrow	-3388
asing	-3389
ature	-3390
elled	-3391
erved	-3392
gment	-3393
hered	-3394
house	-3395
igwam	-3396
inded	-3397
inion	-3398
inite	-3399
irgin	-3400
oning	-3401
orrow	-3402
osity	-3403
ouses	-3404
outer	-3405
owers	-3406
rades	-3407
ramid	-3408
ulled	-3409
uming	-3410
verse	-3411
▁Take	-3412
▁Tars	-3413
▁Tell	-3414
▁Thou	-3415
▁affe	-3416
▁alar	-3417
▁ball	-3418
▁base	-3419
▁bird	-3420
▁bone	-3421
▁bump	-3422
▁city	-3423
▁crit	-3424
▁croo	-3425
▁drew	-3426
▁drop	-3427
▁fill	-3428
▁flag	-3429
▁fold	-3430
▁gunw	-3431
▁harm	-3432
▁hole	-3433
▁hosp	-3434
▁keen	-3435
▁ling	-3436
▁lone	-3437
▁mort	-3438
▁neck	-3439
▁pall	-3440
▁pant	-3441
▁prot	-3442
▁rain	-3443
▁reck	-3444
▁rese	-3445
▁salt	-3446
▁scat	-3447
▁seat	-3448
▁sens	-3449
▁soci	-3450
▁thro	-3451
▁trop	-3452
▁twel	-3453
▁whir	-3454
▁whit	-3455
▁wish	-3456
allers	-3457
enance	-3458
isible	-3459
oresby	-3460
ormous	-3461
unning	-3462
usions	-3463
usting	-3464
▁Afric	-3465
▁Black	-3466
▁Dutch	-3467
▁Still	-3468
▁WHALE	-3469
▁added	-3470
▁agent	-3471
▁ahead	-3472
▁armed	-3473
▁beast	-3474
▁berth	-3475
▁biscu	-3476
▁blast	-3477
▁brave	-3478
▁chair	-3479
▁clean	-3480
▁doing	-3481
▁entry	-3482
▁excel	-3483
▁faith	-3484
▁famil	-3485
▁feels	-3486
▁field	-3487
▁front	-3488
▁glass	-3489
▁limbs	-3490
▁lived	-3491
▁minds	-3492
▁north	-3493
▁notic	-3494
▁outer	-3495
▁owing	-3496
▁plung	-3497
▁reign	-3498
▁seren	-3499
▁shape	-3500
▁shrie	-3501
▁space	-3502
▁stone	-3503
▁stout	-3504
▁sweep	-3505
▁terms	-3506
▁threw	-3507
▁tried	-3508
▁truly	-3509
▁using	-3510
hearted	-3511
outhern	-3512
utation	-3513
▁French	-3514
▁Heaven	-3515
▁absent	-3516
▁affair	-3517
▁announ	-3518
▁attend	-3519
▁begins	-3520
▁bitter	-3521
▁circle	-3522
▁compar	-3523
▁deeper	-3524
▁depart	-3525
▁design	-3526
▁forced	-3527
▁gazing	-3528
▁horror	-3529
▁inside	-3530
▁ladder	-3531
▁longer	-3532
▁master	-3533
▁merely	-3534
▁mostly	-3535
▁mother	-3536
▁mystic	-3537
▁notice	-3538
▁ponder	-3539
▁raised	-3540
▁record	-3541
▁repres	-3542
▁rushed	-3543
▁school	-3544
▁showed	-3545
▁spoken	-3546
▁sprang	-3547
▁street	-3548
▁tempor	-3549
▁thirty	-3550
▁volume	-3551
▁wigwam	-3552
▁America	-3553
▁Whether	-3554
▁advance	-3555
▁arrived	-3556
▁blessed	-3557
▁courage	-3558
▁crooked	-3559
▁earthly	-3560
▁endless	-3561
▁entered	-3562
▁extreme	-3563
▁heavens	-3564
▁horizon	-3565
▁largest	-3566
▁leaping	-3567
▁muffled	-3568
▁nervous	-3569
▁passion	-3570
▁perpend	-3571
▁process	-3572
▁project	-3573
▁pyramid	-3574
▁quickly	-3575
▁reasons	-3576
▁remains	-3577
▁seeming	-3578
▁settled	-3579
▁sleeper	-3580
▁sunrise	-3581
▁touched	-3582
▁upwards	-3583
▁whereas	-3584
ulkington	-3585
▁Fedallah	-3586
▁anywhere	-3587
▁approach	-3588
▁barbaric	-3589
▁crossing	-3590
▁directly	-3591
▁enormous	-3592
▁features	-3593
▁gigantic	-3594
▁opposite	-3595
▁ordinary	-3596
▁probably	-3597
▁sideways	-3598
▁skeleton	-3599
▁supposed	-3600
▁surround	-3601
▁swinging	-3602
▁terrific	-3603
▁windlass	-3604
▁commander	-3605
▁knowledge	-3606
▁meanwhile	-3607
▁monstrous	-3608
▁naturally	-3609
▁popularly	-3610
▁suspended	-3611
▁vengeance	-3612
▁whispered	-3613
▁complexion	-3614
▁frequently	-3615
▁previously	-3616
▁prodigious	-3617
▁profession	-3618
▁subsequent	-3619
▁countenance	-3620
▁impressions	-3621
▁perpendicular	-3622
AR	-3623
CT	-3624
EE	-3625
ET	-3626
MO	-3627
Mr	-3628
So	-3629
cy	-3630
mo	-3631
oa	-3632
ok	-3633
▁z	-3634
Ste	-3635
_).	-3636
abb	-3637
aco	-3638
col	-3639
com	-3640
eav	-3641
hor	-3642
hun	-3643
ici	-3644
isk	-3645
joy	-3646
pet	-3647
sal	-3648
top	-3649
wed	-3650
▁Ex	-3651
▁Si	-3652
,000	-3653
Head	-3654
Land	-3655
That	-3656
Well	-3657
anch	-3658
arch	-3659
asks	-3660
ator	-3661
aunt	-3662
emin	-3663
enes	-3664
etic	-3665
hish	-3666
illy	-3667
ince	-3668
itle	-3669
mney	-3670
nest	-3671
noon	-3672
oted	-3673
pane	-3674
pers	-3675
rade	-3676
rane	-3677
rary	-3678
rehe	-3679
soci	-3680
udge	-3681
well	-3682
when	-3683
▁Bec	-3684
▁Ben	-3685
▁Gay	-3686
▁Inn	-3687
▁age	-3688
▁ang	-3689
▁bid	-3690
▁cod	-3691
▁fir	-3692
▁hit	-3693
▁hoo	-3694
▁lab	-3695
▁oar	-3696
▁odd	-3697
▁pan	-3698
▁unm	-3699
▁vap	-3700
▁wid	-3701
▁wra	-3702
Folio	-3703
Whale	-3704
alled	-3705
angel	-3706
arian	-3707
asper	-3708
atest	-3709
bered	-3710
enced	-3711
fered	-3712
icked	-3713
istol	-3714
itive	-3715
itten	-3716
ondon	-3717
tling	-3718
uated	-3719
ubber	-3720
usual	-3721
venth	-3722
vings	-3723
▁High	-3724
▁Like	-3725
▁Mart	-3726
▁Only	-3727
▁Seas	-3728
▁Vine	-3729
▁Will	-3730
▁bell	-3731
▁boom	-3732
▁buck	-3733
▁bulk	-3734
▁caus	-3735
▁colt	-3736
▁cool	-3737
▁corp	-3738
▁dece	-3739
▁died	-3740
▁diff	-3741
▁dome	-3742
▁fare	-3743
▁food	-3744
▁game	-3745
▁glad	-3746
▁glim	-3747
▁gods	-3748
▁grey	-3749
▁hero	-3750
▁incl	-3751
▁inqu	-3752
▁item	-3753
▁joke	-3754
▁lips	-3755
▁lock	-3756
▁musk	-3757
▁news	-3758
▁obey	-3759
▁obli	-3760
▁oper	-3761
▁prev	-3762
▁rage	-3763
▁rush	-3764
▁safe	-3765
▁sand	-3766
▁soot	-3767
▁summ	-3768
▁symp	-3769
▁test	-3770
▁thri	-3771
▁unex	-3772
▁wedd	-3773
▁wife	-3774
▁wise	-3775
Octavo	-3776
akened	-3777
change	-3778
eeping	-3779
headed	-3780
inated	-3781
lieved	-3782
liness	-3783
lished	-3784
mitted	-3785
olding	-3786
owsers	-3787
ranean	-3788
soever	-3789
uffalo	-3790
vation	-3791
velled	-3792
verted	-3793
▁Beale	-3794
▁Bible	-3795
▁Great	-3796
▁Polar	-3797
▁Sleet	-3798
▁afore	-3799
▁appar	-3800
▁archi	-3801
▁aside	-3802
▁birth	-3803
▁blind	-3804
▁books	-3805
▁bring	-3806
▁calls	-3807
▁conve	-3808
▁cover	-3809
▁crews	-3810
▁delic	-3811
▁didst	-3812
▁drive	-3813
▁drown	-3814
▁enjoy	-3815
▁enter	-3816
▁everl	-3817
▁exact	-3818
▁faint	-3819
▁fatal	-3820
▁finds	-3821
▁fling	-3822
▁girls	-3823
▁gives	-3824
▁herds	-3825
▁hints	-3826
▁horse	-3827
▁incre	-3828
▁knees	-3829
▁langu	-3830
▁level	-3831
▁loung	-3832
▁meant	-3833
▁midst	-3834
▁perce	-3835
▁piled	-3836
▁proud	-3837
▁refer	-3838
▁rever	-3839
▁rocks	-3840
▁sadly	-3841
▁shake	-3842
▁sixty	-3843
▁spend	-3844
▁spoke	-3845
▁swore	-3846
▁worth	-3847
ational	-3848
atively	-3849
ethinks	-3850
orthern	-3851
ousness	-3852
▁London	-3853
▁astern	-3854
▁candle	-3855
▁centre	-3856
▁charts	-3857
▁clouds	-3858
▁coward	-3859
▁deadly	-3860
▁deliri	-3861
▁desire	-3862
▁disast	-3863
▁dismal	-3864
▁double	-3865
▁endeav	-3866
▁escape	-3867
▁family	-3868
▁fierce	-3869
▁flying	-3870
▁harbor	-3871
▁heaved	-3872
▁higher	-3873
▁indire	-3874
▁induce	-3875
▁leaped	-3876
▁lifted	-3877
▁lively	-3878
▁lurked	-3879
▁malice	-3880
▁manned	-3881
▁moving	-3882
▁narrow	-3883
▁nights	-3884
▁pistol	-3885
▁please	-3886
▁plenty	-3887
▁public	-3888
▁recogn	-3889
▁remark	-3890
▁rumors	-3891
▁settle	-3892
▁shadow	-3893
▁simple	-3894
▁spouts	-3895
▁stream	-3896
▁stroke	-3897
▁subtle	-3898
▁theirs	-3899
▁thread	-3900
▁threat	-3901
▁twelve	-3902
▁twenty	-3903
▁wicked	-3904
Landlord	-3905
idential	-3906
▁Because	-3907
▁Delight	-3908
▁History	-3909
▁Nothing	-3910
▁anxious	-3911
▁believe	-3912
▁billows	-3913
▁biscuit	-3914
▁calling	-3915
▁careful	-3916
▁chimney	-3917
▁clothes	-3918
▁comrade	-3919
▁conduct	-3920
▁despair	-3921
▁element	-3922
▁escaped	-3923
▁eternal	-3924
▁exasper	-3925
▁floated	-3926
▁gliding	-3927
▁gunwale	-3928
▁hatches	-3929
▁leading	-3930
▁lowered	-3931
▁minutes	-3932
▁nations	-3933
▁noticed	-3934
▁offered	-3935
▁opinion	-3936
▁outward	-3937
▁passing	-3938
▁perform	-3939
▁pockets	-3940
▁pointed	-3941
▁prairie	-3942
▁prophet	-3943
▁replied	-3944
▁rushing	-3945
▁seeking	-3946
▁shaking	-3947
▁singing	-3948
▁unusual	-3949
▁working	-3950
▁Cetology	-3951
▁Scoresby	-3952
▁Tarshish	-3953
▁Vineyard	-3954
▁bringing	-3955
▁comprehe	-3956
▁comrades	-3957
▁demanded	-3958
▁domestic	-3959
▁greatest	-3960
▁happened	-3961
▁ignorant	-3962
▁immortal	-3963
▁imperial	-3964
▁incident	-3965
▁infernal	-3966
▁intellig	-3967
▁landsmen	-3968
▁midnight	-3969
▁phantoms	-3970
▁prepared	-3971
▁religion	-3972
▁returned	-3973
▁scarcely	-3974
▁slightly	-3975
▁stranded	-3976
▁substant	-3977
▁surprise	-3978
▁trowsers	-3979
▁valuable	-3980
▁vocation	-3981
▁Therefore	-3982
▁allusions	-3983
▁apprehens	-3984
▁authority	-3985
▁beginning	-3986
▁curiosity	-3987
▁destroyed	-3988
▁excellent	-3989
▁furnished	-3990
▁invisible	-3991
▁magnitude	-3992
▁moonlight	-3993
▁overboard	-3994
▁presently	-3995
▁receiving	-3996
▁starboard	-3997
▁tormented	-3998
▁Bulkington	-3999
▁Christians	-4000
▁afterwards	-4001
▁influences	-4002
▁spermaceti	-4003
▁disappeared	-4004
▁exceedingly	-4005
▁intolerable	-4006
▁philosopher	-4007
▁particularly	-4008
▁supernatural	-4009
;”	-4010
?_	-4011
DE	-4012
My	-4013
RE	-4014
Re	-4015
TU	-4016
hs	-4017
tw	-4018
uc	-4019
ws	-4020
!”—	-4021
All	-4022
God	-4023
ISH	-4024
Sir	-4025
_.”	-4026
ani	-4027
ari	-4028
bol	-4029
boy	-4030
bye	-4031
can	-4032
chy	-4033
cru	-4034
ese	-4035
fer	-4036
hel	-4037
hic	-4038
icy	-4039
ils	-4040
iny	-4041
irt	-4042
ker	-4043
mas	-4044
oat	-4045
oko	-4046
oss	-4047
ply	-4048
rel	-4049
rod	-4050
she	-4051
uod	-4052
urg	-4053
war	-4054
▁13	-4055
▁Ab	-4056
▁En	-4057
▁Ha	-4058
▁Hy	-4059
▁Sw	-4060
▁ax	-4061
▁hy	-4062
▁ty	-4063
Come	-4064
Ship	-4065
Thou	-4066
acon	-4067
agon	-4068
aned	-4069
anks	-4070
anqu	-4071
arus	-4072
back	-4073
cied	-4074
cket	-4075
coat	-4076
down	-4077
ecim	-4078
enth	-4079
gain	-4080
gers	-4081
gger	-4082
hast	-4083
hose	-4084
icle	-4085
idel	-4086
iety	-4087
ills	-4088
isco	-4089
ites	-4090
lady	-4091
mber	-4092
ners	-4093
peak	-4094
rant	-4095
rate	-4096
reak	-4097
reet	-4098
road	-4099
rust	-4100
sail	-4101
sted	-4102
tend	-4103
uzza	-4104
velo	-4105
with	-4106
▁182	-4107
▁183	-4108
▁Cab	-4109
▁Des	-4110
▁Ele	-4111
▁Fin	-4112
▁Him	-4113
▁Ice	-4114
▁Laz	-4115
▁Med	-4116
▁Mer	-4117
▁Mid	-4118
▁Sal	-4119
▁Sup	-4120
▁Woe	-4121
▁bea	-4122
▁bos	-4123
▁bub	-4124
▁cet	-4125
▁cup	-4126
▁dil	-4127
▁dog	-4128
▁eff	-4129
▁fab	-4130
▁fal	-4131
▁fav	-4132
▁foe	-4133
▁fut	-4134
▁hab	-4135
▁hav	-4136
▁jun	-4137
▁led	-4138
▁mor	-4139
▁mus	-4140
▁nur	-4141
▁rad	-4142
▁reb	-4143
▁sor	-4144
▁sty	-4145
▁ult	-4146
▁unp	-4147
▁wil	-4148
▁yea	-4149
▁yes	-4150
after	-4151
agues	-4152
aimed	-4153
akers	-4154
almed	-4155
anged	-4156
anity	-4157
anted	-4158
arent	-4159
aries	-4160
dling	-4161
eling	-4162
ental	-4163
etent	-4164
guish	-4165
ifted	-4166
iller	-4167
inder	-4168
inent	-4169
iring	-4170
ishes	-4171
itled	-4172
knife	-4173
llows	-4174
mises	-4175
onsid	-4176
remon	-4177
rents	-4178
rewed	-4179
smith	-4180
tains	-4181
ugust	-4182
which	-4183
▁Cong	-4184
▁Hark	-4185
▁Holy	-4186
▁John	-4187
▁Pict	-4188
▁Pres	-4189
▁ages	-4190
▁anti	-4191
▁beth	-4192
▁brim	-4193
▁chip	-4194
▁cred	-4195
▁doll	-4196
▁doom	-4197
▁dost	-4198
▁dumb	-4199
▁firm	-4200
▁furi	-4201
▁gard	-4202
▁grew	-4203
▁hell	-4204
▁hill	-4205
▁hook	-4206
▁inex	-4207
▁lies	-4208
▁mars	-4209
▁mult	-4210
▁myst	-4211
▁paid	-4212
▁pill	-4213
▁pity	-4214
▁prey	-4215
▁pump	-4216
▁rare	-4217
▁remo	-4218
▁rust	-4219
▁scor	-4220
▁sell	-4221
▁send	-4222
▁sick	-4223
▁sink	-4224
▁skin	-4225
▁stir	-4226
▁stoo	-4227
▁stor	-4228
▁surv	-4229
▁tamb	-4230
▁tore	-4231
▁vent	-4232
▁vibr	-4233
▁west	-4234
▁wool	-4235
anning	-4236
arthly	-4237
ealand	-4238
encies	-4239
ential	-4240
formed	-4241
icious	-4242
icking	-4243
idence	-4244
idered	-4245
inting	-4246
itated	-4247
longed	-4248
mbling	-4249
ourine	-4250
posing	-4251
racted	-4252
ularly	-4253
ulting	-4254
unched	-4255
▁Emper	-4256
▁Hence	-4257
▁Ocean	-4258
▁Pagan	-4259
▁Peter	-4260
▁Think	-4261
▁abund	-4262
▁avast	-4263
▁bedfe	-4264
▁belly	-4265
▁brawn	-4266
▁brief	-4267
▁brown	-4268
▁canoe	-4269
▁charm	-4270
▁crazy	-4271
▁democ	-4272
▁demon	-4273
▁desol	-4274
▁dived	-4275
▁estab	-4276
▁feast	-4277
▁fetch	-4278
▁flood	-4279
▁flour	-4280
▁forms	-4281
▁games	-4282
▁hardy	-4283
▁haunt	-4284
▁horns	-4285
▁horri	-4286
▁humor	-4287
▁immen	-4288
▁indef	-4289
▁indis	-4290
▁innoc	-4291
▁irreg	-4292
▁irres	-4293
▁lives	-4294
▁loose	-4295
▁match	-4296
▁medit	-4297
▁occup	-4298
▁paced	-4299
▁pains	-4300
▁paint	-4301
▁pious	-4302
▁pitch	-4303
▁remem	-4304
▁shirt	-4305
▁sleet	-4306
▁snowy	-4307
▁sober	-4308
▁south	-4309
▁spect	-4310
▁split	-4311
▁stage	-4312
▁stave	-4313
▁stock	-4314
▁stret	-4315
▁stubb	-4316
▁swart	-4317
▁swims	-4318
▁sympt	-4319
▁thank	-4320
▁thine	-4321
▁treat	-4322
▁usage	-4323
▁vapor	-4324
▁vigil	-4325
▁vivid	-4326
▁warri	-4327
▁weeks	-4328
▁wrong	-4329
▁yards	-4330
clusion	-4331
emorial	-4332
ibility	-4333
ictions	-4334
innacle	-4335
ionable	-4336
landish	-4337
looking	-4338
renched	-4339
ruction	-4340
seventh	-4341
uodecim	-4342
▁Africa	-4343
▁Cabaco	-4344
▁Seeing	-4345
▁Virgin	-4346
▁abound	-4347
▁afford	-4348
▁amount	-4349
▁associ	-4350
▁breath	-4351
▁bucket	-4352
▁cheeks	-4353
▁closed	-4354
▁closer	-4355
▁commen	-4356
▁commun	-4357
▁coolly	-4358
▁daring	-4359
▁deemed	-4360
▁devils	-4361
▁distin	-4362
▁dreams	-4363
▁dreary	-4364
▁flukes	-4365
▁forget	-4366
▁health	-4367
▁helped	-4368
▁histor	-4369
▁imagin	-4370
▁imposs	-4371
▁intens	-4372
▁interl	-4373
▁locked	-4374
▁monkey	-4375
▁months	-4376
▁nearer	-4377
▁opened	-4378
▁paused	-4379
▁picked	-4380
▁polite	-4381
▁proved	-4382
▁pulled	-4383
▁refuse	-4384
▁remain	-4385
▁remote	-4386
▁schoon	-4387
▁seized	-4388
▁served	-4389
▁shoals	-4390
▁sights	-4391
▁sleeps	-4392
▁sooner	-4393
▁sounds	-4394
▁strang	-4395
▁summer	-4396
▁summon	-4397
▁sympat	-4398
▁thence	-4399
▁tiller	-4400
▁unseen	-4401
▁utmost	-4402
▁weight	-4403
▁wildly	-4404
▁worthy	-4405
cription	-4406
iousness	-4407
omething	-4408
ordinate	-4409
untarily	-4410
▁Fishery	-4411
▁Lazarus	-4412
▁Spanish	-4413
▁Spouter	-4414
▁anguish	-4415
▁capture	-4416
▁carries	-4417
▁century	-4418
▁cherish	-4419
▁chowder	-4420
▁closely	-4421
▁conceit	-4422
▁confess	-4423
▁congreg	-4424
▁correct	-4425
▁denomin	-4426
▁derived	-4427
▁draught	-4428
▁explain	-4429
▁fancied	-4430
▁fashion	-4431
▁fearful	-4432
▁feeding	-4433
▁fifteen	-4434
▁foolish	-4435
▁gaining	-4436
▁handful	-4437
▁hanging	-4438
▁happens	-4439
▁hearing	-4440
▁heathen	-4441
▁heredit	-4442
▁leeward	-4443
▁nearest	-4444
▁neither	-4445
▁obvious	-4446
▁opening	-4447
▁pausing	-4448
▁portent	-4449
▁reached	-4450
▁reading	-4451
▁roaring	-4452
▁seasons	-4453
▁setting	-4454
▁squares	-4455
▁stories	-4456
▁success	-4457
▁swallow	-4458
▁violent	-4459
▁watches	-4460
▁wonders	-4461
▁wrapped	-4462
Steelkilt	-4463
▁Meantime	-4464
▁Narwhale	-4465
▁Pictures	-4466
▁accident	-4467
▁articles	-4468
▁belonged	-4469
▁breaking	-4470
▁captured	-4471
▁catching	-4472
▁chapters	-4473
▁children	-4474
▁contrary	-4475
▁critical	-4476
▁district	-4477
▁entitled	-4478
▁familiar	-4479
▁fatality	-4480
▁floating	-4481
▁grinning	-4482
▁independ	-4483
▁landlady	-4484
▁latitude	-4485
▁northern	-4486
▁occurred	-4487
▁perilous	-4488
▁presence	-4489
▁remember	-4490
▁retained	-4491
▁revealed	-4492
▁shavings	-4493
▁spouting	-4494
▁stopping	-4495
▁strongly	-4496
▁sweeping	-4497
▁tattooed	-4498
▁treacher	-4499
▁ultimate	-4500
▁Canallers	-4501
▁blackness	-4502
▁connected	-4503
▁everybody	-4504
▁ignorance	-4505
▁influence	-4506
▁malicious	-4507
▁passenger	-4508
▁ponderous	-4509
▁practical	-4510
▁prolonged	-4511
▁questions	-4512
▁represent	-4513
▁scattered	-4514
▁steadfast	-4515
▁substance	-4516
▁unearthly	-4517
▁withstand	-4518
▁apparition	-4519
▁appearance	-4520
▁calculated	-4521
▁companions	-4522
▁comprehens	-4523
▁considered	-4524
▁convenient	-4525
▁directions	-4526
▁eventually	-4527
▁importance	-4528
▁infallibly	-4529
▁mysterious	-4530
▁originally	-4531
▁outlandish	-4532
▁personally	-4533
▁remarkable	-4534
▁shuddering	-4535
▁tambourine	-4536
▁contrasting	-4537
▁everlasting	-4538
▁experienced	-4539
▁immediately	-4540
▁astonishment	-4541
▁confidential	-4542
!_	-4543
.,	-4544
AG	-4545
At	-4546
By	-4547
CI	-4548
De	-4549
EL	-4550
IC	-4551
IP	-4552
If	-4553
LI	-4554
NG	-4555
On	-4556
We	-4557
bl	-4558
ky	-4559
my	-4560
._)	-4561
?”—	-4562
Gra	-4563
Inn	-4564
Sub	-4565
ahi	-4566
aks	-4567
alt	-4568
amn	-4569
apt	-4570
asp	-4571
bac	-4572
bag	-4573
bin	-4574
dor	-4575
eed	-4576
gar	-4577
got	-4578
hil	-4579
hoy	-4580
hys	-4581
ium	-4582
lay	-4583
lig	-4584
nav	-4585
now	-4586
off	-4587
omb	-4588
ott	-4589
oul	-4590
pse	-4591
ras	-4592
sha	-4593
sts	-4594
tee	-4595
tes	-4596
uel	-4597
ulf	-4598
uls	-4599
ush	-4600
uts	-4601
vas	-4602
was	-4603
wre	-4604
zed	-4605
▁DU	-4606
▁Gu	-4607
▁OF	-4608
▁Po	-4609
▁TA	-4610
▁eb	-4611
▁je	-4612
▁oh	-4613
ANTU	-4614
Back	-4615
CKET	-4616
Holl	-4617
Very	-4618
With	-4619
aily	-4620
aron	-4621
aved	-4622
bear	-4623
bing	-4624
blem	-4625
cken	-4626
edro	-4627
ethe	-4628
eves	-4629
fety	-4630
four	-4631
fted	-4632
hent	-4633
hest	-4634
hood	-4635
horn	-4636
idge	-4637
iger	-4638
ighb	-4639
ilty	-4640
inal	-4641
itch	-4642
keep	-4643
leep	-4644
lime	-4645
llen	-4646
loat	-4647
lobe	-4648
lorn	-4649
luck	-4650
mend	-4651
mpus	-4652
ntar	-4653
ocly	-4654
osea	-4655
owne	-4656
pper	-4657
rail	-4658
rait	-4659
rian	-4660
stri	-4661
then	-4662
uded	-4663
unes	-4664
urre	-4665
used	-4666
uted	-4667
uten	-4668
wter	-4669
xter	-4670
▁Car	-4671
▁Cat	-4672
▁Cod	-4673
▁Ere	-4674
▁May	-4675
▁Ori	-4676
▁Our	-4677
▁Par	-4678
▁Pat	-4679
▁Pri	-4680
▁Pur	-4681
▁Sen	-4682
▁Sub	-4683
▁Tom	-4684
▁ado	-4685
▁alt	-4686
▁amb	-4687
▁ano	-4688
▁ant	-4689
▁ask	-4690
▁aud	-4691
▁bab	-4692
▁box	-4693
▁cri	-4694
▁dev	-4695
▁dry	-4696
▁fra	-4697
▁gen	-4698
▁hom	-4699
▁laz	-4700
▁miz	-4701
▁moo	-4702
▁nap	-4703
▁oft	-4704
▁org	-4705
▁pad	-4706
▁ped	-4707
▁pry	-4708
▁rig	-4709
▁rom	-4710
▁tid	-4711
▁unb	-4712
▁upl	-4713
▁wre	-4714
Sperm	-4715
Where	-4716
agger	-4717
aling	-4718
arded	-4719
ardon	-4720
athom	-4721
aults	-4722
bacco	-4723
bones	-4724
dorff	-4725
ended	-4726
erick	-4727
erous	-4728
ested	-4729
fashi	-4730
going	-4731
hical	-4732
iated	-4733
icorn	-4734
icted	-4735
inked	-4736
irtue	-4737
ision	-4738
llect	-4739
mbled	-4740
navig	-4741
ograp	-4742
olute	-4743
onies	-4744
ostri	-4745
oting	-4746
ounds	-4747
owder	-4748
place	-4749
rance	-4750
respo	-4751
ribut	-4752
ucing	-4753
ucked	-4754
unday	-4755
usive	-4756
▁Boat	-4757
▁Brit	-4758
▁Cook	-4759
▁Didn	-4760
▁Even	-4761
▁Fore	-4762
▁Hand	-4763
▁Life	-4764
▁Linn	-4765
▁Long	-4766
▁Mark	-4767
▁More	-4768
▁Next	-4769
▁Pass	-4770
▁Prop	-4771
▁Soon	-4772
▁Tahi	-4773
▁Time	-4774
▁West	-4775
▁able	-4776
▁alas	-4777
▁amid	-4778
▁anat	-4779
▁ange	-4780
▁bent	-4781
▁blaz	-4782
▁blew	-4783
▁bore	-4784
▁bred	-4785
▁cash	-4786
▁coll	-4787
▁copy	-4788
▁damp	-4789
▁dare	-4790
▁dear	-4791
▁dive	-4792
▁doze	-4793
▁drab	-4794
▁dusk	-4795
▁dust	-4796
▁ease	-4797
▁emer	-4798
▁emot	-4799
▁exec	-4800
▁exte	-4801
▁fits	-4802
▁fles	-4803
▁flow	-4804
▁forb	-4805
▁fury	-4806
▁gain	-4807
▁gaze	-4808
▁glit	-4809
▁hate	-4810
▁isle	-4811
▁isol	-4812
▁join	-4813
▁keel	-4814
▁laug	-4815
▁mask	-4816
▁meat	-4817
▁mill	-4818
▁navy	-4819
▁noon	-4820
▁oath	-4821
▁obst	-4822
▁odds	-4823
▁pair	-4824
▁path	-4825
▁pedd	-4826
▁peep	-4827
▁prim	-4828
▁prud	-4829
▁quit	-4830
▁rate	-4831
▁rise	-4832
▁shab	-4833
▁shut	-4834
▁snat	-4835
▁star	-4836
▁suit	-4837
▁taff	-4838
▁term	-4839
▁thin	-4840
▁tink	-4841
▁tomb	-4842
▁tone	-4843
▁toss	-4844
▁trad	-4845
▁unin	-4846
▁unne	-4847
▁veil	-4848
▁vine	-4849
▁walk	-4850
▁warp	-4851
▁warr	-4852
▁weap	-4853
▁wine	-4854
▁wore	-4855
▁worn	-4856
acetti	-4857
ailing	-4858
ainted	-4859
anting	-4860
antity	-4861
ements	-4862
handed	-4863
ifying	-4864
lingly	-4865
minded	-4866
omical	-4867
orious	-4868
pected	-4869
penter	-4870
▁Among	-4871
▁Archy	-4872
▁Chief	-4873
▁Cross	-4874
▁Folio	-4875
▁Globe	-4876
▁Going	-4877
▁Grand	-4878
▁Harpo	-4879
▁Hosea	-4880
▁Langs	-4881
▁Meets	-4882
▁Mount	-4883
▁NANTU	-4884
▁Night	-4885
▁North	-4886
▁Pedro	-4887
▁Queen	-4888
▁Start	-4889
▁State	-4890
▁aband	-4891
▁accom	-4892
▁angle	-4893
▁ashes	-4894
▁backs	-4895
▁blade	-4896
▁brood	-4897
▁brute	-4898
▁build	-4899
▁built	-4900
▁carri	-4901
▁chaps	-4902
▁chart	-4903
▁cheek	-4904
▁coron	-4905
▁crack	-4906
▁crowd	-4907
▁defin	-4908
▁dimly	-4909
▁drink	-4910
▁early	-4911
▁engra	-4912
▁equal	-4913
▁faces	-4914
▁facts	-4915
▁feroc	-4916
▁flame	-4917
▁flank	-4918
▁gazed	-4919
▁glist	-4920
▁gloom	-4921
▁goble	-4922
▁habit	-4923
▁haven	-4924
▁incor	-4925
▁indic	-4926
▁inscr	-4927
▁isles	-4928
▁joint	-4929
▁layer	-4930
▁learn	-4931
▁liken	-4932
▁loath	-4933
▁lowly	-4934
▁lurks	-4935
▁marks	-4936
▁meals	-4937
▁merry	-4938
▁milky	-4939
▁mixed	-4940
▁naked	-4941
▁nomin	-4942
▁oblig	-4943
▁owner	-4944
▁party	-4945
▁phren	-4946
▁prime	-4947
▁prior	-4948
▁prove	-4949
▁puffs	-4950
▁punch	-4951
▁purse	-4952
▁revel	-4953
▁robes	-4954
▁scorn	-4955
▁sheep	-4956
▁shelf	-4957
▁shook	-4958
▁solic	-4959
▁sorry	-4960
▁spell	-4961
▁spent	-4962
▁splin	-4963
▁stark	-4964
▁steam	-4965
▁stuck	-4966
▁study	-4967
▁style	-4968
▁surre	-4969
▁taste	-4970
▁thump	-4971
▁tides	-4972
▁tight	-4973
▁title	-4974
▁token	-4975
▁trump	-4976
▁unite	-4977
▁upper	-4978
▁wakes	-4979
▁wheel	-4980
▁women	-4981
▁woods	-4982
▁wrath	-4983
▁youth	-4984
ability	-4985
athered	-4986
ception	-4987
hysical	-4988
iculars	-4989
itional	-4990
lection	-4991
oclydon	-4992
ountain	-4993
ugitive	-4994
▁Browne	-4995
▁Chapel	-4996
▁Church	-4997
▁Consid	-4998
▁Knight	-4999
▁Nature	-5000
▁Specks	-5001
▁Sunday	-5002
▁Supper	-5003
▁action	-5004
▁afloat	-5005
▁appell	-5006
▁arrive	-5007
▁assure	-5008
▁bloody	-5009
▁boldly	-5010
▁bowels	-5011
▁breast	-5012
▁calmly	-5013
▁canvas	-5014
▁carved	-5015
▁change	-5016
▁chapel	-5017
▁church	-5018
▁constr	-5019
▁depend	-5020
▁dexter	-5021
▁driven	-5022
▁eating	-5023
▁expand	-5024
▁extern	-5025
▁filled	-5026
▁finger	-5027
▁forgot	-5028
▁freely	-5029
▁frozen	-5030
▁future	-5031
▁gained	-5032
▁gather	-5033
▁happen	-5034
▁hearty	-5035
▁homage	-5036
▁inches	-5037
▁incomp	-5038
▁issued	-5039
▁joined	-5040
▁knives	-5041
▁ladies	-5042
▁larger	-5043
▁latter	-5044
▁lights	-5045
▁marble	-5046
▁market	-5047
▁mechan	-5048
▁member	-5049
▁method	-5050
▁mildly	-5051
▁minute	-5052
▁moored	-5053
▁neighb	-5054
▁pallor	-5055
▁partly	-5056
▁pewter	-5057
▁pirate	-5058
▁pocket	-5059
▁points	-5060
▁potent	-5061
▁preced	-5062
▁prepar	-5063
▁priest	-5064
▁repent	-5065
▁repose	-5066
▁safety	-5067
▁shaggy	-5068
▁simply	-5069
▁sister	-5070
▁smells	-5071
▁softly	-5072
▁swells	-5073
▁throne	-5074
▁tranqu	-5075
▁travel	-5076
▁tumult	-5077
▁waking	-5078
attering	-5079
ernation	-5080
iciently	-5081
kerchief	-5082
rederick	-5083
ulations	-5084
uodecimo	-5085
▁Charity	-5086
▁Mediter	-5087
▁Voyages	-5088
▁Washing	-5089
▁address	-5090
▁allowed	-5091
▁anybody	-5092
▁appears	-5093
▁applied	-5094
▁beating	-5095
▁blanket	-5096
▁blowing	-5097
▁ceremon	-5098
▁comical	-5099
▁compare	-5100
▁complim	-5101
▁concent	-5102
▁corpore	-5103
▁corrupt	-5104
▁covered	-5105
▁crossed	-5106
▁cutting	-5107
▁dancing	-5108
▁darting	-5109
▁deliver	-5110
▁descend	-5111
▁direful	-5112
▁discern	-5113
▁dollars	-5114
▁dressed	-5115
▁excited	-5116
▁extract	-5117
▁fellows	-5118
▁finding	-5119
▁fingers	-5120
▁forests	-5121
▁forlorn	-5122
▁gallant	-5123
▁glanced	-5124
▁glasses	-5125
▁glimpse	-5126
▁hideous	-5127
▁hurried	-5128
▁islands	-5129
▁lantern	-5130
▁majesty	-5131
▁marvels	-5132
▁matters	-5133
▁moments	-5134
▁mounted	-5135
▁mystery	-5136
▁objects	-5137
▁oblique	-5138
▁observe	-5139
▁perched	-5140
▁pirates	-5141
▁pitched	-5142
▁placing	-5143
▁pleased	-5144
▁pretend	-5145
▁profane	-5146
▁promise	-5147
▁pursued	-5148
▁quality	-5149
▁rapidly	-5150
▁readily	-5151
▁reality	-5152
▁receive	-5153
▁removed	-5154
▁resting	-5155
▁resumed	-5156
▁serious	-5157
▁silvery	-5158
▁smaller	-5159
▁sublime	-5160
▁substit	-5161
▁threads	-5162
▁tobacco	-5163
▁trouble	-5164
▁twisted	-5165
▁univers	-5166
▁usually	-5167
▁valiant	-5168
▁wanting	-5169
▁weaving	-5170
▁wherein	-5171
▁whisper	-5172
▁willing	-5173
▁written	-5174
fashioned	-5175
ification	-5176
▁Elephant	-5177
▁Methinks	-5178
▁accounts	-5179
▁adventur	-5180
▁affright	-5181
▁appeared	-5182
▁assaults	-5183
▁attended	-5184
▁binnacle	-5185
▁conclude	-5186
▁correspo	-5187
▁declared	-5188
▁dreadful	-5189
▁emotions	-5190
▁faithful	-5191
▁fearless	-5192
▁glancing	-5193
▁grasping	-5194
▁harmless	-5195
▁hopeless	-5196
▁identity	-5197
▁inclined	-5198
▁inferior	-5199
▁inserted	-5200
▁interior	-5201
▁knocking	-5202
▁language	-5203
▁larboard	-5204
▁lounging	-5205
▁lowering	-5206
▁mistaken	-5207
▁monsters	-5208
▁moreover	-5209
▁mountain	-5210
▁mystical	-5211
▁polished	-5212
▁position	-5213
▁preserve	-5214
▁properly	-5215
▁quantity	-5216
▁relieved	-5217
▁requires	-5218
▁romantic	-5219
▁schooner	-5220
▁shipping	-5221
▁specific	-5222
▁standers	-5223
▁starting	-5224
▁steering	-5225
▁stubborn	-5226
▁symptoms	-5227
▁systemat	-5228
▁taffrail	-5229
▁universe	-5230
▁wretched	-5231
▁Christmas	-5232
▁Mountains	-5233
▁NANTUCKET	-5234
▁addressed	-5235
▁affection	-5236
▁afternoon	-5237
▁albatross	-5238
▁amazement	-5239
▁boundless	-5240
▁commenced	-5241
▁competent	-5242
▁concerned	-5243
▁curiously	-5244
▁customary	-5245
▁desperate	-5246
▁downright	-5247
▁earnestly	-5248
▁gentleman	-5249
▁hereafter	-5250
▁honorable	-5251
▁including	-5252
▁instantly	-5253
▁intellect	-5254
▁intention	-5255
▁lightning	-5256
▁mentioned	-5257
▁miserable	-5258
▁murderous	-5259
▁observing	-5260
▁reference	-5261
▁shivering	-5262
▁strangers	-5263
▁swallowed	-5264
▁temporary	-5265
▁thousands	-5266
▁vigilance	-5267
▁whalebone	-5268
▁wonderful	-5269
▁Euroclydon	-5270
▁Langsdorff	-5271
▁Washington	-5272
▁commanding	-5273
▁definition	-5274
▁determined	-5275
▁hereditary	-5276
▁immemorial	-5277
▁impossible	-5278
▁indirectly	-5279
▁leviathans	-5280
▁monomaniac	-5281
▁passengers	-5282
▁portentous	-5283
▁reasonable	-5284
▁surprising	-5285
▁surrounded	-5286
▁yourselves	-5287
▁approaching	-5288
▁calculating	-5289
▁continually	-5290
▁counterpane	-5291
▁description	-5292
▁destruction	-5293
▁indifferent	-5294
▁inscrutable	-5295
▁naturalists	-5296
▁particulars	-5297
▁peculiarity	-5298
▁superiority	-5299
▁tempestuous	-5300
▁Nantucketers	-5301
▁congregation	-5302
▁deliberately	-5303
▁handkerchief	-5304
▁incidentally	-5305
▁indifference	-5306
▁sufficiently	-5307
▁Mediterranean	-5308
▁consideration	-5309
▁consternation	-5310
▁distinguished	-5311
▁involuntarily	-5312
!)	-5313
;’	-5314
Ad	-5315
Bl	-5316
CH	-5317
Do	-5318
Mo	-5319
NU	-5320
Ye	-5321
gl	-5322
sk	-5323
,—“	-5324
Can	-5325
Nay	-5326
ODE	-5327
You	-5328
ads	-5329
aps	-5330
asy	-5331
aws	-5332
azz	-5333
bal	-5334
bly	-5335
bow	-5336
con	-5337
cra	-5338
dam	-5339
did	-5340
dom	-5341
edy	-5342
elt	-5343
ena	-5344
ept	-5345
eur	-5346
gen	-5347
god	-5348
gul	-5349
ham	-5350
has	-5351
ibb	-5352
ich	-5353
ieu	-5354
igr	-5355
ina	-5356
isc	-5357
itc	-5358
jud	-5359
lex	-5360
lor	-5361
lph	-5362
mis	-5363
mpl	-5364
nal	-5365
nes	-5366
oke	-5367
oof	-5368
oop	-5369
oub	-5370
pic	-5371
pot	-5372
ppa	-5373
rob	-5374
ror	-5375
see	-5376
son	-5377
str	-5378
sue	-5379
ubs	-5380
uge	-5381
ugn	-5382
ule	-5383
umn	-5384
une	-5385
upp	-5386
uss	-5387
wen	-5388
xic	-5389
zar	-5390
—“_	-5391
▁Cr	-5392
▁Fa	-5393
▁IV	-5394
▁Pr	-5395
▁Sl	-5396
▁Tw	-5397
▁Ye	-5398
▁ur	-5399
CIMO	-5400
Fish	-5401
Good	-5402
Moby	-5403
NUEE	-5404
ader	-5405
adiz	-5406
amps	-5407
anim	-5408
anke	-5409
arts	-5410
asis	-5411
ason	-5412
ault	-5413
awed	-5414
bbee	-5415
bowl	-5416
bury	-5417
butt	-5418
city	-5419
cred	-5420
edic	-5421
eron	-5422
fact	-5423
fall	-5424
fold	-5425
ftly	-5426
grim	-5427
hazz	-5428
held	-5429
icks	-5430
iers	-5431
inch	-5432
irit	-5433
irra	-5434
ishe	-5435
ital	-5436
iver	-5437
just	-5438
lebr	-5439
lice	-5440
mand	-5441
mate	-5442
more	-5443
mout	-5444
oods	-5445
ooke	-5446
ools	-5447
orig	-5448
orus	-5449
otch	-5450
ouis	-5451
ours	-5452
owls	-5453
pens	-5454
ples	-5455
plic	-5456
prit	-5457
pted	-5458
rase	-5459
rels	-5460
rors	-5461
stan	-5462
tesy	-5463
ties	-5464
time	-5465
turb	-5466
umpt	-5467
umul	-5468
urke	-5469
vast	-5470
work	-5471
yspe	-5472
▁Any	-5473
▁Are	-5474
▁Bay	-5475
▁Bot	-5476
▁Dav	-5477
▁Day	-5478
▁Hun	-5479
▁Hur	-5480
▁Job	-5481
▁Jud	-5482
▁Men	-5483
▁Ret	-5484
▁Rom	-5485
▁Sam	-5486
▁Sat	-5487
▁Str	-5488
▁Thr	-5489
▁Thy	-5490
▁Try	-5491
▁Ven	-5492
▁ali	-5493
▁apt	-5494
▁aut	-5495
▁axe	-5496
▁cir	-5497
▁dee	-5498
▁del	-5499
▁dom	-5500
▁eat	-5501
▁edd	-5502
▁gle	-5503
▁gri	-5504
▁hol	-5505
▁jer	-5506
▁lip	-5507
▁lit	-5508
▁lot	-5509
▁mak	-5510
▁map	-5511
▁pag	-5512
▁pee	-5513
▁rib	-5514
▁sig	-5515
▁tap	-5516
▁var	-5517
▁wel	-5518
▁yon	-5519
ANISH	-5520
achel	-5521
acity	-5522
aller	-5523
alter	-5524
aming	-5525
aping	-5526
arris	-5527
ators	-5528
boats	-5529
bound	-5530
bster	-5531
byter	-5532
chers	-5533
cipal	-5534
cruet	-5535
denly	-5536
dered	-5537
devil	-5538
encil	-5539
ensed	-5540
erity	-5541
erman	-5542
ermon	-5543
fleet	-5544
fting	-5545
habit	-5546
haust	-5547
hirst	-5548
ights	-5549
igned	-5550
ineer	-5551
ioned	-5552
istic	-5553
itime	-5554
lands	-5555
lines	-5556
llers	-5557
llied	-5558
llies	-5559
might	-5560
mming	-5561
nyder	-5562
ocate	-5563
olden	-5564
opard	-5565
otted	-5566
plain	-5567
plish	-5568
point	-5569
pople	-5570
quest	-5571
raged	-5572
repid	-5573
riend	-5574
secut	-5575
stant	-5576
stock	-5577
token	-5578
trees	-5579
uding	-5580
umber	-5581
uries	-5582
ushed	-5583
using	-5584
vance	-5585
water	-5586
▁Back	-5587
▁Bels	-5588
▁Come	-5589
▁Czar	-5590
▁Deut	-5591
▁Have	-5592
▁Less	-5593
▁Moss	-5594
▁Most	-5595
▁Once	-5596
▁Owen	-5597
▁Pers	-5598
▁Plat	-5599
▁Post	-5600
▁Stra	-5601
▁Tart	-5602
▁Very	-5603
▁York	-5604
▁ahoy	-5605
▁anon	-5606
▁argu	-5607
▁asce	-5608
▁asse	-5609
▁aven	-5610
▁bare	-5611
▁bull	-5612
▁busy	-5613
▁caps	-5614
▁caut	-5615
▁chur	-5616
▁cook	-5617
▁dand	-5618
▁dawn	-5619
▁diso	-5620
▁dogs	-5621
▁dull	-5622
▁dump	-5623
▁edge	-5624
▁enem	-5625
▁ener	-5626
▁exhi	-5627
▁fins	-5628
▁flee	-5629
▁fowl	-5630
▁gang	-5631
▁grad	-5632
▁grin	-5633
▁hams	-5634
▁host	-5635
▁hous	-5636
▁howl	-5637
▁invo	-5638
▁jets	-5639
▁kitc	-5640
▁lege	-5641
▁murm	-5642
▁nice	-5643
▁obed	-5644
▁obsc	-5645
▁page	-5646
▁parm	-5647
▁pear	-5648
▁pine	-5649
▁plum	-5650
▁proc	-5651
▁pure	-5652
▁puzz	-5653
▁qual	-5654
▁rack	-5655
▁radi	-5656
▁rang	-5657
▁reef	-5658
▁reli	-5659
▁resp	-5660
▁ribs	-5661
▁risk	-5662
▁rows	-5663
▁rubb	-5664
▁rude	-5665
▁scra	-5666
▁sees	-5667
▁sits	-5668
▁slid	-5669
▁smal	-5670
▁sold	-5671
▁stam	-5672
▁sult	-5673
▁surp	-5674
▁sust	-5675
▁tawn	-5676
▁tear	-5677
▁tent	-5678
▁text	-5679
▁thor	-5680
▁ting	-5681
▁trag	-5682
▁trib	-5683
▁trip	-5684
▁unce	-5685
▁uner	-5686
▁uses	-5687
▁usur	-5688
▁vest	-5689
▁vind	-5690
▁wait	-5691
▁ware	-5692
▁warn	-5693
▁wash	-5694
▁wave	-5695
▁wont	-5696
▁yarn	-5697
▁zone	-5698
aneous	-5699
apting	-5700
arning	-5701
arying	-5702
backed	-5703
barrow	-5704
chance	-5705
elling	-5706
ensive	-5707
fected	-5708
ggling	-5709
hazzar	-5710
hentic	-5711
iments	-5712
inding	-5713
itched	-5714
izings	-5715
joined	-5716
lement	-5717
masted	-5718
master	-5719
morrow	-5720
mother	-5721
olence	-5722
ongest	-5723
ouched	-5724
places	-5725
ricade	-5726
rolled	-5727
stones	-5728
udding	-5729
ullest	-5730
uously	-5731
utored	-5732
▁Again	-5733
▁Antar	-5734
▁Cabin	-5735
▁Cadiz	-5736
▁Chace	-5737
▁DUODE	-5738
▁Every	-5739
▁Huzza	-5740
▁Hyena	-5741
▁Joppa	-5742
▁Louis	-5743
▁Mogul	-5744
▁Spani	-5745
▁Those	-5746
▁Yanke	-5747
▁absor	-5748
▁accur	-5749
▁admir	-5750
▁alike	-5751
▁appet	-5752
▁avail	-5753
▁awake	-5754
▁aware	-5755
▁badly	-5756
▁becom	-5757
▁beget	-5758
▁begin	-5759
▁bleak	-5760
▁bloom	-5761
▁borne	-5762
▁bowed	-5763
▁brace	-5764
▁broke	-5765
▁cable	-5766
▁casks	-5767
▁cloth	-5768
▁coral	-5769
▁cords	-5770
▁cruis	-5771
▁daily	-5772
▁dance	-5773
▁dedic	-5774
▁disse	-5775
▁dolph	-5776
▁dusky	-5777
▁dyspe	-5778
▁embra	-5779
▁ended	-5780
▁enlar	-5781
▁excit	-5782
▁exist	-5783
▁fable	-5784
▁false	-5785
▁fears	-5786
▁fiend	-5787
▁flung	-5788
▁force	-5789
▁forty	-5790
▁fowls	-5791
▁gaunt	-5792
▁grown	-5793
▁guard	-5794
▁heave	-5795
▁hoops	-5796
▁impet	-5797
▁inner	-5798
▁irons	-5799
▁items	-5800
▁keeps	-5801
▁liber	-5802
▁liter	-5803
▁magic	-5804
▁manif	-5805
▁mercy	-5806
▁merid	-5807
▁moods	-5808
▁moved	-5809
▁nails	-5810
▁named	-5811
▁offer	-5812
▁overt	-5813
▁owned	-5814
▁palms	-5815
▁paper	-5816
▁plate	-5817
▁poles	-5818
▁press	-5819
▁punct	-5820
▁regal	-5821
▁restr	-5822
▁revol	-5823
▁ridic	-5824
▁rises	-5825
▁rough	-5826
▁sacri	-5827
▁secre	-5828
▁seeks	-5829
▁seize	-5830
▁shade	-5831
▁shoal	-5832
▁shoes	-5833
▁shown	-5834
▁signs	-5835
▁skull	-5836
▁slain	-5837
▁slave	-5838
▁slide	-5839
▁solid	-5840
▁spars	-5841
▁spray	-5842
▁steps	-5843
▁sunny	-5844
▁swear	-5845
▁swept	-5846
▁tears	-5847
▁tells	-5848
▁terra	-5849
▁tiger	-5850
▁trave	-5851
▁trees	-5852
▁tribe	-5853
▁trunk	-5854
▁twice	-5855
▁twine	-5856
▁value	-5857
▁vener	-5858
▁vital	-5859
▁weigh	-5860
▁works	-5861
▁wrist	-5862
▁write	-5863
▁yours	-5864
Morning	-5865
amation	-5866
ancholy	-5867
bearing	-5868
captain	-5869
clining	-5870
entimes	-5871
eronomy	-5872
lerably	-5873
monster	-5874
mouthed	-5875
nothing	-5876
orrowed	-5877
ostrils	-5878
pointed	-5879
roduced	-5880
rolling	-5881
thought	-5882
version	-5883
whaling	-5884
▁Deacon	-5885
▁Europe	-5886
▁Golden	-5887
▁Hunter	-5888
▁Indeed	-5889
▁Priest	-5890
▁Script	-5891
▁Second	-5892
▁Spirit	-5893
▁States	-5894
▁Street	-5895
▁Tahiti	-5896
▁Thinks	-5897
▁aborig	-5898
▁active	-5899
▁appall	-5900
▁asleep	-5901
▁assert	-5902
▁barbed	-5903
▁barrow	-5904
▁beasts	-5905
▁begged	-5906
▁beheld	-5907
▁beings	-5908
▁belief	-5909
▁beside	-5910
▁bestir	-5911
▁bolted	-5912
▁brawny	-5913
▁breeze	-5914
▁burden	-5915
▁button	-5916
▁casual	-5917
▁caused	-5918
▁celebr	-5919
▁charge	-5920
▁cheers	-5921
▁chewed	-5922
▁chicha	-5923
▁choose	-5924
▁chorus	-5925
▁circul	-5926
▁column	-5927
▁couldn	-5928
▁cursed	-5929
▁damned	-5930
▁decent	-5931
▁deeply	-5932
▁dented	-5933
▁derive	-5934
▁descri	-5935
▁disord	-5936
▁dramat	-5937
▁employ	-5938
▁endure	-5939
▁expans	-5940
▁favour	-5941
▁floats	-5942
▁fourth	-5943
▁garden	-5944
▁gently	-5945
▁glided	-5946
▁golden	-5947
▁guilty	-5948
▁habits	-5949
▁handle	-5950
▁headed	-5951
▁heeded	-5952
▁hereby	-5953
▁hissed	-5954
▁horrid	-5955
▁houses	-5956
▁incarn	-5957
▁incred	-5958
▁inform	-5959
▁inland	-5960
▁insuff	-5961
▁intent	-5962
▁invari	-5963
▁invent	-5964
▁inward	-5965
▁laying	-5966
▁leader	-5967
▁listen	-5968
▁lonely	-5969
▁loudly	-5970
▁lovely	-5971
▁madden	-5972
▁maketh	-5973
▁manage	-5974
▁memory	-5975
▁morbid	-5976
▁needed	-5977
▁office	-5978
▁offing	-5979
▁patent	-5980
▁pedest	-5981
▁pencil	-5982
▁perman	-5983
▁phrase	-5984
▁pillow	-5985
▁plates	-5986
▁powder	-5987
▁prelim	-5988
▁primit	-5989
▁princi	-5990
▁profit	-5991
▁propri	-5992
▁purple	-5993
▁pushed	-5994
▁ragged	-5995
▁raging	-5996
▁recall	-5997
▁remove	-5998
▁robust	-5999
▁sabbee	-6000
▁sacred	-6001
▁scores	-6002
▁serene	-6003
▁sharks	-6004
▁sheets	-6005
▁shores	-6006
▁spears	-6007
▁specim	-6008
▁spires	-6009
▁steers	-6010
▁string	-6011
▁stroll	-6012
▁sullen	-6013
▁sunset	-6014
▁thrice	-6015
▁throat	-6016
▁thrust	-6017
▁traged	-6018
▁triang	-6019
▁unlike	-6020
▁usages	-6021
▁virtue	-6022
▁walked	-6023
▁walrus	-6024
▁wilful	-6025
▁wouldn	-6026
aneously	-6027
coloured	-6028
fortable	-6029
lections	-6030
oundered	-6031
peakable	-6032
utenberg	-6033
▁Bennett	-6034
▁Congreg	-6035
▁Iceland	-6036
▁Islands	-6037
▁Knights	-6038
▁Natural	-6039
▁Patagon	-6040
▁Perhaps	-6041
▁Project	-6042
▁Squires	-6043
▁accumul	-6044
▁alarmed	-6045
▁ascribe	-6046
▁assured	-6047
▁betoken	-6048
▁bidding	-6049
▁blended	-6050
▁blubber	-6051
▁boiling	-6052
▁boister	-6053
▁bubbles	-6054
▁bumpkin	-6055
▁candles	-6056
▁capstan	-6057
▁ceiling	-6058
▁chanced	-6059
▁compass	-6060
▁contrad	-6061
▁counsel	-6062
▁cracked	-6063
▁created	-6064
▁deepest	-6065
▁degrees	-6066
▁divided	-6067
▁dragged	-6068
▁driving	-6069
▁eagerly	-6070
▁earthqu	-6071
▁enraged	-6072
▁erected	-6073
▁evangel	-6074
▁filling	-6075
▁forbade	-6076
▁forbear	-6077
▁foreign	-6078
▁gallows	-6079
▁glances	-6080
▁greatly	-6081
▁grounds	-6082
▁harbors	-6083
▁healthy	-6084
▁heaving	-6085
▁herring	-6086
▁highest	-6087
▁hoisted	-6088
▁immense	-6089
▁infidel	-6090
▁inhabit	-6091
▁invited	-6092
▁kicking	-6093
▁kitchen	-6094
▁laughed	-6095
▁leagues	-6096
▁letters	-6097
▁lifting	-6098
▁mission	-6099
▁mistake	-6100
▁mortals	-6101
▁oarsman	-6102
▁outside	-6103
▁painted	-6104
▁peering	-6105
▁persons	-6106
▁picking	-6107
▁planted	-6108
▁plunged	-6109
▁portion	-6110
▁problem	-6111
▁profess	-6112
▁promont	-6113
▁protect	-6114
▁prudent	-6115
▁resurre	-6116
▁retired	-6117
▁revelry	-6118
▁sallied	-6119
▁secured	-6120
▁shrouds	-6121
▁shuttle	-6122
▁sixteen	-6123
▁sounded	-6124
▁spilled	-6125
▁staring	-6126
▁stately	-6127
▁steered	-6128
▁stiffly	-6129
▁stopped	-6130
▁swiftly	-6131
▁tablets	-6132
▁talking	-6133
▁therein	-6134
▁thither	-6135
▁toiling	-6136
▁transom	-6137
▁tremend	-6138
▁tumbled	-6139
▁unalter	-6140
▁venture	-6141
▁vindict	-6142
▁vinegar	-6143
▁visited	-6144
▁weapons	-6145
▁wedding	-6146
▁wharves	-6147
▁whereby	-6148
▁witness	-6149
▁woollen	-6150
Duodecimo	-6151
cientious	-6152
▁Egyptian	-6153
▁Midnight	-6154
▁Oriental	-6155
▁Southern	-6156
▁Virginia	-6157
▁absolute	-6158
▁acquaint	-6159
▁agencies	-6160
▁ascended	-6161
▁ascribed	-6162
▁attempts	-6163
▁awakened	-6164
▁backward	-6165
▁boarders	-6166
▁bowsprit	-6167
▁carrying	-6168
▁ceremony	-6169
▁churches	-6170
▁contempl	-6171
▁contempt	-6172
▁counting	-6173
▁courtesy	-6174
▁covering	-6175
▁currents	-6176
▁delicacy	-6177
▁delirium	-6178
▁deserted	-6179
▁detached	-6180
▁distrust	-6181
▁eighteen	-6182
▁elephant	-6183
▁embalmed	-6184
▁entering	-6185
▁extracts	-6186
▁fabulous	-6187
▁feelings	-6188
▁fetching	-6189
▁finished	-6190
▁flinging	-6191
▁flitting	-6192
▁flourish	-6193
▁fugitive	-6194
▁gamesome	-6195
▁gathered	-6196
▁generous	-6197
▁grandeur	-6198
▁hearties	-6199
▁hovering	-6200
▁humorous	-6201
▁imminent	-6202
▁inferred	-6203
▁infinite	-6204
▁insisted	-6205
▁intently	-6206
▁intrepid	-6207
▁judgment	-6208
▁launched	-6209
▁likeness	-6210
▁magnetic	-6211
▁maintain	-6212
▁majestic	-6213
▁marchant	-6214
▁marching	-6215
▁maritime	-6216
▁memories	-6217
▁modified	-6218
▁mumbling	-6219
▁nostrils	-6220
▁numerous	-6221
▁official	-6222
▁painting	-6223
▁pointing	-6224
▁porpoise	-6225
▁portrait	-6226
▁preacher	-6227
▁produced	-6228
▁quarters	-6229
▁recently	-6230
▁scolding	-6231
▁sensible	-6232
▁shoulder	-6233
▁shrouded	-6234
▁silently	-6235
▁singular	-6236
▁smallest	-6237
▁sociable	-6238
▁solemnly	-6239
▁southern	-6240
▁steadily	-6241
▁stepping	-6242
▁stooping	-6243
▁striding	-6244
▁stripped	-6245
▁summoned	-6246
▁supplied	-6247
▁thorough	-6248
▁uplifted	-6249
▁villages	-6250
▁vitality	-6251
ographical	-6252
▁Americans	-6253
▁Antarctic	-6254
▁DUODECIMO	-6255
▁Egyptians	-6256
▁Frederick	-6257
▁Islanders	-6258
▁accounted	-6259
▁advancing	-6260
▁alongside	-6261
▁audacious	-6262
▁authentic	-6263
▁barricade	-6264
▁bedfellow	-6265
▁beholding	-6266
▁belonging	-6267
▁carefully	-6268
▁centuries	-6269
▁commotion	-6270
▁condition	-6271
▁continued	-6272
▁converted	-6273
▁correctly	-6274
▁direction	-6275
▁discovery	-6276
▁downwards	-6277
▁dumplings	-6278
▁elsewhere	-6279
▁establish	-6280
▁exclaimed	-6281
▁fashioned	-6282
▁forgotten	-6283
▁fortitude	-6284
▁innocence	-6285
▁irregular	-6286
▁monomania	-6287
▁mountains	-6288
▁necessity	-6289
▁obedience	-6290
▁perceived	-6291
▁permitted	-6292
▁possessed	-6293
▁principal	-6294
▁producing	-6295
▁published	-6296
▁punchbowl	-6297
▁sentiment	-6298
▁specially	-6299
▁stretched	-6300
▁surprised	-6301
▁surrender	-6302
▁suspected	-6303
▁sympathet	-6304
▁thrusting	-6305
▁uncertain	-6306
▁untutored	-6307
▁venerable	-6308
▁vibration	-6309
▁Belshazzar	-6310
▁aboriginal	-6311
▁acquainted	-6312
▁additional	-6313
▁bottomless	-6314
▁conclusion	-6315
▁confidence	-6316
▁containing	-6317
▁contracted	-6318
▁coronation	-6319
▁deliberate	-6320
▁descending	-6321
▁discovered	-6322
▁everywhere	-6323
▁experience	-6324
▁frightened	-6325
▁glittering	-6326
▁heathenish	-6327
▁hospitable	-6328
▁impression	-6329
▁increasing	-6330
▁indefinite	-6331
▁introduced	-6332
▁melancholy	-6333
▁projecting	-6334
▁recklessly	-6335
▁reputation	-6336
▁ridiculous	-6337
▁suspicions	-6338
▁transition	-6339
▁uncommonly	-6340
▁whatsoever	-6341
▁Deuteronomy	-6342
▁Specksnyder	-6343
▁adventurous	-6344
▁circumnavig	-6345
▁deliverance	-6346
▁denominated	-6347
▁exasperated	-6348
▁experiences	-6349
▁independent	-6350
▁intelligent	-6351
▁interesting	-6352
▁overbearing	-6353
▁probability	-6354
▁reflections	-6355
▁significant	-6356
▁steadfastly	-6357
▁treacherous	-6358
▁unalterable	-6359
▁unspeakable	-6360
▁withdrawing	-6361
▁apprehension	-6362
▁associations	-6363
▁comprehended	-6364
▁intellectual	-6365
▁mechanically	-6366
▁philosophers	-6367
▁professional	-6368
▁representing	-6369
▁comparatively	-6370
▁conscientious	-6371
▁consciousness	-6372
▁corresponding	-6373
▁superstitions	-6374
▁uncomfortable	-6375
▁classification	-6376
ND	-6377
yl	-6378
.’”	-6379
ACT	-6380
AGG	-6381
ATE	-6382
CRE	-6383
CTA	-6384
LIO	-6385
Lay	-6386
MOR	-6387
REN	-6388
_,”	-6389
abs	-6390
ann	-6391
aud	-6392
eel	-6393
esc	-6394
flu	-6395
ipe	-6396
iqu	-6397
oda	-6398
ohn	-6399
dy	-6400
—(	-6401
Tis	-6402
fee	-6403
hur	-6404
ids	-6405
olu	-6406
shr	-6407
urk	-6408
voy	-6409
▁Ed	-6410
▁Er	-6411
▁Es	-6412
▁Ev	-6413
▁Fe	-6414
▁Gl	-6415
▁Ho	-6416
▁Je	-6417
▁Lo	-6418
▁OL	-6419
▁TO	-6420
Ahab	-6421
Book	-6422
CRED	-6423
CTAV	-6424
Dost	-6425
EMOR	-6426
Gold	-6427
Ibid	-6428
Like	-6429
Mast	-6430
OLIO	-6431
Pull	-6432
RACT	-6433
Requ	-6434
Stop	-6435
Supp	-6436
They	-6437
Thom	-6438
Turn	-6439
abel	-6440
alog	-6441
biqu	-6442
cian	-6443
copi	-6444
cuse	-6445
eces	-6446
efit	-6447
erly	-6448
ests	-6449
eved	-6450
gall	-6451
half	-6452
hard	-6453
hies	-6454
hird	-6455
iard	-6456
ikin	-6457
iles	-6458
ilet	-6459
ilit	-6460
inds	-6461
kens	-6462
kins	-6463
lded	-6464
lies	-6465
liny	-6466
logy	-6467
lson	-6468
maul	-6469
mmed	-6470
mnip	-6471
mody	-6472
mosp	-6473
much	-6474
mund	-6475
olat	-6476
ongs	-6477
pans	-6478
part	-6479
paul	-6480
phan	-6481
pike	-6482
pipe	-6483
pled	-6484
plen	-6485
pull	-6486
racy	-6487
reed	-6488
rink	-6489
ropo	-6490
seus	-6491
stir	-6492
tect	-6493
thou	-6494
uary	-6495
ulch	-6496
uled	-6497
ulpt	-6498
upon	-6499
Whi	-6500
ait	-6501
app	-6502
bug	-6503
cif	-6504
erd	-6505
ere	-6506
gee	-6507
ili	-6508
put	-6509
sho	-6510
▁1.	-6511
Down	-6512
Will	-6513
aper	-6514
band	-6515
ders	-6516
eled	-6517
enst	-6518
geon	-6519
jack	-6520
ooks	-6521
orks	-6522
vert	-6523
voko	-6524
west	-6525
will	-6526
▁13.	-6527
▁Aff	-6528
▁Aha	-6529
▁Clo	-6530
▁Cru	-6531
▁Gam	-6532
▁Got	-6533
▁Its	-6534
▁Lab	-6535
▁Lat	-6536
▁Led	-6537
▁MAN	-6538
▁Mor	-6539
▁Nay	-6540
▁OLD	-6541
▁Out	-6542
▁PIP	-6543
▁Pir	-6544
▁Rev	-6545
▁Sag	-6546
▁Sol	-6547
▁Sum	-6548
▁ape	-6549
▁ark	-6550
▁bru	-6551
▁buy	-6552
▁die	-6553
▁enl	-6554
▁fru	-6555
▁gag	-6556
▁jew	-6557
▁loc	-6558
▁log	-6559
▁lun	-6560
▁maz	-6561
▁oun	-6562
▁rag	-6563
▁ras	-6564
▁sap	-6565
▁scr	-6566
▁slo	-6567
▁sob	-6568
▁sug	-6569
▁tot	-6570
▁tun	-6571
▁tur	-6572
▁tus	-6573
▁typ	-6574
▁wan	-6575
▁wol	-6576
AGGOO	-6577
Avast	-6578
Black	-6579
CTAVO	-6580
Lower	-6581
Never	-6582
Quick	-6583
RACTS	-6584
RENCH	-6585
Right	-6586
Spout	-6587
These	-6588
abash	-6589
alive	-6590
allen	-6591
alloa	-6592
ander	-6593
aport	-6594
apted	-6595
arbor	-6596
arter	-6597
asant	-6598
ashes	-6599
RO	-6600
SE	-6601
fy	-6602
”—	-6603
BLE	-6604
Did	-6605
hew	-6606
ilo	-6607
lel	-6608
ooz	-6609
rid	-6610
squ	-6611
thr	-6612
▁AL	-6613
▁Az	-6614
▁BY	-6615
▁Bi	-6616
▁Cl	-6617
▁Im	-6618
▁SP	-6619
▁VO	-6620
▁ic	-6621
bino	-6622
inea	-6623
lock	-6624
ndom	-6625
orge	-6626
pher	-6627
rims	-6628
rove	-6629
unct	-6630
▁ALL	-6631
▁Cle	-6632
▁Fee	-6633
▁Gra	-6634
▁Sch	-6635
▁Sur	-6636
▁Ten	-6637
▁avo	-6638
▁eve	-6639
▁gas	-6640
▁lic	-6641
▁mir	-6642
▁orn	-6643
▁sep	-6644
▁tip	-6645
allel	-6646
arers	-6647
aster	-6648
astic	-6649
aways	-6650
being	-6651
bolts	-6652
cloth	-6653
derer	-6654
eenth	-6655
ellow	-6656
elson	-6657
endom	-6658
ensus	-6659
entat	-6660
erate	-6661
etter	-6662
ggers	-6663
gnant	-6664
godly	-6665
gress	-6666
heric	-6667
horse	-6668
iform	-6669
indoo	-6670
inisc	-6671
intry	-6672
itors	-6673
jured	-6674
lance	-6675
litan	-6676
llard	-6677
loved	-6678
mbles	-6679
never	-6680
oneer	-6681
onial	-6682
onoun	-6683
onted	-6684
ontis	-6685
ooded	-6686
ormed	-6687
osted	-6688
phans	-6689
ports	-6690
rador	-6691
rayed	-6692
roken	-6693
rophe	-6694
ropic	-6695
rying	-6696
thest	-6697
tured	-6698
ufact	-6699
ada	-6700
ado	-6701
ams	-6702
box	-6703
lip	-6704
ois	-6705
sex	-6706
urd	-6707
John	-6708
ases	-6709
ccas	-6710
cell	-6711
dain	-6712
eral	-6713
good	-6714
hire	-6715
inet	-6716
onqu	-6717
stra	-6718
tery	-6719
verb	-6720
wide	-6721
▁Ann	-6722
▁Fol	-6723
▁Hum	-6724
▁Mat	-6725
▁Oft	-6726
▁bef	-6727
▁hip	-6728
▁jot	-6729
▁net	-6730
▁ply	-6731
▁tat	-6732
▁wis	-6733
▁—“_	-6734
apped	-6735
ulate	-6736
uling	-6737
urban	-6738
urday	-6739
urned	-6740
urred	-6741
utter	-6742
vable	-6743
veted	-6744
zberg	-6745
▁Adam	-6746
▁Aust	-6747
▁Auth	-6748
▁Bear	-6749
▁Call	-6750
▁Chow	-6751
▁Damn	-6752
▁Dons	-6753
▁Down	-6754
▁Emir	-6755
▁Fish	-6756
▁Give	-6757
▁Hard	-6758
▁Head	-6759
▁Hope	-6760
▁Inst	-6761
▁Jove	-6762
▁Just	-6763
▁Krus	-6764
▁Line	-6765
▁Lion	-6766
▁Loom	-6767
▁Mast	-6768
▁Much	-6769
▁Phil	-6770
▁Poly	-6771
▁Pots	-6772
▁Prai	-6773
▁Pull	-6774
▁Roko	-6775
▁Ross	-6776
▁Spit	-6777
▁THIS	-6778
▁Turk	-6779
▁Your	-6780
▁aged	-6781
▁aint	-6782
▁arts	-6783
▁bamb	-6784
▁bank	-6785
▁bapt	-6786
▁barn	-6787
▁belt	-6788
▁bend	-6789
▁boil	-6790
▁bowl	-6791
▁bust	-6792
▁cane	-6793
▁cask	-6794
▁cave	-6795
▁clen	-6796
▁coco	-6797
▁coff	-6798
▁cost	-6799
Al	-6800
As	-6801
Me	-6802
nat	-6803
nds	-6804
oar	-6805
ole	-6806
ste	-6807
wat	-6808
▁cu	-6809
Sing	-6810
Then	-6811
abol	-6812
eded	-6813
fing	-6814
hand	-6815
lege	-6816
lier	-6817
onst	-6818
orse	-6819
rell	-6820
unch	-6821
▁aug	-6822
▁cit	-6823
▁fed	-6824
▁ost	-6825
▁por	-6826
▁rat	-6827
▁sed	-6828
Aside	-6829
EMORY	-6830
inish	-6831
stead	-6832
▁Over	-6833
▁beck	-6834
▁cosy	-6835
▁cott	-6836
▁craw	-6837
▁cups	-6838
▁dash	-6839
▁deed	-6840
▁depl	-6841
▁desk	-6842
▁dict	-6843
▁dint	-6844
▁elap	-6845
▁evil	-6846
▁fanc	-6847
▁fate	-6848
▁flat	-6849
▁fled	-6850
▁foes	-6851
▁foul	-6852
▁frig	-6853
▁gate	-6854
▁girl	-6855
▁goat	-6856
▁greg	-6857
▁grou	-6858
▁gulf	-6859
▁gull	-6860
▁guns	-6861
▁hath	-6862
▁hues	-6863
▁inse	-6864
▁jeal	-6865
▁jing	-6866
▁lazy	-6867
▁lest	-6868
▁limb	-6869
▁loss	-6870
▁male	-6871
▁mead	-6872
▁meal	-6873
▁mend	-6874
▁migr	-6875
▁misg	-6876
▁mock	-6877
▁moth	-6878
▁mund	-6879
▁naut	-6880
▁omin	-6881
▁ours	-6882
▁pace	-6883
▁palp	-6884
▁pals	-6885
▁pays	-6886
▁penn	-6887
▁perv	-6888
▁pier	-6889
▁pike	-6890
▁pile	-6891
▁plag	-6892
▁plat	-6893
▁poet	-6894
▁pole	-6895
▁pond	-6896
▁pots	-6897
▁pour	-6898
▁pref	-6899
OB	-6900
SH	-6901
Se	-6902
ex	-6903
va	-6904
xy	-6905
yt	-6906
For	-6907
him	-6908
hum	-6909
mor	-6910
ode	-6911
rec	-6912
say	-6913
sto	-6914
yes	-6915
zes	-6916
▁du	-6917
▁ug	-6918
arto	-6919
isen	-6920
ixed	-6921
lins	-6922
omon	-6923
skin	-6924
ucks	-6925
urst	-6926
▁arg	-6927
▁bay	-6928
▁due	-6929
▁ham	-6930
▁jib	-6931
▁pin	-6932
atory	-6933
every	-6934
inese	-6935
inged	-6936
orean	-6937
pikes	-6938
ument	-6939
▁Talk	-6940
▁baby	-6941
▁clut	-6942
▁defy	-6943
▁goin	-6944
▁hiss	-6945
▁imag	-6946
▁psal	-6947
▁purp	-6948
▁quee	-6949
▁rail	-6950
▁rede	-6951
▁roar	-6952
▁root	-6953
▁rule	-6954
▁runs	-6955
▁saun	-6956
▁scar	-6957
▁sche	-6958
▁scud	-6959
▁shun	-6960
▁sigh	-6961
▁size	-6962
▁soil	-6963
▁sore	-6964
▁stal	-6965
▁stay	-6966
▁subs	-6967
▁subt	-6968
▁sunk	-6969
▁sway	-6970
▁tame	-6971
▁tide	-6972
▁tied	-6973
▁trif	-6974
▁twig	-6975
▁unde	-6976
▁unhe	-6977
▁unim	-6978
▁unob	-6979
▁unth	-6980
▁velo	-6981
▁vert	-6982
▁vict	-6983
▁vile	-6984
▁vult	-6985
▁wasn	-6986
▁week	-6987
▁weep	-6988
▁whet	-6989
▁wilt	-6990
▁woof	-6991
▁wrap	-6992
▁yard	-6993
▁yawn	-6994
Dinner	-6995
Holloa	-6996
TRACTS	-6997
Thomas	-6998
Though	-6999
Sc	-7000
sl	-7001
▁spar	-7002
altern	-7003
amount	-7004
apered	-7005
arking	-7006
bidden	-7007
binder	-7008
cement	-7009
copius	-7010
crimin	-7011
ension	-7012
ership	-7013
erving	-7014
ffable	-7015
harmed	-7016
hastly	-7017
hedral	-7018
hieved	-7019
houses	-7020
hunter	-7021
ibbald	-7022
ictory	-7023
idable	-7024
idious	-7025
ieties	-7026
inople	-7027
isbury	-7028
jacket	-7029
leader	-7030
mighty	-7031
orable	-7032
pation	-7033
perate	-7034
ppling	-7035
quered	-7036
rasher	-7037
rences	-7038
ricted	-7039
rising	-7040
rupted	-7041
shaped	-7042
spring	-7043
terest	-7044
ulphur	-7045
ulties	-7046
urance	-7047
volent	-7048
▁Baron	-7049
▁Being	-7050
▁Blood	-7051
▁Break	-7052
▁Broad	-7053
▁Burke	-7054
▁Chase	-7055
▁Chili	-7056
▁China	-7057
▁Devil	-7058
▁Dives	-7059
▁Eight	-7060
▁Essex	-7061
▁FOLIO	-7062
▁Fates	-7063
▁Goney	-7064
▁India	-7065
▁Kings	-7066
▁Merry	-7067
▁Other	-7068
▁Parli	-7069
▁Pliny	-7070
▁Round	-7071
▁Senor	-7072
▁Siber	-7073
▁Slave	-7074
▁Spain	-7075
▁Steed	-7076
▁Story	-7077
▁These	-7078
▁Three	-7079
▁Tower	-7080
▁Trans	-7081
▁Watch	-7082
▁Which	-7083
▁Would	-7084
▁abhor	-7085
▁adieu	-7086
▁admit	-7087
▁admon	-7088
▁alarm	-7089
▁alien	-7090
▁alleg	-7091
▁allow	-7092
▁ambit	-7093
▁analy	-7094
▁avoid	-7095
▁barbs	-7096
▁based	-7097
▁basis	-7098
▁beaut	-7099
▁bells	-7100
▁birds	-7101
▁bland	-7102
▁blown	-7103
▁bluff	-7104
▁bolts	-7105
▁bosom	-7106
▁bount	-7107
▁breed	-7108
▁broom	-7109
▁burnt	-7110
▁chaos	-7111
▁chips	-7112
▁chron	-7113
▁climb	-7114
▁clock	-7115
▁coils	-7116
▁compl	-7117
▁cryst	-7118
▁dandy	-7119
▁dared	-7120
▁dilig	-7121
▁dined	-7122
▁disin	-7123
▁displ	-7124
▁diver	-7125
▁domin	-7126
▁doors	-7127
▁dress	-7128
▁enhan	-7129
▁estim	-7130
▁fault	-7131
▁flash	-7132
▁fleet	-7133
▁flesh	-7134
▁frame	-7135
▁funny	-7136
▁gales	-7137
▁grego	-7138
▁grief	-7139
▁guise	-7140
▁halls	-7141
▁hangs	-7142
▁hatch	-7143
▁hills	-7144
▁holds	-7145
▁hopes	-7146
▁hulls	-7147
▁hunks	-7148
▁ideal	-7149
▁ideas	-7150
▁impat	-7151
▁insul	-7152
▁kinds	-7153
▁knots	-7154
▁leads	-7155
▁leaky	-7156
▁limit	-7157
▁lodge	-7158
▁lords	-7159
▁merit	-7160
▁model	-7161
▁mould	-7162
▁music	-7163
▁ninet	-7164
▁noted	-7165
▁omnip	-7166
▁ought	-7167
▁ounce	-7168
▁overr	-7169
▁pages	-7170
▁panic	-7171
▁parce	-7172
▁patch	-7173
▁penet	-7174
▁penny	-7175
▁persu	-7176
▁plane	-7177
▁polit	-7178
▁porpo	-7179
▁pound	-7180
▁pride	-7181
▁privi	-7182
▁recol	-7183
▁reply	-7184
▁roses	-7185
▁rules	-7186
▁saith	-7187
▁saved	-7188
▁scale	-7189
▁scept	-7190
▁score	-7191
▁shell	-7192
▁shirr	-7193
▁shone	-7194
▁silly	-7195
▁skies	-7196
▁slept	-7197
▁sloop	-7198
▁smell	-7199
▁smile	-7200
▁snuff	-7201
▁spark	-7202
▁speed	-7203
▁spoil	-7204
▁stare	-7205
▁stars	-7206
▁steer	-7207
▁sting	-7208
▁stool	-7209
▁stump	-7210
▁tales	-7211
▁thumb	-7212
▁thund	-7213
▁tones	-7214
▁tower	-7215
▁track	-7216
▁trapp	-7217
▁trick	-7218
▁twain	-7219
▁ubiqu	-7220
▁uncle	-7221
▁unple	-7222
▁usual	-7223
▁veins	-7224
▁wages	-7225
▁wants	-7226
▁wears	-7227
▁whiff	-7228
▁whist	-7229
▁wings	-7230
▁woman	-7231
▁wound	-7232
▁wreck	-7233
▁wrote	-7234
Grampus	-7235
Thunder	-7236
animous	-7237
cessary	-7238
changel	-7239
command	-7240
enstern	-7241
fishery	-7242
flowing	-7243
gallant	-7244
grounds	-7245
hausted	-7246
however	-7247
hunters	-7248
ificial	-7249
ination	-7250
ization	-7251
judices	-7252
ndering	-7253
neither	-7254
pective	-7255
penters	-7256
poplexy	-7257
quented	-7258
reeable	-7259
scuttle	-7260
stition	-7261
tending	-7262
uddenly	-7263
uggling	-7264
ugnance	-7265
ulation	-7266
umption	-7267
ustomed	-7268
veloped	-7269
zbergen	-7270
▁Albino	-7271
▁Arctic	-7272
▁August	-7273
▁Azores	-7274
▁Bottom	-7275
▁Coming	-7276
▁DAGGOO	-7277
▁During	-7278
▁FRENCH	-7279
▁Gothic	-7280
▁Ground	-7281
▁Guinea	-7282
▁Harbor	-7283
▁Harris	-7284
▁Hindoo	-7285
▁Hurrah	-7286
▁Killer	-7287
▁Letter	-7288
▁Lionel	-7289
▁MEMORY	-7290
▁Martha	-7291
▁Nelson	-7292
▁OCTAVO	-7293
▁Platon	-7294
▁Romish	-7295
▁SACRED	-7296
▁Scotch	-7297
▁Sperma	-7298
▁Spring	-7299
▁System	-7300
▁Tartar	-7301
▁United	-7302
▁Whence	-7303
▁abomin	-7304
▁absurd	-7305
▁admire	-7306
▁affect	-7307
▁aggreg	-7308
▁aghast	-7309
▁agreed	-7310
▁angels	-7311
▁annual	-7312
▁antiqu	-7313
▁arched	-7314
▁argued	-7315
▁artist	-7316
▁ascend	-7317
▁atmosp	-7318
▁awhile	-7319
▁barren	-7320
▁beauty	-7321
▁beaver	-7322
▁billow	-7323
▁blocks	-7324
▁cannon	-7325
▁canoes	-7326
▁carpet	-7327
▁castor	-7328
▁catast	-7329
▁census	-7330
▁chased	-7331
▁choice	-7332
▁cities	-7333
▁climes	-7334
▁clinch	-7335
▁coasts	-7336
▁comfor	-7337
▁condem	-7338
▁contri	-7339
▁couple	-7340
▁craven	-7341
▁credit	-7342
▁crowds	-7343
▁darker	-7344
▁democr	-7345
▁denied	-7346
▁depths	-7347
▁desert	-7348
▁diabol	-7349
▁digest	-7350
▁eddies	-7351
▁enable	-7352
▁energy	-7353
▁ensued	-7354
▁enters	-7355
▁errand	-7356
▁execut	-7357
▁exists	-7358
▁facing	-7359
▁fields	-7360
▁finest	-7361
▁fishes	-7362
▁fitted	-7363
▁flames	-7364
▁flanks	-7365
▁folded	-7366
▁forces	-7367
▁forked	-7368
▁genial	-7369
▁gladly	-7370
▁grazed	-7371
▁guests	-7372
▁hauled	-7373
▁haunts	-7374
▁hearse	-7375
▁hearth	-7376
▁hooded	-7377
▁hooked	-7378
▁humbug	-7379
▁hunter	-7380
▁impart	-7381
▁impuls	-7382
▁incess	-7383
▁inquir	-7384
▁insane	-7385
▁jumped	-7386
▁latent	-7387
▁latest	-7388
▁legend	-7389
▁limber	-7390
▁linked	-7391
▁loaded	-7392
▁locker	-7393
▁lodged	-7394
▁logger	-7395
▁mizzen	-7396
▁motive	-7397
▁mounts	-7398
▁mouths	-7399
▁mutiny	-7400
▁nailed	-7401
▁outset	-7402
▁pacing	-7403
▁packed	-7404
▁packet	-7405
▁pallid	-7406
▁pantry	-7407
▁pardon	-7408
▁parlor	-7409
▁paying	-7410
▁pieces	-7411
▁poison	-7412
▁powers	-7413
▁prayer	-7414
▁premat	-7415
▁primal	-7416
▁prince	-7417
▁prison	-7418
▁purely	-7419
▁queens	-7420
▁raises	-7421
▁random	-7422
▁redden	-7423
▁refill	-7424
▁refuge	-7425
▁region	-7426
▁relief	-7427
▁repast	-7428
▁replen	-7429
▁report	-7430
▁retain	-7431
▁rigger	-7432
▁rivers	-7433
▁rocked	-7434
▁rounds	-7435
▁safely	-7436
▁salted	-7437
▁scales	-7438
▁scenes	-7439
▁sculpt	-7440
▁season	-7441
▁secure	-7442
▁select	-7443
▁series	-7444
▁shabby	-7445
▁shades	-7446
▁shovel	-7447
▁signed	-7448
▁simult	-7449
▁sinful	-7450
▁sleepy	-7451
▁smoked	-7452
▁smooth	-7453
▁snugly	-7454
▁speech	-7455
▁stayed	-7456
▁strain	-7457
▁strait	-7458
▁straps	-7459
▁sultan	-7460
▁superl	-7461
▁supply	-7462
▁swerve	-7463
▁theory	-7464
▁timber	-7465
▁toilet	-7466
▁tokens	-7467
▁tragic	-7468
▁tropic	-7469
▁tucked	-7470
▁united	-7471
▁unrest	-7472
▁unwarr	-7473
▁viciss	-7474
▁villan	-7475
▁visits	-7476
▁voices	-7477
▁washed	-7478
▁wasted	-7479
▁waving	-7480
▁wedded	-7481
▁welded	-7482
▁widely	-7483
▁widows	-7484
▁wintry	-7485
▁worlds	-7486
,000,000	-7487
Starbuck	-7488
Supplied	-7489
byterian	-7490
isheries	-7491
ordinary	-7492
pensable	-7493
position	-7494
secution	-7495
stricken	-7496
▁Another	-7497
▁Buffalo	-7498
▁Certain	-7499
▁Charley	-7500
▁Chinese	-7501
▁Chowder	-7502
▁Colnett	-7503
▁Diction	-7504
▁Emperor	-7505
▁Evangel	-7506
▁Persian	-7507
▁Pollard	-7508
▁Polynes	-7509
▁Quakers	-7510
▁SPANISH	-7511
▁Thunder	-7512
▁Webster	-7513
▁Yankees	-7514
▁abandon	-7515
▁absence	-7516
▁accompl	-7517
▁adapted	-7518
▁alluded	-7519
▁anatomy	-7520
▁antique	-7521
▁arrival	-7522
▁article	-7523
▁athirst	-7524
▁attacks	-7525
▁authors	-7526
▁avenues	-7527
▁backing	-7528
▁barrels	-7529
▁belongs	-7530
▁benefit	-7531
▁bethink	-7532
▁blasted	-7533
▁blazing	-7534
▁blunder	-7535
▁bracing	-7536
▁branded	-7537
▁breadth	-7538
▁breezes	-7539
▁broiled	-7540
▁buffalo	-7541
▁burning	-7542
▁capable	-7543
▁central	-7544
▁chances	-7545
▁charger	-7546
▁cleared	-7547
▁clothed	-7548
▁consist	-7549
▁conspic	-7550
▁constit	-7551
▁contour	-7552
▁conveni	-7553
▁conveys	-7554
▁corners	-7555
▁cottage	-7556
▁coupled	-7557
▁courses	-7558
▁crushed	-7559
▁cunning	-7560
▁decided	-7561
▁desired	-7562
▁desires	-7563
▁details	-7564
▁dolphin	-7565
▁earlier	-7566
▁elusive	-7567
▁emerged	-7568
▁emotion	-7569
▁enchant	-7570
▁fasting	-7571
▁fathers	-7572
▁feather	-7573
▁fullest	-7574
▁furious	-7575
▁furnish	-7576
▁gangway	-7577
▁ghastly	-7578
▁goblets	-7579
▁greater	-7580
▁growing	-7581
▁hailing	-7582
▁handled	-7583
▁happily	-7584
▁haunted	-7585
▁highway	-7586
▁holiest	-7587
▁humming	-7588
▁hunting	-7589
▁include	-7590
▁insular	-7591
▁invests	-7592
▁jackets	-7593
▁jealous	-7594
▁jeopard	-7595
▁jerking	-7596
▁knowest	-7597
▁lashing	-7598
▁leather	-7599
▁loading	-7600
▁marshal	-7601
▁meanest	-7602
▁mending	-7603
▁metropo	-7604
▁motives	-7605
▁mundane	-7606
▁oarsmen	-7607
▁obeying	-7608
▁obliged	-7609
▁ominous	-7610
▁ordered	-7611
▁orphans	-7612
▁outline	-7613
▁outrage	-7614
▁potency	-7615
▁prayers	-7616
▁praying	-7617
▁pressed	-7618
▁prevail	-7619
▁prevent	-7620
▁produce	-7621
▁profits	-7622
▁pronoun	-7623
▁proverb	-7624
▁puzzled	-7625
▁ranging	-7626
▁rearing	-7627
▁reeling	-7628
▁reigned	-7629
▁related	-7630
▁remembr	-7631
▁resides	-7632
▁reverie	-7633
▁riggers	-7634
▁riveted	-7635
▁satisfy	-7636
▁screwed	-7637
▁seaport	-7638
▁secrets	-7639
▁seizing	-7640
▁sepulch	-7641
▁serpent	-7642
▁sheeted	-7643
▁shipwre	-7644
▁shortly	-7645
▁showing	-7646
▁shrieks	-7647
▁signing	-7648
▁sinners	-7649
▁sleeves	-7650
▁slipped	-7651
▁slipper	-7652
▁society	-7653
▁spirits	-7654
▁squalls	-7655
▁stained	-7656
▁stamped	-7657
▁steamer	-7658
▁stepped	-7659
▁storied	-7660
▁stuffed	-7661
▁sucking	-7662
▁suggest	-7663
▁supreme	-7664
▁tanning	-7665
▁tarpaul	-7666
▁teaches	-7667
▁tending	-7668
▁thyself	-7669
▁tidings	-7670
▁tightly	-7671
▁tossing	-7672
▁treated	-7673
▁tropics	-7674
▁trumpet	-7675
▁unconqu	-7676
▁ungodly	-7677
▁uniform	-7678
▁uttered	-7679
▁varying	-7680
▁version	-7681
▁walking	-7682
▁warrior	-7683
▁whirled	-7684
▁windows	-7685
▁wounded	-7686
▁wrought	-7687
Goldsmith	-7688
Nantucket	-7689
Reclining	-7690
Shipmates	-7691
criptions	-7692
iscovered	-7693
ufactured	-7694
▁Captains	-7695
▁Constant	-7696
▁Emperors	-7697
▁Japanese	-7698
▁Judgment	-7699
▁Labrador	-7700
▁National	-7701
▁Rokovoko	-7702
▁Saturday	-7703
▁Secondly	-7704
▁Spaniard	-7705
▁abundant	-7706
▁accosted	-7707
▁accursed	-7708
▁actively	-7709
▁advanced	-7710
▁advances	-7711
▁affected	-7712
▁allusion	-7713
▁ambition	-7714
▁appalled	-7715
▁apparent	-7716
▁assigned	-7717
▁attached	-7718
▁attacked	-7719
▁bandaged	-7720
▁bestowed	-7721
▁betrayed	-7722
▁bleached	-7723
▁borrowed	-7724
▁breakers	-7725
▁brimming	-7726
▁bursting	-7727
▁calabash	-7728
▁careless	-7729
▁cetology	-7730
▁chaplain	-7731
▁chowders	-7732
▁circular	-7733
▁clothing	-7734
▁commerce	-7735
▁commonly	-7736
▁compared	-7737
▁complied	-7738
▁conceits	-7739
▁concentr	-7740
▁confined	-7741
▁constant	-7742
▁creaking	-7743
▁crowning	-7744
▁daylight	-7745
▁deformed	-7746
▁depicted	-7747
▁desolate	-7748
▁devilish	-7749
▁discover	-7750
▁dividing	-7751
▁dominion	-7752
▁downward	-7753
▁drawings	-7754
▁dreaming	-7755
▁dropping	-7756
▁eastward	-7757
▁elements	-7758
▁embarked	-7759
▁entrance	-7760
▁examples	-7761
▁expanded	-7762
▁extended	-7763
▁external	-7764
▁ferocity	-7765
▁fiercely	-7766
▁fighting	-7767
▁fireside	-7768
▁foremost	-7769
▁fortunes	-7770
▁fountain	-7771
▁friendly	-7772
▁fumbling	-7773
▁furthest	-7774
▁goodness	-7775
▁headsman	-7776
▁headsmen	-7777
▁homeward	-7778
▁hospital	-7779
▁housings	-7780
▁humanity	-7781
▁hundreds	-7782
▁hurrying	-7783
▁idolator	-7784
▁imposing	-7785
▁incorpor	-7786
▁indolent	-7787
▁informed	-7788
▁intended	-7789
▁interven	-7790
▁intimate	-7791
▁kneeling	-7792
▁landsman	-7793
▁levelled	-7794
▁lingered	-7795
▁maddened	-7796
▁meantime	-7797
▁mischief	-7798
▁movement	-7799
▁murderer	-7800
▁murmured	-7801
▁mutineer	-7802
▁muttered	-7803
▁mutually	-7804
▁narrated	-7805
▁narwhale	-7806
▁nautical	-7807
▁nurtured	-7808
▁obtained	-7809
▁occupied	-7810
▁offering	-7811
▁ornament	-7812
▁overlook	-7813
▁peaceful	-7814
▁perished	-7815
▁physical	-7816
▁plunging	-7817
▁pondered	-7818
▁pregnant	-7819
▁priority	-7820
▁property	-7821
▁proposed	-7822
▁propriet	-7823
▁psalmody	-7824
▁purplish	-7825
▁pursuers	-7826
▁queerest	-7827
▁referred	-7828
▁reliable	-7829
▁reminisc	-7830
▁reported	-7831
▁reserved	-7832
▁respects	-7833
▁restless	-7834
▁retiring	-7835
▁reveries	-7836
▁selected	-7837
▁serenity	-7838
▁shouting	-7839
▁slouched	-7840
▁snugness	-7841
▁sounding	-7842
▁spending	-7843
▁sporting	-7844
▁sticking	-7845
▁strictly	-7846
▁stronger	-7847
▁subjects	-7848
▁sunlight	-7849
▁superflu	-7850
▁survived	-7851
▁suspects	-7852
▁transfer	-7853
▁twitched	-7854
▁unerring	-7855
▁unfathom	-7856
▁unharmed	-7857
▁unimagin	-7858
▁unreason	-7859
▁unwonted	-7860
▁unworthy	-7861
▁velocity	-7862
▁vigorous	-7863
▁violence	-7864
▁warriors	-7865
▁watching	-7866
▁westward	-7867
▁wherever	-7868
▁wildness	-7869
▁withdraw	-7870
▁withdrew	-7871
▁wrenched	-7872
▁wrinkles	-7873
▁Albatross	-7874
▁Gutenberg	-7875
▁Instantly	-7876
▁Procopius	-7877
▁Propontis	-7878
▁Something	-7879
▁Wherefore	-7880
▁abounding	-7881
▁adventure	-7882
▁ambitious	-7883
▁apartment	-7884
▁appalling	-7885
▁appetites	-7886
▁archangel	-7887
▁architect	-7888
▁ascending	-7889
▁assembled	-7890
▁attention	-7891
▁attitudes	-7892
▁beautiful	-7893
▁carpenter	-7894
▁cheerless	-7895
▁cherished	-7896
▁collected	-7897
▁completed	-7898
▁connexion	-7899
▁continent	-7900
▁corporeal	-7901
▁democracy	-7902
▁dexterous	-7903
▁dismasted	-7904
▁dismember	-7905
▁districts	-7906
▁eagerness	-7907
▁entertain	-7908
▁essential	-7909
▁eternally	-7910
▁exceeding	-7911
▁extracted	-7912
▁favourite	-7913
▁furiously	-7914
▁gathering	-7915
▁glistened	-7916
▁gradually	-7917
▁happening	-7918
▁housekeep	-7919
▁hundredth	-7920
▁identical	-7921
▁immediate	-7922
▁increased	-7923
▁ineffable	-7924
▁intensity	-7925
▁knowingly	-7926
▁lingering	-7927
▁literally	-7928
▁malignity	-7929
▁meridians	-7930
▁momentous	-7931
▁mysteries	-7932
▁necessary	-7933
▁noiseless	-7934
▁nominally	-7935
▁northward	-7936
▁obliquely	-7937
▁occasions	-7938
▁permanent	-7939
▁porpoises	-7940
▁primitive	-7941
▁principle	-7942
▁proceeded	-7943
▁prospects	-7944
▁qualities	-7945
▁regarding	-7946
▁religions	-7947
▁remaining	-7948
▁resulting	-7949
▁returning	-7950
▁reverence	-7951
▁salvation	-7952
▁scorching	-7953
▁seemingly	-7954
▁shrieking	-7955
▁steersman	-7956
▁subaltern	-7957
▁succeeded	-7958
▁suspicion	-7959
▁swiftness	-7960
▁travelled	-7961
▁trembling	-7962
▁undressed	-7963
▁universal	-7964
▁unnatural	-7965
▁whittling	-7966
▁wondering	-7967
▁Dictionary	-7968
▁Forecastle	-7969
▁Harpooneer	-7970
▁Parliament	-7971
▁Patagonian	-7972
▁Spermaceti	-7973
▁accustomed	-7974
▁announcing	-7975
▁artificial	-7976
▁benevolent	-7977
▁bethinking	-7978
▁boisterous	-7979
▁charitable	-7980
▁confounded	-7981
▁designated	-7982
▁disastrous	-7983
▁distinctly	-7984
▁distracted	-7985
▁dreadfully	-7986
▁earthquake	-7987
▁endeavored	-7988
▁expression	-7989
▁foundering	-7990
▁frequented	-7991
▁gregarious	-7992
▁heightened	-7993
▁hopelessly	-7994
▁infallible	-7995
▁inordinate	-7996
▁invariably	-7997
▁loggerhead	-7998
▁longitudes	-7999
▁maintained	-8000
▁manifested	-8001
▁meditation	-8002
▁morbidness	-8003
▁oftentimes	-8004
▁passionate	-8005
▁peculiarly	-8006
▁periodical	-8007
▁pertaining	-8008
▁philosophy	-8009
▁possessing	-8010
▁prejudices	-8011
▁promontory	-8012
▁punishment	-8013
▁purporting	-8014
▁recognised	-8015
▁remembered	-8016
▁repentance	-8017
▁repugnance	-8018
▁restricted	-8019
▁ringleader	-8020
▁sauntering	-8021
▁separately	-8022
▁splintered	-8023
▁statements	-8024
▁stepmother	-8025
▁traditions	-8026
▁tremendous	-8027
▁tumultuous	-8028
▁usurpation	-8029
▁whaleboats	-8030
▁Christendom	-8031
▁Considering	-8032
▁Evangelists	-8033
▁Krusenstern	-8034
▁Spitzbergen	-8035
▁accompanied	-8036
▁accordingly	-8037
▁appearances	-8038
▁authorities	-8039
▁catastrophe	-8040
▁determinate	-8041
▁distinction	-8042
▁distinguish	-8043
▁exclamation	-8044
▁fearfulness	-8045
▁forbearance	-8046
▁generations	-8047
▁imagination	-8048
▁leviathanic	-8049
▁picturesque	-8050
▁possibility	-8051
▁processions	-8052
▁profoundest	-8053
▁prosecution	-8054
▁recognition	-8055
▁replenished	-8056
▁respectable	-8057
▁straightway	-8058
▁subordinate	-8059
▁temporarily	-8060
▁threatening	-8061
▁unnecessary	-8062
▁worshipping	-8063
▁Presbyterian	-8064
▁contemptible	-8065
▁distinctions	-8066
▁encountering	-8067
▁insufferable	-8068
▁intelligence	-8069
▁metropolitan	-8070
▁occasionally	-8071
▁performances	-8072
▁periodically	-8073
▁resurrection	-8074
▁significance	-8075
▁superstition	-8076
▁vicissitudes	-8077
▁extraordinary	-8078
▁indispensable	-8079
▁instinctively	-8080
▁significantly	-8081
▁unconquerable	-8082
▁unconsciously	-8083
▁Congregational	-8084
▁Constantinople	-8085
▁considerations	-8086
▁simultaneously	-8087
▁perpendicularly	-8088
...	-8089
AND	-8090
IAN	-8091
ICE	-8092
ICK	-8093
MOL	-8094
ONG	-8095
ROM	-8096
TAN	-8097
UAR	-8098
▁3.	-8099
▁8.	-8100
▁Us	-8101
Damn	-8102
Libr	-8103
MOLO	-8104
QUAR	-8105
SHTE	-8106
TESE	-8107
chas	-8108
chee	-8109
chet	-8110
cifi	-8111
clos	-8112
cret	-8113
crow	-8114
eeva	-8115
eyed	-8116
glar	-8117
hecy	-8118
iece	-8119
ihil	-8120
laws	-8121
lays	-8122
mpen	-8123
nels	-8124
onda	-8125
onze	-8126
regn	-8127
ucid	-8128
uicy	-8129
umsy	-8130
velv	-8131
whel	-8132
▁11.	-8133
▁180	-8134
▁20.	-8135
▁21.	-8136
▁22.	-8137
▁23.	-8138
▁28.	-8139
▁30.	-8140
▁32.	-8141
▁38.	-8142
▁Adm	-8143
▁Emp	-8144
▁Err	-8145
▁HAR	-8146
▁HIS	-8147
▁MAL	-8148
▁MOB	-8149
▁Reg	-8150
▁SIC	-8151
▁Unt	-8152
▁dip	-8153
▁icy	-8154
▁umb	-8155
Huzza	-8156
MOLOG	-8157
Maker	-8158
Requi	-8159
SHTEG	-8160
WHALE	-8161
While	-8162
Young	-8163
acier	-8164
acklu	-8165
adays	-8166
adoes	-8167
aited	-8168
anuts	-8169
apole	-8170
armor	-8171
asphe	-8172
boots	-8173
break	-8174
cipro	-8175
craft	-8176
enior	-8177
eorge	-8178
ethod	-8179
ettes	-8180
faced	-8181
fares	-8182
flies	-8183
gades	-8184
grate	-8185
grown	-8186
ields	-8187
iloqu	-8188
junct	-8189
locks	-8190
mmars	-8191
orrah	-8192
otton	-8193
pelag	-8194
piece	-8195
poses	-8196
regon	-8197
rises	-8198
robor	-8199
NGL	-8200
ORE	-8201
▁**	-8202
Cont	-8203
hosp	-8204
nigh	-8205
suer	-8206
▁***	-8207
▁31.	-8208
▁job	-8209
▁mob	-8210
bowed	-8211
celer	-8212
ckery	-8213
glass	-8214
icler	-8215
ontin	-8216
quiet	-8217
ropes	-8218
royal	-8219
salms	-8220
shoes	-8221
spout	-8222
suing	-8223
tieth	-8224
ulged	-8225
ultiv	-8226
unset	-8227
utral	-8228
werve	-8229
▁Alex	-8230
▁Alps	-8231
▁Asia	-8232
▁Benj	-8233
▁Cana	-8234
▁Ceti	-8235
▁Deck	-8236
▁Desm	-8237
▁Doub	-8238
▁Dusk	-8239
▁ENGL	-8240
▁LONG	-8241
▁MATE	-8242
▁MOBY	-8243
▁Manx	-8244
▁Noah	-8245
▁Obed	-8246
▁Pipe	-8247
▁Poor	-8248
▁Prov	-8249
▁Rece	-8250
▁Sabb	-8251
▁Shar	-8252
▁Shet	-8253
▁Tech	-8254
▁Tham	-8255
▁Toma	-8256
▁apex	-8257
▁axis	-8258
▁bony	-8259
▁bund	-8260
▁buoy	-8261
▁chos	-8262
▁cosm	-8263
▁dazz	-8264
▁deny	-8265
▁drun	-8266
▁duly	-8267
▁eats	-8268
▁flog	-8269
▁gift	-8270
▁groo	-8271
▁gulp	-8272
▁gurg	-8273
▁gush	-8274
▁hobb	-8275
▁hogs	-8276
▁hymn	-8277
▁hypo	-8278
▁inev	-8279
▁knob	-8280
▁laws	-8281
▁libr	-8282
▁lugg	-8283
▁maim	-8284
▁mole	-8285
▁mute	-8286
▁omit	-8287
▁palm	-8288
▁plug	-8289
▁push	-8290
▁ruin	-8291
▁slip	-8292
▁stup	-8293
▁trod	-8294
▁tubs	-8295
▁tyro	-8296
▁velv	-8297
▁verb	-8298
▁verd	-8299
Narr	-8300
adru	-8301
bler	-8302
bold	-8303
▁Six	-8304
▁irr	-8305
monly	-8306
month	-8307
storm	-8308
▁QUAR	-8309
▁bash	-8310
▁bolt	-8311
▁grie	-8312
▁hats	-8313
▁lays	-8314
▁musc	-8315
▁paws	-8316
▁puts	-8317
▁sane	-8318
Contra	-8319
Halloa	-8320
Isolat	-8321
MOLOGY	-8322
SHTEGO	-8323
Spring	-8324
aggage	-8325
aggish	-8326
aloons	-8327
athoms	-8328
atives	-8329
bodied	-8330
browed	-8331
bstone	-8332
cutive	-8333
enesis	-8334
ercial	-8335
eridge	-8336
errors	-8337
fectly	-8338
ferent	-8339
ficial	-8340
finger	-8341
forced	-8342
gainst	-8343
genial	-8344
gerine	-8345
gments	-8346
heaven	-8347
hinted	-8348
hropic	-8349
icient	-8350
ifully	-8351
lyards	-8352
makers	-8353
ologne	-8354
omenon	-8355
ookest	-8356
oology	-8357
orrupt	-8358
oubted	-8359
owards	-8360
plumed	-8361
prints	-8362
rested	-8363
ricane	-8364
ridged	-8365
rimsha	-8366
ructed	-8367
script	-8368
seeing	-8369
smiths	-8370
spaper	-8371
steaks	-8372
suerus	-8373
teenth	-8374
twenty	-8375
ulpits	-8376
usages	-8377
whales	-8378
winter	-8379
▁1828.	-8380
▁Above	-8381
▁Admir	-8382
▁Alone	-8383
▁Babel	-8384
▁Beach	-8385
▁Blank	-8386
▁Coast	-8387
▁Congo	-8388
▁Deity	-8389
▁Domin	-8390
▁Enter	-8391
▁Faith	-8392
▁Judge	-8393
▁Latin	-8394
▁Monst	-8395
▁Ridge	-8396
▁SICIL	-8397
▁Scand	-8398
▁TABLE	-8399
gaz	-8400
circ	-8401
lets	-8402
osom	-8403
ungo	-8404
attle	-8405
inald	-8406
iping	-8407
issed	-8408
losed	-8409
ocean	-8410
ulent	-8411
usked	-8412
▁Mond	-8413
▁Prod	-8414
▁Rock	-8415
▁adjo	-8416
▁bits	-8417
▁repl	-8418
▁ruff	-8419
▁saws	-8420
▁surm	-8421
action	-8422
biting	-8423
dition	-8424
itudin	-8425
nowled	-8426
ounter	-8427
ulates	-8428
urious	-8429
▁Bosom	-8430
▁Mungo	-8431
▁Swain	-8432
▁Twice	-8433
▁VOICE	-8434
▁Venet	-8435
▁Water	-8436
▁acres	-8437
▁acted	-8438
▁activ	-8439
▁altar	-8440
▁ambig	-8441
▁amput	-8442
▁angel	-8443
▁appal	-8444
▁argue	-8445
▁array	-8446
▁await	-8447
▁badge	-8448
▁beech	-8449
▁bison	-8450
▁bored	-8451
▁brigs	-8452
▁brisk	-8453
▁burns	-8454
▁butts	-8455
▁cares	-8456
▁casts	-8457
▁catar	-8458
▁chamb	-8459
▁chuck	-8460
▁clams	-8461
▁cliff	-8462
▁clung	-8463
▁coins	-8464
▁crabs	-8465
▁creep	-8466
▁cruel	-8467
▁curds	-8468
▁demig	-8469
▁depic	-8470
▁docks	-8471
▁durst	-8472
▁dying	-8473
▁ebook	-8474
▁embod	-8475
▁enemy	-8476
▁error	-8477
▁exert	-8478
▁exhib	-8479
▁feeds	-8480
▁fifth	-8481
▁folds	-8482
▁fools	-8483
▁girth	-8484
▁godly	-8485
▁graze	-8486
▁growl	-8487
▁hails	-8488
▁hairs	-8489
▁happy	-8490
▁heeds	-8491
▁helms	-8492
▁hunch	-8493
▁illim	-8494
▁incon	-8495
▁juicy	-8496
▁leaps	-8497
▁ledge	-8498
▁legal	-8499
Raz	-8500
▁VI	-8501
Have	-8502
Hump	-8503
boys	-8504
havi	-8505
nial	-8506
tale	-8507
umph	-8508
vels	-8509
view	-8510
Razor	-8511
armed	-8512
encer	-8513
ooped	-8514
orrid	-8515
▁June	-8516
▁Pove	-8517
▁Vers	-8518
▁erud	-8519
▁eyed	-8520
▁eyel	-8521
▁inns	-8522
▁pave	-8523
▁rump	-8524
▁sets	-8525
antial	-8526
geness	-8527
hopper	-8528
manned	-8529
vances	-8530
▁Affid	-8531
▁Alleg	-8532
▁Usher	-8533
▁abode	-8534
▁cheap	-8535
▁coals	-8536
▁filed	-8537
▁infat	-8538
▁inser	-8539
▁insin	-8540
▁insom	-8541
▁liked	-8542
▁likes	-8543
▁locks	-8544
▁medic	-8545
▁meets	-8546
▁milit	-8547
▁minus	-8548
▁minut	-8549
▁misty	-8550
▁monum	-8551
▁mouse	-8552
▁murky	-8553
▁naval	-8554
▁nooks	-8555
▁nurse	-8556
▁oaken	-8557
▁organ	-8558
▁paved	-8559
▁piety	-8560
▁pipes	-8561
▁plagu	-8562
▁plumb	-8563
▁plump	-8564
▁poets	-8565
▁porch	-8566
▁posse	-8567
▁postp	-8568
▁proof	-8569
▁quilt	-8570
▁rainb	-8571
▁reads	-8572
▁recon	-8573
▁recur	-8574
▁relie	-8575
▁repet	-8576
▁scald	-8577
▁scowl	-8578
▁scrut	-8579
▁serve	-8580
▁shabb	-8581
▁silen	-8582
▁sized	-8583
▁skill	-8584
▁slabs	-8585
▁spots	-8586
▁squat	-8587
▁squaw	-8588
▁stabb	-8589
▁stash	-8590
▁steed	-8591
▁stole	-8592
▁strip	-8593
▁tawny	-8594
▁thigh	-8595
▁thres	-8596
▁tooth	-8597
▁towed	-8598
▁tract	-8599
bec	-8600
▁2.	-8601
beat	-8602
lves	-8603
olks	-8604
rens	-8605
▁Alf	-8606
▁Leg	-8607
▁gib	-8608
ainty	-8609
coves	-8610
leges	-8611
neath	-8612
ouder	-8613
press	-8614
tingu	-8615
▁begg	-8616
▁crou	-8617
▁mule	-8618
▁phen	-8619
▁skyl	-8620
▁slav	-8621
▁subd	-8622
▁tren	-8623
Bildad	-8624
adence	-8625
anches	-8626
arrens	-8627
atched	-8628
cating	-8629
header	-8630
herent	-8631
legant	-8632
nother	-8633
remacy	-8634
utting	-8635
▁apply	-8636
▁darts	-8637
▁folks	-8638
▁forks	-8639
▁lirra	-8640
▁march	-8641
▁maybe	-8642
▁peren	-8643
▁resid	-8644
▁respo	-8645
▁slack	-8646
▁trail	-8647
▁tramp	-8648
▁unden	-8649
▁unfal	-8650
▁unlim	-8651
▁unsub	-8652
▁until	-8653
▁vault	-8654
▁views	-8655
▁vigor	-8656
▁voyag	-8657
▁wards	-8658
▁waste	-8659
▁weave	-8660
▁weedy	-8661
▁whirl	-8662
▁widow	-8663
▁wives	-8664
▁wrest	-8665
Advance	-8666
Another	-8667
Capting	-8668
Holland	-8669
Requiem	-8670
Spouter	-8671
Sulphur	-8672
ainsaid	-8673
arewell	-8674
asiness	-8675
ateness	-8676
attling	-8677
bearers	-8678
cerning	-8679
covered	-8680
eminacy	-8681
glasses	-8682
habited	-8683
idently	-8684
inaries	-8685
itering	-8686
justice	-8687
lestial	-8688
licated	-8689
misings	-8690
mitting	-8691
negades	-8692
oluccas	-8693
omeness	-8694
omorrah	-8695
onsense	-8696
ovember	-8697
owering	-8698
patched	-8699
rov	-8700
acks	-8701
born	-8702
clad	-8703
hyme	-8704
nuts	-8705
sole	-8706
they	-8707
▁10.	-8708
▁Bow	-8709
▁Lay	-8710
▁fog	-8711
▁tag	-8712
abber	-8713
agans	-8714
emory	-8715
halot	-8716
icism	-8717
omach	-8718
these	-8719
▁Crew	-8720
▁Erie	-8721
▁Many	-8722
▁Mary	-8723
▁disg	-8724
▁lady	-8725
▁maty	-8726
▁tags	-8727
apland	-8728
ometer	-8729
persed	-8730
romang	-8731
ronted	-8732
solete	-8733
▁Astir	-8734
▁Rhyme	-8735
▁airth	-8736
▁bride	-8737
▁brows	-8738
▁clout	-8739
▁coach	-8740
▁moose	-8741
▁moves	-8742
▁raise	-8743
▁sheer	-8744
▁sheet	-8745
▁spang	-8746
▁weary	-8747
achalot	-8748
istible	-8749
peaking	-8750
quately	-8751
reaming	-8752
running	-8753
stained	-8754
ubbling	-8755
urgents	-8756
vations	-8757
vention	-8758
verages	-8759
viating	-8760
▁Aboard	-8761
▁Alfred	-8762
▁Almost	-8763
▁Author	-8764
▁Canaan	-8765
▁Carpet	-8766
▁Errone	-8767
▁Friend	-8768
▁German	-8769
▁Indies	-8770
▁Manill	-8771
▁Martin	-8772
▁Memory	-8773
▁Monday	-8774
▁Mystic	-8775
▁Napole	-8776
▁Nightg	-8777
▁Octavo	-8778
▁Oregon	-8779
▁People	-8780
▁Prince	-8781
▁Pulpit	-8782
▁Quarto	-8783
▁Sermon	-8784
▁Squall	-8785
▁Steady	-8786
▁Struck	-8787
▁Summer	-8788
▁Sunset	-8789
▁Syrian	-8790
▁TABLET	-8791
▁Taking	-8792
▁Thames	-8793
▁Venice	-8794
▁Vermon	-8795
▁abroad	-8796
▁access	-8797
▁advert	-8798
▁agents	-8799
AS	-8800
lam	-8801
Clam	-8802
Just	-8803
West	-8804
feit	-8805
stay	-8806
such	-8807
▁18.	-8808
▁Acc	-8809
▁Red	-8810
▁Rem	-8811
▁Top	-8812
▁dub	-8813
▁eel	-8814
▁hil	-8815
▁peg	-8816
▁pep	-8817
▁rif	-8818
adise	-8819
ancou	-8820
ciled	-8821
edles	-8822
eware	-8823
onors	-8824
▁Blue	-8825
▁Jack	-8826
▁Miss	-8827
▁Turn	-8828
▁garn	-8829
▁infl	-8830
▁lull	-8831
▁twos	-8832
orship	-8833
sticks	-8834
yellow	-8835
▁Mexic	-8836
▁bened	-8837
▁daunt	-8838
▁facet	-8839
▁imple	-8840
▁local	-8841
▁lucky	-8842
▁shows	-8843
▁tread	-8844
▁trust	-8845
arching	-8846
balance	-8847
elerity	-8848
igation	-8849
ineness	-8850
joinder	-8851
needles	-8852
possess	-8853
▁Beware	-8854
▁Mexico	-8855
▁Tophet	-8856
▁Vancou	-8857
▁appare	-8858
▁applic	-8859
▁arches	-8860
▁assail	-8861
▁astron	-8862
▁august	-8863
▁backed	-8864
▁barnac	-8865
▁belike	-8866
▁belted	-8867
▁bended	-8868
▁bestow	-8869
▁bodies	-8870
▁branch	-8871
▁bronze	-8872
▁bubble	-8873
▁buried	-8874
▁candel	-8875
▁candid	-8876
▁capric	-8877
▁career	-8878
▁cattle	-8879
▁causes	-8880
▁ceases	-8881
▁cetace	-8882
▁chains	-8883
▁chairs	-8884
▁cheery	-8885
▁chests	-8886
▁chosen	-8887
▁closet	-8888
▁coffee	-8889
▁coffin	-8890
▁combat	-8891
▁combin	-8892
▁cooper	-8893
▁copest	-8894
▁copied	-8895
▁cordon	-8896
▁cotton	-8897
▁cracks	-8898
▁cruise	-8899
Ric	-8900
mel	-8901
▁Eh	-8902
▁El	-8903
▁Et	-8904
avan	-8905
avor	-8906
call	-8907
hyse	-8908
iggs	-8909
inav	-8910
jump	-8911
ptic	-8912
same	-8913
▁Ear	-8914
▁pau	-8915
anthe	-8916
avage	-8917
irest	-8918
istig	-8919
ource	-8920
tress	-8921
vated	-8922
years	-8923
▁Cast	-8924
▁East	-8925
▁bord	-8926
▁enum	-8927
▁herm	-8928
▁hoot	-8929
▁nour	-8930
▁tech	-8931
▁twil	-8932
abated	-8933
erated	-8934
ftings	-8935
igured	-8936
▁Often	-8937
▁Peace	-8938
▁Physe	-8939
▁Purit	-8940
▁Truth	-8941
▁awoke	-8942
▁flows	-8943
▁heark	-8944
▁hears	-8945
▁mater	-8946
▁shaft	-8947
▁techn	-8948
ificent	-8949
inavian	-8950
▁Manhat	-8951
▁Panthe	-8952
▁Scenes	-8953
▁Stiggs	-8954
▁Tistig	-8955
▁allies	-8956
▁bachel	-8957
▁cliffs	-8958
▁cultiv	-8959
▁curses	-8960
▁curved	-8961
▁daught	-8962
▁defici	-8963
▁define	-8964
▁deform	-8965
▁deftly	-8966
▁deline	-8967
▁deprec	-8968
▁detest	-8969
▁device	-8970
▁disobe	-8971
▁divers	-8972
▁divine	-8973
▁dogged	-8974
▁donkey	-8975
▁dotted	-8976
▁dragon	-8977
▁dreamy	-8978
▁drives	-8979
▁easily	-8980
▁effort	-8981
▁elapse	-8982
▁elucid	-8983
▁eluded	-8984
▁embell	-8985
▁emerge	-8986
▁emphas	-8987
▁encirc	-8988
▁envelo	-8989
▁errors	-8990
▁exchan	-8991
▁excite	-8992
▁exiled	-8993
▁extrem	-8994
▁fabric	-8995
▁fathom	-8996
▁feasts	-8997
▁fiends	-8998
▁firmly	-8999
To	-9000
fa	-9001
zel	-9002
Line	-9003
abil	-9004
abra	-9005
abri	-9006
agne	-9007
elst	-9008
fice	-9009
holo	-9010
ival	-9011
ivot	-9012
mium	-9013
reek	-9014
sels	-9015
tell	-9016
▁AND	-9017
▁Mel	-9018
▁hop	-9019
▁viv	-9020
assed	-9021
magne	-9022
nings	-9023
otent	-9024
ppled	-9025
tural	-9026
▁List	-9027
▁Mass	-9028
▁gown	-9029
▁lack	-9030
▁lose	-9031
▁mant	-9032
▁pere	-9033
▁pest	-9034
▁reel	-9035
▁rehe	-9036
▁remn	-9037
▁serp	-9038
▁unto	-9039
abriel	-9040
aconda	-9041
arched	-9042
esting	-9043
itness	-9044
leness	-9045
onness	-9046
▁Shore	-9047
▁canal	-9048
▁check	-9049
▁desir	-9050
▁expan	-9051
▁fangs	-9052
▁hazel	-9053
▁pines	-9054
▁pivot	-9055
▁prope	-9056
▁rings	-9057
▁snows	-9058
▁spake	-9059
▁spine	-9060
elstrom	-9061
lemagne	-9062
mblance	-9063
ourless	-9064
uttural	-9065
▁Listen	-9066
▁Melvil	-9067
▁flavor	-9068
▁fleets	-9069
▁fleshy	-9070
▁foible	-9071
▁frigid	-9072
▁frosts	-9073
▁gallon	-9074
▁gibber	-9075
▁glassy	-9076
▁gleams	-9077
▁glides	-9078
▁grimly	-9079
▁grudge	-9080
▁haught	-9081
▁heaped	-9082
▁helmet	-9083
▁hermit	-9084
▁heroes	-9085
▁honors	-9086
▁horrif	-9087
▁hugest	-9088
▁hurrah	-9089
▁immens	-9090
▁immort	-9091
▁indist	-9092
▁inflex	-9093
▁insect	-9094
▁jabber	-9095
▁joints	-9096
▁landsc	-9097
▁laughs	-9098
▁lazily	-9099
AT	-9100
HAN	-9101
TEN	-9102
▁Gr	-9103
▁Vi	-9104
Give	-9105
arse	-9106
deep	-9107
sies	-9108
udes	-9109
uity	-9110
▁Bel	-9111
▁Pil	-9112
▁rod	-9113
▁rud	-9114
aunch	-9115
enery	-9116
rings	-9117
urity	-9118
uties	-9119
▁Stri	-9120
▁View	-9121
▁este	-9122
▁inco	-9123
▁lain	-9124
▁lurk	-9125
▁mitt	-9126
▁ride	-9127
▁sitt	-9128
▁spat	-9129
▁spur	-9130
▁tick	-9131
abouts	-9132
antage	-9133
ething	-9134
mended	-9135
ration	-9136
ushing	-9137
▁Pilot	-9138
▁cared	-9139
▁disag	-9140
▁eBook	-9141
▁eaten	-9142
▁gangs	-9143
▁merri	-9144
▁miser	-9145
▁procl	-9146
▁skiff	-9147
▁tally	-9148
▁towns	-9149
▁Hardly	-9150
▁duties	-9151
▁eludes	-9152
▁esteem	-9153
▁letter	-9154
▁lubber	-9155
▁lunacy	-9156
▁madman	-9157
▁magnet	-9158
▁malign	-9159
▁mantle	-9160
▁marsha	-9161
▁meadow	-9162
▁medall	-9163
▁melted	-9164
▁mended	-9165
▁mirror	-9166
▁misant	-9167
▁misery	-9168
▁misgiv	-9169
▁mutter	-9170
▁mutual	-9171
▁namely	-9172
▁navies	-9173
▁needle	-9174
▁nicely	-9175
▁nightm	-9176
▁nobler	-9177
▁nobody	-9178
▁obeyed	-9179
▁oldest	-9180
▁openly	-9181
▁orgies	-9182
▁pained	-9183
▁palmed	-9184
▁parcel	-9185
▁parent	-9186
▁parted	-9187
▁peaked	-9188
▁permit	-9189
▁perpet	-9190
▁plaguy	-9191
▁plough	-9192
▁policy	-9193
▁portly	-9194
▁poured	-9195
▁preach	-9196
▁precip	-9197
▁prefer	-9198
▁progen	-9199
agn	-9200
olf	-9201
ols	-9202
pit	-9203
Take	-9204
Wolf	-9205
azza	-9206
brim	-9207
cery	-9208
cord	-9209
onah	-9210
open	-9211
remy	-9212
▁12.	-9213
▁Asi	-9214
▁Che	-9215
▁Dan	-9216
▁Lee	-9217
▁Mal	-9218
▁jig	-9219
▁mol	-9220
First	-9221
Jonah	-9222
aging	-9223
arius	-9224
iable	-9225
idity	-9226
llity	-9227
mmers	-9228
ufted	-9229
▁Hold	-9230
▁Land	-9231
▁Lost	-9232
▁Magn	-9233
▁Near	-9234
▁area	-9235
▁brid	-9236
▁dish	-9237
▁leag	-9238
▁mode	-9239
▁padd	-9240
▁prel	-9241
▁tack	-9242
▁tors	-9243
cluded	-9244
corded	-9245
icable	-9246
igable	-9247
indful	-9248
ivered	-9249
reated	-9250
urable	-9251
worthy	-9252
▁Canal	-9253
▁Light	-9254
▁auger	-9255
▁cling	-9256
▁loses	-9257
▁prest	-9258
▁tools	-9259
▁trace	-9260
antable	-9261
olation	-9262
onsible	-9263
▁France	-9264
▁Jeremy	-9265
▁Surely	-9266
▁anoint	-9267
▁bosoms	-9268
▁fought	-9269
▁groves	-9270
▁junior	-9271
▁multip	-9272
▁presti	-9273
▁provin	-9274
▁prying	-9275
▁purcha	-9276
▁pursue	-9277
▁quadru	-9278
▁quaint	-9279
▁quills	-9280
▁quoted	-9281
▁rascal	-9282
▁raving	-9283
▁reaped	-9284
▁rebell	-9285
▁reigns	-9286
▁reiter	-9287
▁repeat	-9288
▁resent	-9289
▁rights	-9290
▁ringed	-9291
▁rooted	-9292
▁rowing	-9293
▁rubbed	-9294
▁rudely	-9295
▁sadder	-9296
▁scheme	-9297
▁search	-9298
▁senior	-9299
Pe	-9300
Bag	-9301
ipp	-9302
jac	-9303
▁Ma	-9304
acit	-9305
aphs	-9306
bout	-9307
clam	-9308
enry	-9309
etus	-9310
hael	-9311
rank	-9312
ruct	-9313
▁Tit	-9314
▁dig	-9315
▁dun	-9316
▁fac	-9317
▁lac	-9318
Every	-9319
aniel	-9320
ctest	-9321
iguel	-9322
irted	-9323
terog	-9324
winds	-9325
▁Ever	-9326
▁Main	-9327
▁doct	-9328
▁econ	-9329
▁hoof	-9330
▁stem	-9331
▁timb	-9332
▁weig	-9333
pacing	-9334
▁Frank	-9335
▁Henry	-9336
▁Moses	-9337
▁agony	-9338
▁disap	-9339
▁dried	-9340
▁edges	-9341
▁gable	-9342
▁intim	-9343
▁lamps	-9344
▁perry	-9345
▁sweat	-9346
▁tacit	-9347
▁wight	-9348
cheeked	-9349
pudding	-9350
uffling	-9351
▁Daniel	-9352
▁Miguel	-9353
▁Swerve	-9354
▁beards	-9355
▁clumsy	-9356
▁loving	-9357
▁planet	-9358
▁sermon	-9359
▁serves	-9360
▁shaped	-9361
▁shares	-9362
▁sheath	-9363
▁shiver	-9364
▁shoots	-9365
▁shouts	-9366
▁sickle	-9367
▁silken	-9368
▁snatch	-9369
▁soaked	-9370
▁solace	-9371
▁sorrow	-9372
▁source	-9373
▁spaces	-9374
▁splice	-9375
▁sports	-9376
▁sprink	-9377
▁sprung	-9378
▁square	-9379
▁squint	-9380
▁squire	-9381
▁stated	-9382
▁statue	-9383
▁stocks	-9384
▁stormy	-9385
▁strove	-9386
▁struct	-9387
▁subter	-9388
▁sunken	-9389
▁swayed	-9390
▁swords	-9391
▁tallow	-9392
▁tender	-9393
▁tester	-9394
▁threes	-9395
▁throbb	-9396
▁throws	-9397
▁torrid	-9398
▁towers	-9399
See	-9400
aky	-9401
erc	-9402
opo	-9403
▁PE	-9404
Hist	-9405
brew	-9406
cile	-9407
eady	-9408
idly	-9409
nted	-9410
opol	-9411
poll	-9412
ruit	-9413
umes	-9414
▁Far	-9415
▁Nar	-9416
▁Phi	-9417
▁Pot	-9418
▁Pre	-9419
▁kin	-9420
▁max	-9421
istry	-9422
ivial	-9423
liver	-9424
reign	-9425
▁Song	-9426
▁neat	-9427
▁stab	-9428
▁tong	-9429
▁weak	-9430
Elijah	-9431
arings	-9432
ilious	-9433
ortion	-9434
ribute	-9435
▁cakes	-9436
▁cough	-9437
▁flint	-9438
▁judic	-9439
▁maxim	-9440
▁outst	-9441
▁perch	-9442
▁share	-9443
▁snort	-9444
▁spear	-9445
▁yarns	-9446
Corrupt	-9447
escript	-9448
hinting	-9449
ounding	-9450
vereign	-9451
▁Empire	-9452
▁Philip	-9453
▁broods	-9454
▁conver	-9455
▁lashed	-9456
▁lastly	-9457
▁paddle	-9458
▁pagans	-9459
▁pagoda	-9460
▁pilots	-9461
▁shared	-9462
▁tongue	-9463
▁towing	-9464
▁trance	-9465
▁transp	-9466
▁tricks	-9467
▁triump	-9468
▁tufted	-9469
▁turban	-9470
▁twitch	-9471
▁unchan	-9472
▁unclad	-9473
▁uneasy	-9474
▁unfort	-9475
▁unmist	-9476
▁upward	-9477
▁utilit	-9478
▁valley	-9479
▁visual	-9480
▁wallet	-9481
▁wallow	-9482
▁wealth	-9483
▁whiten	-9484
▁widest	-9485
▁willed	-9486
▁wisdom	-9487
▁withal	-9488
▁worked	-9489
▁wrists	-9490
▁writer	-9491
▁yelled	-9492
Narwhale	-9493
Thrasher	-9494
ampshire	-9495
andering	-9496
antation	-9497
ationary	-9498
blending	-9499
Ah	-9500
cap	-9501
iam	-9502
ido	-9503
ify	-9504
rev	-9505
rin	-9506
tem	-9507
uny	-9508
Here	-9509
Twas	-9510
bble	-9511
edge	-9512
give	-9513
inen	-9514
kers	-9515
wers	-9516
yarn	-9517
▁Adv	-9518
▁Say	-9519
▁bal	-9520
▁ete	-9521
▁pon	-9522
▁ray	-9523
▁rot	-9524
acles	-9525
aders	-9526
antem	-9527
bergs	-9528
heard	-9529
ierce	-9530
ircum	-9531
iture	-9532
woods	-9533
▁Hugg	-9534
▁Were	-9535
▁adro	-9536
▁brig	-9537
▁card	-9538
▁cart	-9539
▁mang	-9540
▁mess	-9541
▁nest	-9542
▁stif	-9543
boding	-9544
licked	-9545
outher	-9546
owners	-9547
▁Chart	-9548
▁Guido	-9549
▁coats	-9550
▁conge	-9551
▁cream	-9552
▁exten	-9553
▁goney	-9554
▁incom	-9555
▁linen	-9556
▁moral	-9557
▁newly	-9558
▁patri	-9559
▁stung	-9560
▁surve	-9561
queness	-9562
▁Circum	-9563
▁Pardon	-9564
▁sphere	-9565
▁tierce	-9566
▁whites	-9567
boldened	-9568
captains	-9569
closures	-9570
devilish	-9571
elbarrow	-9572
eminence	-9573
iliation	-9574
ineering	-9575
iscovery	-9576
ishments	-9577
ological	-9578
ometimes	-9579
ortioned	-9580
peddling	-9581
pedition	-9582
pelagoes	-9583
pidation	-9584
plicable	-9585
regnable	-9586
riggling	-9587
standing	-9588
straight	-9589
terogene	-9590
turbaned	-9591
ulsively	-9592
uminated	-9593
▁Admiral	-9594
▁Affidav	-9595
▁Already	-9596
▁Barrens	-9597
▁Blanket	-9598
▁British	-9599
TA	-9600
Up	-9601
ux	-9602
,’—	-9603
Let	-9604
Not	-9605
TAI	-9606
pre	-9607
ums	-9608
ache	-9609
isms	-9610
mous	-9611
quet	-9612
quis	-9613
weed	-9614
▁33.	-9615
▁Arm	-9616
▁Cor	-9617
▁elo	-9618
▁gam	-9619
▁sag	-9620
▁wax	-9621
itous	-9622
luent	-9623
ousin	-9624
rible	-9625
romed	-9626
stood	-9627
uting	-9628
▁Macy	-9629
▁fond	-9630
▁fork	-9631
▁meas	-9632
▁toad	-9633
▁toil	-9634
▁unse	-9635
▁unst	-9636
Header	-9637
aulted	-9638
isions	-9639
ucking	-9640
ussian	-9641
▁Davis	-9642
▁Third	-9643
▁liver	-9644
▁mealy	-9645
▁ropes	-9646
▁smote	-9647
▁thews	-9648
▁tusks	-9649
▁unfre	-9650
▁unman	-9651
▁waits	-9652
YMOLOGY	-9653
rockery	-9654
▁dimens	-9655
▁divide	-9656
▁notion	-9657
▁rugged	-9658
▁shoved	-9659
TYMOLOGY	-9660
ribution	-9661
▁Capting	-9662
▁Chilian	-9663
▁Cologne	-9664
▁Convers	-9665
▁Crossed	-9666
▁Dominic	-9667
▁ENGLISH	-9668
▁Finally	-9669
▁Gabriel	-9670
▁Glacier	-9671
▁Huggins	-9672
▁Johnson	-9673
▁Lapland	-9674
▁Morning	-9675
▁Passage	-9676
▁Perseus	-9677
▁Pirates	-9678
▁Prophet	-9679
▁Pudding	-9680
▁Purchas	-9681
▁QUARTER	-9682
▁Quarter	-9683
▁Running	-9684
▁Russian	-9685
▁Sabbath	-9686
▁Shipwre	-9687
▁Sibbald	-9688
▁Steward	-9689
▁Straits	-9690
▁Through	-9691
▁Towards	-9692
▁Whereas	-9693
▁William	-9694
▁Without	-9695
▁acceler	-9696
▁acquies	-9697
▁adopted	-9698
▁affairs	-9699
ai	-9700
oh	-9701
:—‘	-9702
Gam	-9703
ais	-9704
dra	-9705
nut	-9706
ooh	-9707
tic	-9708
▁Ap	-9709
▁CO	-9710
▁Sm	-9711
▁Sn	-9712
▁ah	-9713
Lord	-9714
atra	-9715
ione	-9716
ledy	-9717
onic	-9718
orld	-9719
orne	-9720
rack	-9721
▁Mic	-9722
▁aim	-9723
▁mam	-9724
▁pea	-9725
▁pig	-9726
▁pom	-9727
▁quo	-9728
▁shy	-9729
alent	-9730
drawn	-9731
erson	-9732
pherd	-9733
seled	-9734
umble	-9735
ution	-9736
▁Apri	-9737
▁Sand	-9738
▁Trap	-9739
▁date	-9740
▁leis	-9741
▁lion	-9742
▁pooh	-9743
▁sank	-9744
▁scal	-9745
▁sine	-9746
▁snap	-9747
▁troo	-9748
coming	-9749
ioneer	-9750
pening	-9751
▁Andes	-9752
▁April	-9753
▁Crack	-9754
▁Quake	-9755
▁calam	-9756
▁fishy	-9757
▁grunt	-9758
▁index	-9759
▁maled	-9760
▁smelt	-9761
▁flight	-9762
▁frosty	-9763
▁glared	-9764
▁gloomy	-9765
▁inhale	-9766
▁leaned	-9767
▁nation	-9768
▁summit	-9769
▁traits	-9770
bedience	-9771
cknowled	-9772
eneriffe	-9773
undities	-9774
▁Cheever	-9775
▁Unicorn	-9776
▁alcoves	-9777
▁annihil	-9778
▁anxiety	-9779
▁anyways	-9780
▁appeals	-9781
▁appoint	-9782
▁aspects	-9783
▁assault	-9784
▁assumed	-9785
▁baggage	-9786
▁bambooz	-9787
▁battery	-9788
▁bearded	-9789
▁becomes	-9790
▁beloved	-9791
▁benches	-9792
▁blasphe	-9793
▁blindly	-9794
▁bloodsh	-9795
▁boarded	-9796
▁boasted	-9797
▁booming	-9798
▁bowsman	-9799
Ay	-9800
Ed	-9801
Sw	-9802
’-	-9803
Per	-9804
Rad	-9805
bra	-9806
gan	-9807
ios	-9808
iri	-9809
irs	-9810
lur	-9811
nay	-9812
zas	-9813
▁Ty	-9814
▁et	-9815
DECK	-9816
aden	-9817
amin	-9818
bell	-9819
empt	-9820
hval	-9821
omed	-9822
▁agg	-9823
▁ash	-9824
▁bil	-9825
▁etc	-9826
▁gid	-9827
▁vor	-9828
Stern	-9829
ifies	-9830
ilted	-9831
iriam	-9832
ottle	-9833
seven	-9834
▁Balt	-9835
▁arid	-9836
▁coin	-9837
▁stun	-9838
Edmund	-9839
asmuch	-9840
bottle	-9841
voyage	-9842
▁bales	-9843
▁beard	-9844
▁confl	-9845
▁kicks	-9846
▁prick	-9847
▁voids	-9848
istered	-9849
itiated	-9850
righted	-9851
▁Feegee	-9852
▁Herman	-9853
▁arisen	-9854
▁enlist	-9855
▁extant	-9856
▁loomed	-9857
▁shakes	-9858
▁staves	-9859
▁tumble	-9860
▁Austral	-9861
▁Counter	-9862
▁Ledyard	-9863
▁braided	-9864
▁bravest	-9865
▁buckets	-9866
▁buckler	-9867
▁buoyant	-9868
▁burglar	-9869
▁burying	-9870
▁butterf	-9871
▁cadence	-9872
▁carrion	-9873
▁casting	-9874
▁castors	-9875
▁cetacea	-9876
▁changed	-9877
▁chasing	-9878
▁clanged	-9879
▁clapped	-9880
▁clearly	-9881
▁clicked	-9882
▁collect	-9883
▁colours	-9884
▁columns	-9885
▁comment	-9886
▁conceal	-9887
▁conceiv	-9888
▁concert	-9889
▁condesc	-9890
▁consecr	-9891
▁consequ	-9892
▁contact	-9893
▁continu	-9894
▁convict	-9895
▁coopers	-9896
▁cordage	-9897
▁cricket	-9898
▁crosses	-9899
da	-9900
asc	-9901
fet	-9902
met	-9903
sea	-9904
yet	-9905
▁ST	-9906
▁ge	-9907
▁gn	-9908
Soon	-9909
fuls	-9910
gies	-9911
iate	-9912
otes	-9913
reve	-9914
▁Bon	-9915
▁Bra	-9916
▁Hog	-9917
▁WAL	-9918
▁ade	-9919
▁ech	-9920
▁liv	-9921
▁tas	-9922
▁tit	-9923
▁van	-9924
▁	-9925
e	-9926
t	-9927
a	-9928
o	-9929
n	-9930
i	-9931
s	-9932
h	-9933
r	-9934
l	-9935
d	-9936
u	-9937
m	-9938
c	-9939
w	-9940
g	-9941
f	-9942
,	-9943
y	-9944
p	-9945
b	-9946
.	-9947
v	-9948
k	-9949
;	-9950
I	-9951
’	-9952
T	-9953
A	-9954
-	-9955
S	-9956
“	-9957
—	-9958
C	-9959
H	-9960
B	-9961
!	-9962
”	-9963
q	-9964
P	-9965
W	-9966
_	-9967
E	-9968
N	-9969
x	-9970
?	-9971
R	-9972
j	-9973
L	-9974
F	-9975
M	-9976
O	-9977
D	-9978
G	-9979
z	-9980
Q	-9981
J	-9982
‘	-9983
1	-9984
Y	-9985
(	-9986
)	-9987
:	-9988
V	-9989
K	-9990
0	-9991
2	-9992
U	-9993
3	-9994
*	-9995
8	-9996
